<unk>	0
<s>	0
</s>	0
.	-3.26965
▁	-3.65337
..	-4.20703
...	-4.45403
▁영화	-4.48666
,	-4.73366
의	-4.74388
이	-4.88075
도	-4.95229
는	-4.976
가	-4.97717
을	-5.13744
?	-5.1421
에	-5.33082
▁너무	-5.39315
은	-5.40545
!	-5.4256
▁정말	-5.49024
고	-5.52106
를	-5.59814
다	-5.649
▁이	-5.67111
▁진짜	-5.71191
~	-5.78029
지	-5.80651
만	-5.82641
로	-5.98412
한	-5.98978
게	-6.08839
과	-6.10133
나	-6.13167
점	-6.17882
▁1	-6.25493
!!	-6.25494
▁왜	-6.25705
영화	-6.26708
▁더	-6.27386
▁잘	-6.27992
▁이런	-6.313
▁그	-6.31673
▁다	-6.33814
▁수	-6.36231
▁그냥	-6.37306
으로	-6.38601
....	-6.41692
와	-6.46387
에서	-6.48835
하고	-6.50457
▁10	-6.52461
▁아	-6.55712
▁안	-6.57782
▁보고	-6.60868
▁영화를	-6.61858
▁본	-6.63149
▁좀	-6.63935
▁드라마	-6.65873
라	-6.66341
인	-6.66456
▁평점	-6.67826
서	-6.72424
▁연기	-6.74066
기	-6.75744
네	-6.76889
요	-6.76963
▁내	-6.77514
▁ᄏᄏ	-6.78593
▁영화가	-6.79228
▁봤는데	-6.79421
▁영화는	-6.79745
하는	-6.8051
▁최고의	-6.8237
들	-6.83347
▁내가	-6.83906
▁이거	-6.8491
▁참	-6.85249
▁없는	-6.8582
▁완전	-6.86291
▁한	-6.88702
▁없다	-6.88801
▁쓰레기	-6.89626
▁이건	-6.89698
아	-6.91526
▁스토리	-6.93086
!!!	-6.93151
▁좋은	-6.94244
어	-6.94799
해	-6.95195
거	-6.95605
ᄏᄏ	-6.96546
▁최고	-6.96624
▁이렇게	-6.97788
▁있는	-6.98163
▁2	-6.98404
면	-7.00241
▁3	-7.01153
▁이게	-7.014
야	-7.01991
▁다시	-7.03056
▁보는	-7.03646
보다	-7.07311
자	-7.0909
▁평점이	-7.10028
▁많이	-7.10966
▁것	-7.11398
▁난	-7.11419
^^	-7.12333
지만	-7.12567
네요	-7.12621
ᄏ	-7.13314
▁역시	-7.16233
▁그리고	-7.175
이다	-7.17764
~~	-7.17777
까지	-7.19739
니	-7.21219
리	-7.23497
대	-7.26375
▁뭐	-7.26391
▁또	-7.26419
임	-7.2675
해서	-7.26863
▁재밌게	-7.26933
??	-7.27608
수	-7.27788
▁하는	-7.29312
랑	-7.31296
'	-7.31356
;;	-7.3212
듯	-7.3277
▁넘	-7.3284
건	-7.33039
▁없고	-7.3348
▁작품	-7.33491
▁개	-7.33945
▁아깝다	-7.34195
▁못	-7.34215
▁ᄏᄏᄏ	-7.35113
▁마지막	-7.35735
들이	-7.36371
▁꼭	-7.37129
▁가장	-7.38353
1	-7.38431
진	-7.38598
진짜	-7.39368
데	-7.39371
하게	-7.39499
할	-7.40314
▁보면	-7.40449
일	-7.40556
▁볼	-7.40927
▁재미	-7.40938
▁무슨	-7.42403
▁별로	-7.42932
인데	-7.43024
함	-7.4308
구	-7.43683
)	-7.44789
ᅲᅲ	-7.45603
냐	-7.45763
음	-7.48199
여	-7.48429
▁감동	-7.49613
스	-7.50227
보고	-7.50824
년	-7.50864
사	-7.52041
▁감독	-7.52189
▁지금	-7.52216
▁ᄏ	-7.52707
는데	-7.53279
안	-7.53456
ᄏᄏᄏ	-7.53921
2	-7.54172
▁영화다	-7.54509
던	-7.5485
▁만든	-7.55215
▁하나	-7.55415
▁ᅲᅲ	-7.5576
▁별	-7.57006
▁중	-7.57157
▁같은	-7.57286
▁다른	-7.58081
하다	-7.58311
시	-7.58441
▁'	-7.59009
▁이야기	-7.59457
ᅲ	-7.59912
너무	-7.6074
▁나	-7.60792
라고	-7.60919
▁끝까지	-7.61242
같은	-7.6132
;	-7.61778
좀	-7.6346
▁전	-7.64404
▁ᅳᅳ	-7.64625
적	-7.64695
▁액션	-7.65222
하	-7.65247
▁솔직히	-7.65693
▁하지만	-7.65797
정말	-7.6586
▁할	-7.6621
라는	-7.66762
▁명작	-7.66862
중	-7.67591
주	-7.67747
▁좋다	-7.68505
▁대한	-7.69071
▁말	-7.69281
▁말이	-7.69371
▁전혀	-7.69708
▁같다	-7.70413
▁있다	-7.705
처럼	-7.70792
급	-7.70923
이나	-7.71074
▁시간	-7.71262
▁와	-7.71344
▁느낌	-7.71777
용	-7.71785
(	-7.72275
▁아주	-7.72936
▁봐도	-7.73455
개	-7.73836
입니다	-7.73854
▁뭔가	-7.75305
미	-7.75577
▁ᄒᄒ	-7.75808
▁연출	-7.77202
내	-7.77555
▁많은	-7.79138
▁재밌다	-7.79625
ᅳᅳ	-7.79873
했다	-7.7988
오	-7.80314
▁처음	-7.80324
▁내내	-7.80531
때문에	-7.8092
부터	-7.80939
하지	-7.81083
것	-7.81673
3	-7.81705
▁봤다	-7.81845
▁굿	-7.81885
▁재미있게	-7.81956
▁하고	-7.82353
씨	-7.8262
▁않고	-7.82646
질	-7.83069
▁어떻게	-7.83455
▁한국	-7.83467
▁저	-7.83547
▁내용	-7.83625
▁최악의	-7.83808
▁오	-7.84083
전	-7.84267
분	-7.85511
인지	-7.85574
세	-7.85628
▁때	-7.85989
▁계속	-7.8601
우	-7.86681
▁배우	-7.87062
신	-7.87513
▁모두	-7.87561
상	-7.87623
그	-7.8795
▁그래도	-7.88144
▁이걸	-7.88389
된	-7.88617
▁내용이	-7.88718
인가	-7.896
적인	-7.89825
드	-7.90386
▁듯	-7.9057
에게	-7.90892
▁아니다	-7.90982
,,	-7.91331
-	-7.91552
치	-7.91873
걸	-7.92042
▁아니라	-7.92101
마	-7.92126
▁짱	-7.92332
▁연기가	-7.92618
▁재미없다	-7.92747
보	-7.92871
▁나오는	-7.92919
▁모든	-7.93242
▁생각	-7.9454
▁사랑	-7.94855
▁4	-7.94914
한다	-7.94992
▁제일	-7.95007
정	-7.95285
▁배우들	-7.95414
란	-7.9559
▁아닌	-7.95771
▁딱	-7.95962
▁근데	-7.9632
점도	-7.96548
▁아름다운	-7.9662
▁줄	-7.96796
▁두	-7.96806
▁않은	-7.97035
▁5	-7.97065
▁하	-7.9709
▁한번	-7.97159
드라마	-7.9764
▁최악	-7.97739
▁나는	-7.98243
더	-7.98356
▁아니	-7.98392
▁대박	-7.98427
▁연기도	-7.98499
편	-7.99033
▁제대로	-8.00112
때	-8.00157
▁일본	-8.00213
군	-8.00475
▁보다가	-8.0051
▁만드는	-8.0081
▁이영화	-8.00904
▁스토리가	-8.01039
ᄒᄒ	-8.01627
▁7	-8.02056
▁않는	-8.0209
▁돈	-8.0242
▁그런	-8.0246
부	-8.02523
비	-8.02596
▁거	-8.02696
▁지	-8.03129
▁감독이	-8.03171
▁코미디	-8.03342
▁아니고	-8.03457
▁내용도	-8.03533
▁여자	-8.0369
화	-8.04395
▁OO	-8.04683
이랑	-8.04969
있는	-8.05387
▁주인공	-8.05596
성	-8.06384
▁영화의	-8.06454
말	-8.06517
하면	-8.07205
▁때문에	-8.07936
▁영화라고	-8.08066
▁0	-8.08237
▁싶다	-8.09838
▁보다	-8.09841
▁사람	-8.09858
▁아직도	-8.10049
▁보기	-8.10207
긴	-8.10318
히	-8.1046
장	-8.1068
▁시간이	-8.10779
소	-8.10912
당	-8.11004
~~~	-8.1101
년대	-8.11519
▁차라리	-8.12023
▁절대	-8.12169
▁요즘	-8.12292
▁재미도	-8.12508
이라	-8.12733
▁재밌어요	-8.13015
▁나름	-8.13017
하지만	-8.13198
들의	-8.13418
▁영화입니다	-8.13626
류	-8.13652
없는	-8.13662
▁좋았다	-8.13811
했던	-8.13998
▁특히	-8.14087
이라는	-8.14505
▁걍	-8.146
▁아까운	-8.148
면서	-8.14826
원	-8.14895
▁진심	-8.15047
▁여운이	-8.15085
며	-8.15307
▁엄청	-8.15495
▁8	-8.15616
▁스토리도	-8.16122
ᄒ	-8.16273
없이	-8.16415
▁스릴러	-8.16437
▁이상	-8.16792
▁나도	-8.16925
두	-8.17089
▁인생	-8.17134
잘	-8.17196
▁감독의	-8.17376
물	-8.17663
▁오랜만에	-8.17682
▁기대	-8.17869
▁도대체	-8.17984
▁사	-8.18125
▁마지막에	-8.18344
▁보면서	-8.18955
▁영화에	-8.19138
습니다	-8.19236
▁주는	-8.19334
ᅳ	-8.1972
유	-8.19791
트	-8.19998
▁이제	-8.2012
연기	-8.20218
구나	-8.2048
▁없음	-8.20841
!!!!	-8.21155
조	-8.2118
▁되는	-8.21304
▁제	-8.21434
줄	-8.21677
▁ᄏᄏᄏᄏ	-8.21727
▁주	-8.21768
▁봤습니다	-8.21776
▁좋고	-8.21948
단	-8.21976
▁조금	-8.21981
▁좋아하는	-8.2199
길	-8.22104
""""	-8.22192
점은	-8.23055
본	-8.23796
시간	-8.23796
남	-8.23843
봤는데	-8.23856
▁뻔한	-8.24194
들은	-8.24301
▁일	-8.24387
▁지루하고	-8.24492
▁OOO	-8.24578
엔	-8.24624
▁생각이	-8.25295
▁수준	-8.25382
죠	-8.25418
명	-8.25559
한테	-8.25642
살	-8.25736
▁이해가	-8.25835
려	-8.25877
▁어떤	-8.25961
선	-8.25967
▁없이	-8.26131
▁우리	-8.26135
▁멋진	-8.26196
▁알	-8.26337
▁반전	-8.26492
▁남는	-8.2658
▁^^	-8.26797
▁전개	-8.2758
▁장면	-8.27644
▁ᅲ	-8.27905
▁최고다	-8.28454
ᅮᅮ	-8.2861
♥	-8.28667
▁해	-8.28766
이란	-8.29113
▁애니	-8.29239
▁배우들의	-8.29277
라도	-8.29369
보면	-8.29482
▁개인적으로	-8.30053
???	-8.30276
▁사람이	-8.30334
짱	-8.30539
영	-8.3062
제	-8.3068
▁보는내내	-8.30793
10	-8.30983
합니다	-8.31092
▁공포	-8.31206
▁막장	-8.31283
▁얼마나	-8.31931
▁9	-8.32006
▁뭘	-8.32042
난	-8.321
▁봤던	-8.32178
▁싶은	-8.32199
▁보세요	-8.32255
▁남자	-8.3237
▁후	-8.32429
그냥	-8.32765
▁대	-8.32882
▁지루한	-8.33103
▁건	-8.33146
▁그저	-8.33296
왜	-8.33298
▁재미가	-8.33375
▁20	-8.33496
▁B	-8.33764
▁함께	-8.33833
무	-8.34469
동	-8.34883
▁큰	-8.34907
▁반	-8.3501
▁결말	-8.35143
러	-8.35146
식	-8.353
▁"""	-8.3539
▁실망	-8.35566
▁추천	-8.35808
▁안되는	-8.35931
▁정도	-8.36138
호	-8.36179
▁기억에	-8.36442
▁괜찮은	-8.36453
ᄏᄏᄏᄏ	-8.36601
하나	-8.36629
점이	-8.3666
이고	-8.36703
▁영화로	-8.36724
어요	-8.36781
심	-8.36949
까	-8.37063
이라고	-8.37094
▁아무리	-8.37463
▁재밌는	-8.38026
▁못한	-8.38182
▁연기는	-8.38288
▁보	-8.38783
▁우리나라	-8.38948
노	-8.3933
님	-8.39578
▁그렇게	-8.39702
▁사람들	-8.39741
,,,	-8.39829
되는	-8.40128
▁지루하다	-8.40204
인듯	-8.40736
▁만들어	-8.41002
▁매우	-8.4101
▁나온	-8.41305
~!	-8.41527
▁자	-8.41921
▁오늘	-8.41939
위	-8.42284
날	-8.42348
▁애니메이션	-8.42509
▁제발	-8.42549
모	-8.42563
타	-8.42758
▁좋아요	-8.43033
▁음악	-8.43115
▁6	-8.43182
▁된	-8.43188
▁비	-8.43211
▁있고	-8.43269
▁이해	-8.43556
▁모르겠다	-8.437
연	-8.44007
▁공포영화	-8.44229
▁같이	-8.44277
▁시리즈	-8.44302
▁것이	-8.44328
▁""""	-8.44705
▁좋아	-8.44936
▁봤어요	-8.45499
하네	-8.45564
▁유	-8.45716
하네요	-8.45738
/	-8.45999
▁하나도	-8.46094
▁극장에서	-8.46156
▁어	-8.46372
감	-8.46384
▁너무나	-8.46435
▁위해	-8.46728
▁마음이	-8.46801
▁위한	-8.47264
디	-8.47356
으면	-8.47556
▁걸	-8.47824
▁결국	-8.4805
▁졸작	-8.48063
해도	-8.48343
번	-8.48633
▁몰입도	-8.48893
▁알바	-8.49007
보는	-8.49291
▁않는다	-8.49316
▁미	-8.49376
들을	-8.49428
스토리	-8.49457
▁한다	-8.49485
▁개봉	-8.49647
▁눈물	-8.49937
바	-8.50258
루	-8.50539
재	-8.50599
▁기분	-8.50736
없다	-8.50817
운	-8.50839
;;;	-8.51222
▁수작	-8.51489
▁시작	-8.51505
적으로	-8.51569
그리고	-8.51612
린	-8.5169
▁ᄒ	-8.51809
▁연기력	-8.51819
박	-8.51836
▁원작	-8.5231
▁뭔	-8.52316
▁막	-8.5232
▁정	-8.52396
▁시	-8.52804
방	-8.53008
4	-8.53127
간	-8.53144
▁영화네요	-8.53159
▁재밌음	-8.53487
▁가슴	-8.53825
▁내용은	-8.54031
▁강추	-8.54034
밖에	-8.54172
ᅮ	-8.54936
▁속	-8.55428
판	-8.55662
▁존나	-8.55691
▁갈수록	-8.55972
▁가슴이	-8.56122
발	-8.5613
▁긴장감	-8.56153
▁준	-8.5619
▁될	-8.56199
저	-8.56215
못	-8.56222
▁보지	-8.56314
▁누가	-8.56386
▁신	-8.56461
든	-8.56468
▁그나마	-8.56482
▁지루함	-8.56618
최고	-8.56639
▁눈물이	-8.56887
▁대체	-8.57129
니까	-8.57351
▁대사	-8.57358
▁마	-8.57459
작	-8.57518
▁꽤	-8.57559
▁보게	-8.57573
▁영	-8.57683
▁캐릭터	-8.57793
▁결말이	-8.57873
▁기억이	-8.57906
래	-8.58023
참	-8.58278
▁소재	-8.58301
이런	-8.58369
▁느낌이	-8.58708
▁ᅮᅮ	-8.58965
▁재미없음	-8.59006
▁훨씬	-8.59014
다니	-8.59185
점을	-8.59348
▁시나리오	-8.59378
했는데	-8.59385
었다	-8.596
▁알고	-8.59985
▁게	-8.60205
▁기억	-8.60244
평점	-8.60513
는게	-8.60713
▁조	-8.60735
지도	-8.60897
▁밖에	-8.60905
▁그래서	-8.60949
준	-8.61007
▁재밌고	-8.61057
▁어설픈	-8.61071
▁연기를	-8.61287
따	-8.61431
크	-8.61448
후	-8.61519
▁공감	-8.61742
▁남	-8.61752
생각	-8.61794
지는	-8.62714
하며	-8.62815
▁보여주는	-8.63002
회	-8.63608
▁CG	-8.63733
▁미국	-8.63782
되	-8.64143
▁다들	-8.64394
완전	-8.64627
▁몇	-8.64693
민	-8.64848
건지	-8.64963
▁없었다	-8.65044
하면서	-8.65182
▁아쉽다	-8.65326
▁시즌	-8.65346
▁무	-8.6547
▁쓰레기영화	-8.65471
애	-8.65765
▁않다	-8.66049
▁영상	-8.6609
▁간만에	-8.66169
▁억지	-8.66185
+	-8.66246
배우	-8.66358
넘	-8.66361
▁영화관에서	-8.66413
는지	-8.66464
▁사람들이	-8.66809
티	-8.66867
▁것도	-8.66955
으	-8.67144
봄	-8.67163
감독	-8.67275
▁기	-8.67294
▁잔잔한	-8.67731
▁영화중	-8.67759
▁주고	-8.6778
▁설정	-8.67954
▁것을	-8.68007
이야	-8.68063
만큼	-8.68217
피	-8.68255
하기	-8.68271
▁노잼	-8.6837
했음	-8.68509
차	-8.68719
▁그만	-8.68972
▁음	-8.69554
반	-8.69614
▁30	-8.69733
중에	-8.69965
▁아님	-8.69972
▁당시	-8.69974
▁바로	-8.70058
이지만	-8.70238
▁영화였다	-8.70264
파	-8.70298
▁한국영화	-8.70329
▁같아요	-8.70372
▁생각을	-8.70454
▁소	-8.70477
▁더빙	-8.70521
▁없어	-8.70601
▁감동적인	-8.70617
르	-8.70626
▁현실	-8.70717
코	-8.70782
▁만들	-8.70936
것도	-8.7095
▁감동도	-8.71022
배	-8.71042
▁대해	-8.71182
레	-8.71274
▁원	-8.7128
▁노래	-8.7147
▁생각보다	-8.71595
터	-8.71746
▁진정한	-8.71817
▁좋은데	-8.71933
▁노	-8.72232
5	-8.72234
▁상당히	-8.72448
는거	-8.72469
▁준다	-8.72634
겠다	-8.72805
▁로맨스	-8.72857
더라	-8.72995
▁-	-8.73116
키	-8.73126
▁재미있다	-8.73285
▁그대로	-8.73437
져	-8.73652
다가	-8.73712
현	-8.73731
정도	-8.73827
▁했는데	-8.7383
▁스토리는	-8.73879
▁배우들이	-8.74311
이건	-8.74355
▁부	-8.74432
▁김	-8.74478
워	-8.74526
▁정도로	-8.7472
▁같은데	-8.74767
▁재미있는	-8.74965
▁중간에	-8.7501
▁감동을	-8.75169
뿐	-8.75582
▁피	-8.75662
▁점수	-8.75855
▁감동이	-8.75934
점대	-8.75949
▁재미는	-8.76272
▁날	-8.76584
▁만화	-8.7661
초	-8.76616
울	-8.7662
속	-8.76719
▁나와서	-8.76835
▁세	-8.76854
▁있을까	-8.76922
▁재미있어요	-8.76988
▁눈	-8.7722
>	-8.77354
▁가족	-8.77448
▁걸작	-8.77643
려고	-8.77779
인줄	-8.77914
▁애들	-8.78098
▁자기	-8.78236
▁캐스팅	-8.78236
▁모	-8.78296
겨	-8.78412
▁있지만	-8.78498
▁재밌네요	-8.78733
s	-8.79021
이거	-8.79243
▁뭐지	-8.79541
▁인간	-8.79598
년이	-8.79742
▁영화도	-8.79815
▁별점	-8.79876
였다	-8.79928
실	-8.79976
▁봤지만	-8.79995
▁보니	-8.80072
▁끝	-8.80113
▁장	-8.80227
작품	-8.80496
▁거의	-8.80567
▁약간	-8.8084
▁장면이	-8.81199
▁표현	-8.8131
산	-8.81518
▁미친	-8.81781
카	-8.82046
▁구	-8.82152
▁뿐	-8.82263
▁굉장히	-8.82354
▁ᅳ	-8.82391
▁마음에	-8.82442
▁나의	-8.82546
▁강	-8.82627
▁애	-8.82661
▁볼만한	-8.82783
▁갑자기	-8.82921
거야	-8.82934
▁영화임	-8.82974
즈	-8.82985
등	-8.83057
해요	-8.83151
▁뭐야	-8.83334
▁제가	-8.83569
하는데	-8.83587
문	-8.83805
▁봐서	-8.83807
▁어디서	-8.8383
▁단	-8.83839
생	-8.84095
▁훌륭한	-8.84265
사람	-8.84301
▁있어서	-8.84461
▁저런	-8.84836
▁우	-8.84964
▁새로운	-8.85014
▁발연기	-8.85052
▁뭐냐	-8.85098
▁원작을	-8.85177
▁문제	-8.85229
▁이영화를	-8.85286
경	-8.85413
"""	-8.85439
희	-8.85479
형	-8.85559
▁불	-8.85627
느낌	-8.8571
편은	-8.85761
▁전부	-8.85766
구만	-8.85784
▁평점을	-8.86289
내용	-8.86425
이네	-8.86427
▁욕	-8.86456
▁이딴	-8.86557
▁하지	-8.86651
태	-8.86946
▁아직	-8.87043
▁박	-8.87251
▁적	-8.87413
꺼	-8.8748
▁영화인데	-8.87567
▁되	-8.87609
있다	-8.88116
던데	-8.88445
▁대단한	-8.88447
▁90	-8.88696
▁사실	-8.8871
~!!	-8.88813
▁판타지	-8.88846
망	-8.88851
▁주인공이	-8.88881
▁못하는	-8.88906
▁항상	-8.89173
▁일단	-8.89321
▁봐라	-8.89335
▁분위기	-8.89484
▁바	-8.8959
▁자체가	-8.89614
프	-8.89625
봐	-8.89671
땜에	-8.89728
공	-8.89741
▁그런지	-8.89901
▁재미없는	-8.89999
▁다큐	-8.90088
▁매력	-8.90136
▁하다	-8.90271
▁구성	-8.90484
▁여주인공	-8.9061
▁그러나	-8.90661
▁저는	-8.90918
론	-8.90944
▁마음	-8.91196
▁혼자	-8.91253
근데	-8.91384
▁아무	-8.91468
알	-8.91793
▁말도	-8.91868
▁가지고	-8.91921
▁있는데	-8.91986
▁네이버	-8.92028
▁해서	-8.92077
o	-8.92232
▁들	-8.92452
수준	-8.92473
▁아까움	-8.92492
▁봤음	-8.92501
▁없어서	-8.92696
▁했다	-8.92753
토	-8.92795
▁생각하게	-8.92883
▁작가	-8.92922
▁충분히	-8.92976
영화는	-8.92991
▁초	-8.93071
▁TV	-8.93258
▁중국	-8.93273
▁비해	-8.93314
▁코믹	-8.93316
재미	-8.93523
쓰레기	-8.93531
▁살	-8.93597
▁사람은	-8.93694
이네요	-8.93725
담	-8.93818
대로	-8.94132
버	-8.94296
▁봄	-8.94343
사랑	-8.94388
봤다	-8.94536
▁친구	-8.94869
거나	-8.94989
림	-8.9512
에도	-8.95223
▁점점	-8.95299
▁차	-8.95311
▁맘에	-8.95314
▁제목	-8.95613
해야	-8.95755
▁발	-8.95891
병	-8.95946
▁삼류	-8.96051
▁모습	-8.96057
▁필요	-8.9629
▁뭐가	-8.9641
국	-8.96574
6	-8.96805
불	-8.96911
아니	-8.96997
▁좋네요	-8.97031
또	-8.97035
이라도	-8.97113
OO	-8.97198
▁tv	-8.97202
군요	-8.97234
▁평	-8.97482
관	-8.97671
금	-8.97691
▁주연	-8.9773
극	-8.97786
편이	-8.97877
탄	-8.97952
▁전쟁	-8.97961
▁것은	-8.98076
라서	-8.98095
▁더욱	-8.98115
같이	-8.9815
▁개연성	-8.98315
▁빨리	-8.98391
김	-8.98402
▁후회	-8.98429
주는	-8.98617
▁어느	-8.98805
▁good	-8.98889
▁재밌는데	-8.98903
▁꿀잼	-8.99322
▁그닥	-8.99419
▁처음부터	-8.99422
창	-8.99431
▁(	-8.99458
▁찾아	-8.9946
종	-8.99638
▁얘기	-8.99651
▁배	-8.99887
▁봐야	-8.999
이야기	-8.99906
라면	-8.99945
D	-8.99995
▁좋겠다	-9.00045
▁합니다	-9.00386
이었다	-9.00399
▁유치한	-9.0043
입	-9.00573
▁엔딩	-9.00614
ᄋ	-9.00726
▁한마디로	-9.00753
▁무조건	-9.00853
▁도저히	-9.00874
했지만	-9.01201
▁엄청난	-9.01228
감동	-9.01237
▁만	-9.01355
▁재밌었다	-9.01532
거지	-9.01547
▁전개가	-9.01607
▁어릴때	-9.01724
▁이영화는	-9.01789
8	-9.01809
역	-9.01827
▁가는	-9.02047
없고	-9.02095
뭐	-9.02153
▁여기	-9.02171
▁너무너무	-9.02191
▁방송	-9.02237
▁보는데	-9.02264
▁다시봐도	-9.02296
▁슬픈	-9.02377
▁아쉬운	-9.02408
영화가	-9.02462
▁있어	-9.02576
▁여배우	-9.02627
것이	-9.0275
강	-9.02784
▁예전에	-9.0283
▁따라	-9.02984
▁잘못	-9.03014
▁100	-9.03062
장면	-9.03162
▁따뜻한	-9.03207
기는	-9.03254
없음	-9.03442
이게	-9.03554
어서	-9.03577
보단	-9.03663
▁상	-9.03732
할때	-9.03753
▁머	-9.03884
▁이런영화	-9.03951
이지	-9.03984
▁모르고	-9.04046
▁등	-9.04269
▁않	-9.04374
▁없네	-9.04451
▁감독은	-9.04495
내가	-9.045
영화를	-9.04557
▁원래	-9.04724
▁돈주고	-9.04869
▁이름	-9.05008
▁옛날	-9.0502
▁있을	-9.05039
녀	-9.05315
▁진	-9.05328
▁그때	-9.05419
▁사랑을	-9.05451
양	-9.05674
▁봤네요	-9.05826
▁평점은	-9.05848
▁스	-9.05875
▁사람들은	-9.05922
기도	-9.05922
악	-9.06268
▁안된다	-9.06483
▁잼	-9.06531
▁재밌	-9.06542
▁ᄍᄍ	-9.06709
년도	-9.06745
▁존	-9.06946
체	-9.07071
▁자체	-9.07133
▁각본	-9.07407
봐도	-9.07431
쳐	-9.07452
▁야	-9.07561
▁그게	-9.07738
▁완벽한	-9.07979
▁재	-9.08
▁이것도	-9.08155
▁모르는	-9.08209
d	-9.08228
▁얼굴	-9.08262
다고	-9.08378
▁전형적인	-9.08482
▁짜증	-9.08495
기만	-9.08876
있고	-9.08934
구요	-9.0895
보니	-9.09137
▁높은	-9.09143
년전	-9.09356
▁번	-9.09363
조차	-9.09426
▁아이들	-9.09605
그래도	-9.09808
▁된다	-9.09852
▁성	-9.0987
쓰	-9.09968
7	-9.09968
▁감독님	-9.10078
▁수가	-9.1011
스러운	-9.10138
에선	-9.10173
▁언제	-9.10214
▁헐	-9.1025
▁오래	-9.10266
▁좋은영화	-9.10309
▁없네요	-9.10336
갈	-9.10342
▁오히려	-9.1037
▁성룡	-9.10402
▁울	-9.10403
온	-9.10447
▁있었다	-9.10495
▁뭔지	-9.10511
씬	-9.10585
▁느낄	-9.10618
케	-9.10795
돈	-9.10833
▁알았다	-9.10895
이라면	-9.10905
▁심	-9.1117
▁비디오	-9.11369
▁불륜	-9.1138
▁평점에	-9.11524
▁억지로	-9.1153
듯한	-9.11615
건가	-9.11657
▁파	-9.11677
▁포스터	-9.1182
▁좋음	-9.11832
▁낫다	-9.1189
됨	-9.119
▁그리	-9.12169
▁너	-9.12185
통	-9.12257
집	-9.12315
▁SF	-9.12472
▁장난	-9.1248
▁허	-9.12638
▁80	-9.1265
▁우연히	-9.12813
0	-9.12862
▁이야기를	-9.12874
▁엄마	-9.12906
▁인간의	-9.12923
▁있음	-9.13026
것같다	-9.13119
라니	-9.1312
잼	-9.13333
▁물	-9.13467
액션	-9.13512
예	-9.1352
▁좋았어요	-9.13521
▁만점	-9.13805
▁재미없어	-9.13816
▁멜로	-9.13858
년에	-9.13861
9	-9.13875
▁돈이	-9.1395
▁자꾸	-9.13989
▁해도	-9.14075
▁믿고	-9.14316
▁시절	-9.14348
된다	-9.14401
너	-9.14406
▁없	-9.14442
▁배우가	-9.14449
▁듯한	-9.14556
▁총	-9.1472
▁지루	-9.14795
▁아닌가	-9.14826
▁아무것도	-9.14935
▁비슷한	-9.14979
▁선	-9.15136
▁액션도	-9.15224
좋은	-9.15417
매	-9.15645
▁부족한	-9.15795
별로	-9.15819
▁....	-9.15909
볼	-9.16049
▁이리	-9.16075
▁더럽게	-9.16095
▁말고	-9.16138
▁출연	-9.16197
많이	-9.16239
거다	-9.16272
▁참고	-9.16504
▁것이다	-9.16504
▁똥	-9.16526
▁배경	-9.16588
▁처음으로	-9.16642
▁줄거리	-9.16782
에는	-9.16854
나오는	-9.16987
다는	-9.16993
▁특유의	-9.17204
▁흠	-9.17276
▁ost	-9.17322
▁재미있고	-9.17348
▁초반	-9.17358
▁물론	-9.17388
▁앞으로	-9.17423
▁연출이	-9.17473
▁길	-9.17523
▁여주	-9.17554
▁화이팅	-9.17642
▁지금까지	-9.17686
▁만들지	-9.17792
릴	-9.17974
▁코메디	-9.18015
▁반전이	-9.1805
▁이미	-9.18068
▁알았는데	-9.181
▁망작	-9.18113
▁이상한	-9.18139
▁소리	-9.18149
있	-9.18266
▁아이들이	-9.18305
▁모습이	-9.18514
▁재밌어	-9.18595
석	-9.1876
잖아	-9.18794
▁상황	-9.18799
▁지금도	-9.18901
♡	-9.18922
▁대단하다	-9.18974
해라	-9.18985
▁예	-9.19117
▁분	-9.19147
▁굳	-9.19158
▁졸라	-9.19161
계	-9.19349
놓고	-9.19594
글	-9.197
▁왕	-9.19708
▁동	-9.19746
▁느끼게	-9.19747
▁예술	-9.19927
▁이런걸	-9.20043
될	-9.20146
▁매	-9.20191
▁힘든	-9.20237
▁유치하고	-9.20271
달	-9.20422
▁하면	-9.20519
▁극장판	-9.206
▁어렸을때	-9.20691
되고	-9.2099
▁지루해	-9.21026
▁나와	-9.21034
▁재미없고	-9.21194
_	-9.21295
~~~~	-9.21312
을때	-9.21361
보기	-9.2153
▁제작	-9.21575
머	-9.21591
▁낮은	-9.21743
▁괜히	-9.2176
▁세계	-9.21826
나요	-9.21858
▁장면은	-9.21869
▁쳐	-9.2199
▁지난	-9.22059
▁명작이다	-9.22091
겠지	-9.22115
▁않음	-9.22202
었는데	-9.22214
▁기대하고	-9.22243
▁저도	-9.22284
▁실제	-9.22329
▁입니다	-9.22578
▁소설	-9.22714
▁여	-9.22868
▁왜이리	-9.23157
더니	-9.23228
들도	-9.23532
▁쓰	-9.23592
▁죽	-9.23609
▁ᄒᄒᄒ	-9.23615
색	-9.23672
움	-9.23721
▁뒤	-9.23762
▁아니지만	-9.23971
▁나온다	-9.24006
▁영화라	-9.24047
:	-9.24088
이라니	-9.24109
▁어린	-9.24154
보다는	-9.24166
▁프랑스	-9.24218
▁유치	-9.24299
▁그렇고	-9.24301
▁간	-9.24328
▁최악이다	-9.2433
▁첫	-9.24526
포	-9.24579
▁또한	-9.24652
▁선택	-9.24656
▁장르	-9.24735
▁시간낭비	-9.24748
▁중에	-9.24797
▁허접	-9.24867
었던	-9.24902
연출	-9.24974
이냐	-9.25025
점준다	-9.25027
▁진부한	-9.25049
여자	-9.2509
▁영화보다	-9.25111
기에	-9.25188
소리	-9.25268
을까	-9.2569
▁좋았습니다	-9.25959
같다	-9.26018
▁화려한	-9.26104
▁코	-9.26106
▁재밌었어요	-9.26108
대박	-9.26241
다시	-9.26304
천	-9.2631
▁눈이	-9.26397
눈	-9.26519
▁관객	-9.2658
▁이런거	-9.26608
▁순간	-9.26639
▁스토리에	-9.26692
하냐	-9.26693
▁좋았고	-9.2671
▁전체적으로	-9.26947
길래	-9.27003
▁나올	-9.27072
▁결혼	-9.27077
▁있	-9.27103
나는	-9.27109
▁영화에서	-9.2722
만으로도	-9.27232
▁이정도	-9.27258
▁추억	-9.27318
만한	-9.27355
▁마음을	-9.27609
▁치	-9.27814
▁올	-9.27881
▁좋	-9.2794
▁나만	-9.27947
별	-9.28016
봐라	-9.28166
굿	-9.28173
▁않았다	-9.28271
슴	-9.28322
▁보여준	-9.28387
▁잘봤습니다	-9.28405
했어요	-9.28407
▁그런데	-9.28417
절	-9.28439
▁병맛	-9.28442
▁알게	-9.28456
▁평가	-9.28477
▁목소리	-9.28586
▁같습니다	-9.28629
▁허접한	-9.28634
▁먼저	-9.28801
▁영화였습니다	-9.28812
▁쓴	-9.28858
▁마치	-9.2887
▁하는데	-9.28986
▁삶을	-9.29064
▁보고나서	-9.29194
▁무엇보다	-9.29223
학	-9.29332
▁못하고	-9.29611
▁너무나도	-9.29674
▁액션영화	-9.29706
영화다	-9.29939
▁현재	-9.30001
▁하게	-9.30039
▁저질	-9.30058
근	-9.30088
▁않을	-9.30096
채	-9.30266
역시	-9.3031
▁행복	-9.30338
강추	-9.3041
▁소재는	-9.30568
▁귀여운	-9.30592
짓	-9.30595
마지막	-9.30655
치고	-9.30692
니다	-9.30703
▁손	-9.30744
이면	-9.30763
▁힘	-9.30906
▁드라마를	-9.30908
않	-9.30949
▁시청률	-9.31003
▁맛	-9.31035
남자	-9.31036
▁꿈	-9.31101
▁지금봐도	-9.31237
▁스릴	-9.31294
................	-9.31326
▁입	-9.31498
▁다소	-9.31556
▁어이없는	-9.31662
▁흥행	-9.31756
▁자신의	-9.31823
특히	-9.31855
투	-9.31863
▁과거	-9.31869
▁글	-9.31942
법	-9.31961
▁이젠	-9.32031
▁백	-9.3213
▁확실히	-9.32137
▁아닐까	-9.32159
▁편집	-9.32189
▁액션이	-9.32282
▁영상미	-9.32321
▁볼수	-9.32553
▁인	-9.32757
▁실화	-9.32779
사람들	-9.32795
▁다음	-9.32796
▁대한민국	-9.32818
▁보이는	-9.32957
들에게	-9.32969
에겐	-9.32972
▁왠지	-9.33004
더군요	-9.33018
▁있었던	-9.3303
▁함	-9.33053
▁개그	-9.33069
▁머리	-9.33235
되어	-9.33238
▁연출력	-9.33253
▁어색한	-9.33256
점짜리	-9.3327
▁연	-9.33304
는건	-9.33328
▁본다	-9.33337
▁아이	-9.33373
▁있다는	-9.3341
▁이야기가	-9.3354
설	-9.33599
▁매력적인	-9.33635
▁최	-9.33671
▁사랑이	-9.3369
▁이영화가	-9.33721
▁부족	-9.33734
▁망	-9.33808
▁좋았는데	-9.3393
왕	-9.33968
▁볼만	-9.34018
기를	-9.34076
웃음	-9.34086
▁그런가	-9.34111
▁같네요	-9.34122
▁부분이	-9.34287
▁딸	-9.34299
▁모습을	-9.34361
친	-9.34459
▁이런게	-9.34506
ᅲᅲᅲ	-9.3458
▁좋았음	-9.34609
▁깊은	-9.34699
맨	-9.34765
▁겁나	-9.34828
봐서	-9.35001
▁왜이렇게	-9.35046
▁세상에	-9.35116
▁카	-9.3514
리는	-9.35185
▁변	-9.35194
뻔	-9.35194
▁요	-9.35198
명작	-9.35201
무슨	-9.35346
▁별루	-9.35444
▁열	-9.35451
▁킬링타임용	-9.35474
▁여자가	-9.3556
스트	-9.35582
▁유쾌한	-9.35636
▁감사합니다	-9.35664
▁평론가	-9.35718
▁아버지	-9.3583
▁이후	-9.35855
▁생각한다	-9.35978
▁순	-9.36105
▁매력이	-9.36262
새	-9.36331
▁영화중에	-9.36384
▁느껴지는	-9.364
▁편	-9.36428
마다	-9.36434
▁M	-9.36619
할수	-9.3666
추	-9.36714
▁했지만	-9.36755
테	-9.36781
▁떨어지는	-9.36818
▁만족	-9.36829
▁순수한	-9.36833
▁정신	-9.36984
▁별로다	-9.37116
▁그래픽	-9.37179
▁귀신	-9.37249
▁아놔	-9.37285
했고	-9.37337
짐	-9.37409
▁내용을	-9.37458
▁ᄉᄇ	-9.37521
표	-9.37588
세요	-9.37617
▁리메이크	-9.37634
▁나를	-9.3764
▁첨	-9.37642
▁대충	-9.37645
격	-9.37684
보다가	-9.37774
▁복수	-9.37856
▁서로	-9.37944
▁독립영화	-9.37976
▁눈을	-9.38007
▁맞는	-9.38079
▁든다	-9.38116
▁방	-9.38118
업	-9.38135
▁전에	-9.38152
▁스토리와	-9.38162
-_-	-9.3819
▁약	-9.38253
▁전기세	-9.38257
▁드라마가	-9.38326
▁아니면	-9.38367
~^^	-9.38412
기대	-9.38412
▁역대	-9.38462
▁라는	-9.3849
▁온	-9.38503
▁OST	-9.38518
▁드는	-9.38539
거냐	-9.38553
▁역시나	-9.38619
월	-9.38646
▁아름답다	-9.38697
▁비추	-9.38793
▁나오고	-9.38936
▁처음이다	-9.38999
▁두번	-9.39152
잡	-9.39223
▁여전히	-9.39271
▁카메라	-9.39345
▁갈	-9.39348
순	-9.39394
▁예상	-9.39487
▁사회	-9.39492
▁나쁜	-9.39583
능	-9.39615
▁독특한	-9.39635
욕	-9.39658
▁마라	-9.39669
▁나이	-9.39711
▁연기력이	-9.39799
▁해준	-9.39823
▁ᄏᄏᄏᄏᄏ	-9.39832
▁어디	-9.39906
t	-9.39932
▁15	-9.40161
좋아	-9.40173
▁새	-9.40187
▁댓글	-9.4019
▁보지마세요	-9.40266
▁아닌데	-9.40267
백	-9.40369
▁늘	-9.40391
▁잠	-9.40402
▁사람을	-9.40505
▁작품이	-9.40527
▁-_-	-9.40546
끝	-9.40571
▁심리	-9.40585
좋다	-9.40596
▁없을	-9.40621
교	-9.40734
▁무서운	-9.40758
▁이번	-9.40795
▁질질	-9.40804
▁성우	-9.4082
이렇게	-9.40863
▁소재를	-9.40905
말이	-9.41044
했습니다	-9.41078
▁좀비	-9.41135
▁평범한	-9.41228
▁마무리	-9.41261
▁낭비	-9.41298
▁봤었는데	-9.4135
처음	-9.41352
막	-9.4145
▁신선한	-9.41467
▁있다면	-9.41526
▁재미있음	-9.41619
▁볼때마다	-9.41643
▁난다	-9.41704
ᄉ	-9.41782
▁감정	-9.41788
간다	-9.41821
▁존재	-9.41839
ᄏᄏᄏᄏᄏᄏᄏᄏᄏᄏᄏᄏᄏᄏᄏᄏ	-9.41934
▁슬프다	-9.42027
보는데	-9.4206
(?)	-9.42099
▁사는	-9.42153
▁<	-9.42261
▁사극	-9.42288
하는거	-9.42317
으니	-9.42381
재밌	-9.42388
▁저렇게	-9.42521
환	-9.42594
▁아름답고	-9.42737
하여	-9.4275
▁충격	-9.42752
▁양	-9.42943
력	-9.42978
▁화면	-9.4306
▁평생	-9.43107
보면서	-9.4311
▁감	-9.4313
▁그의	-9.4313
▁귀엽고	-9.43159
▁들어	-9.43206
열	-9.43287
▁이유가	-9.43289
▁연기에	-9.43322
▁했던	-9.43333
▁지루하지	-9.43353
속에	-9.43391
▁액션은	-9.43417
▁안되고	-9.43556
한거	-9.43604
▁끝나고	-9.43725
▁그들의	-9.43738
행	-9.4377
▁아빠	-9.43781
▁애들이	-9.43998
▁대작	-9.44129
▁굳이	-9.44256
▁초딩	-9.44259
삼	-9.44365
▁보는게	-9.44457
▁깊이	-9.44482
평	-9.44494
▁감동적이고	-9.44553
인거	-9.44653
▁일본영화	-9.4466
▁나서	-9.44768
▁살짝	-9.44845
▁재밌었는데	-9.44881
▁안하고	-9.44978
▁젤	-9.451
겠지만	-9.45134
걸까	-9.45148
▁사랑하는	-9.45201
난다	-9.45223
▁통해	-9.45264
놈	-9.45379
하니	-9.45397
▁기대를	-9.45484
이제	-9.45487
▁음악이	-9.45529
▁촬영	-9.4557
▁몰입이	-9.45666
했으면	-9.45808
▁재미없	-9.45815
▁남는다	-9.45891
▁보기엔	-9.4592
▁프로	-9.45933
▁영화이다	-9.45952
▁이유	-9.46035
^	-9.46117
▁데	-9.46145
▁되어	-9.46158
▁안됨	-9.46338
였음	-9.46388
▁스토리를	-9.46475
▁공	-9.46524
▁과연	-9.46531
▁내인생	-9.46544
▁로맨틱	-9.46579
느	-9.46661
▁웃음	-9.46795
메	-9.46838
▁수준이	-9.47047
▁졸	-9.47078
권	-9.47092
▁연기와	-9.47152
버린	-9.47292
▁C	-9.47296
거임	-9.47406
▁책	-9.47419
▁화	-9.47423
=	-9.47438
▁짜증나는	-9.47564
▁공감이	-9.47621
▁그럭저럭	-9.47686
짜	-9.47695
광	-9.47719
이며	-9.4787
▁해주는	-9.47944
▁추천합니다	-9.47984
▁잘만든	-9.47987
▁기분이	-9.48061
▁까	-9.48123
▁가진	-9.48136
척	-9.48152
▁cg	-9.48166
했	-9.48272
▁만들어진	-9.48446
▁분명	-9.48476
▁생각합니다	-9.4851
허	-9.48529
▁잼있게	-9.48606
▁영화지만	-9.48688
▁나왔으면	-9.48781
▁나라	-9.48814
▁아들	-9.48925
▁프로그램	-9.48927
@	-9.48936
▁아닌듯	-9.48945
▁여성	-9.48975
시간이	-9.49096
▁열심히	-9.4916
▁처음엔	-9.49185
도록	-9.49186
가서	-9.49216
▁외	-9.49236
지금	-9.4924
▁만들었다	-9.49246
일까	-9.49319
▁감상	-9.49321
수가	-9.49355
▁보고싶다	-9.49416
규	-9.49424
▁b	-9.49437
처	-9.49479
▁봐	-9.49542
▁고민	-9.4955
▁되었다	-9.49571
복	-9.49613
▁있지	-9.49756
▁군대	-9.4977
방송	-9.49806
▁범죄	-9.49858
▁봤다가	-9.49866
▁같음	-9.49931
없	-9.49974
▁티비에서	-9.50049
▁재미없네	-9.50163
▁그래	-9.50168
▁보시길	-9.50184
▁아까워	-9.50191
▁같아	-9.50377
▁재밌습니다	-9.50426
▁아저씨	-9.5047
▁더이상	-9.50488
▁뮤지컬	-9.50504
▁많다	-9.50607
빠	-9.50608
▁밑에	-9.50753
▁다만	-9.50791
▁용	-9.50866
▁완성도	-9.50961
▁주인공의	-9.50968
▁명	-9.50996
하는게	-9.511
▁둘	-9.51116
▁등장	-9.5112
▁타	-9.51238
▁진행	-9.51281
승	-9.51359
▁높다	-9.51564
▁영화보고	-9.51582
▁연애	-9.51651
▁진심으로	-9.5167
▁인물	-9.51854
▁예쁜	-9.51904
츠	-9.51988
▁봤으면	-9.52038
a	-9.52057
▁삶	-9.52116
▁의미	-9.52144
배우들	-9.52202
▁생각나는	-9.52221
▁사랑에	-9.52382
▁드라마는	-9.52477
▁재미를	-9.52481
▁속편	-9.52669
억	-9.52676
건데	-9.52894
▁역사	-9.52905
▁볼만함	-9.53035
▁크게	-9.53099
ᄍᄍ	-9.53126
시리즈	-9.53135
▁남주	-9.53154
반전	-9.53216
▁한편	-9.53282
▁이유는	-9.53354
????	-9.53371
▁남을	-9.53402
전개	-9.53511
▁몸	-9.53523
▁부분	-9.53661
▁되게	-9.53748
▁이정도면	-9.53761
증	-9.53876
였는데	-9.53968
급영화	-9.54087
▁천	-9.54091
사람이	-9.54125
▁노출	-9.54138
▁그다지	-9.54155
▁호	-9.54163
없어	-9.54179
ᄒᄒᄒ	-9.54199
▁말로	-9.54212
마저	-9.54215
▁인정	-9.54238
브	-9.5427
▁아오	-9.5429
▁끝나	-9.54307
딸	-9.54426
▁긴	-9.54521
▁행동	-9.54591
▁아는	-9.54626
▁필요없다	-9.54685
▁추억의	-9.54749
▁다큐멘터리	-9.54867
▁감성	-9.5489
b	-9.55078
▁쉽게	-9.5513
▁몰입	-9.55193
y	-9.55202
▁싫다	-9.55229
▁유치함	-9.55263
▁비교	-9.55389
▁필요없는	-9.5542
▁여러	-9.5545
쯤	-9.55457
▁없지만	-9.55492
으나	-9.55505
▁훨	-9.55542
▁삶의	-9.55554
내요	-9.55596
▁볼수록	-9.55608
▁설명	-9.55645
▁나중에	-9.55708
▁어제	-9.55738
▁소름	-9.55747
▁한계	-9.55773
▁상영	-9.55796
▁좋았던	-9.5583
▁토	-9.55858
▁감동과	-9.55863
▁중간중간	-9.55921
▁재미있	-9.55922
야지	-9.55983
▁지루해서	-9.55995
꼭	-9.56115
▁디즈니	-9.56199
▁재미있네요	-9.56402
락	-9.56404
▁소재가	-9.56417
▁배우의	-9.56463
하면서도	-9.565
▁아쉬움	-9.56514
▁형	-9.56551
▁제목이	-9.56622
▁완벽	-9.56647
드라	-9.56668
▁가볍게	-9.56672
▁정치	-9.56696
진다	-9.56701
점주는	-9.56723
▁비주얼	-9.56845
▁좋습니다	-9.57009
▁나오	-9.57127
▁실	-9.57127
▁일상	-9.57148
찬	-9.5716
▁엉성한	-9.57223
▁게임	-9.57238
▁보고싶은	-9.57423
퍼	-9.57468
▁나에게	-9.57601
▁위	-9.5763
정도로	-9.57668
▁있나	-9.57686
▁가서	-9.57724
▁봐야할	-9.57768
거같다	-9.57824
▁주인공들	-9.57889
철	-9.57969
가지고	-9.5797
베	-9.58092
▁영웅	-9.58125
▁못했다	-9.58154
▁끝나는	-9.58231
▁소재로	-9.58343
▁언제나	-9.58396
애니	-9.58416
▁이건뭐	-9.58473
▁휴	-9.58559
▁살인	-9.58615
▁12	-9.58641
▁생	-9.58653
▁깨	-9.58682
▁글쎄	-9.58764
▁몰라도	-9.58794
코미디	-9.5884
▁메시지	-9.58889
k	-9.58946
▁역	-9.58953
▁포	-9.59106
▁암	-9.59267
풍	-9.59364
▁우리가	-9.59447
커	-9.59474
성이	-9.59478
▁만큼	-9.59495
▁힘들	-9.59661
▁좋아서	-9.59679
재밌다	-9.59682
일뿐	-9.59688
분이	-9.59855
▁ᅮ	-9.59882
하세요	-9.59948
▁ᄃᄃ	-9.60035
▁영화냐	-9.601
▁있게	-9.60182
▁이연걸	-9.6028
▁찍은	-9.60349
&	-9.60369
린다	-9.6042
올	-9.60424
▁;;	-9.60473
▁되지	-9.60681
▁그럼	-9.60691
▁건지	-9.60739
▁슬프고	-9.60748
▁확	-9.60763
▁사람의	-9.60965
▁싸구려	-9.61012
▁범인	-9.61083
▁마세요	-9.61133
e	-9.61136
▁처	-9.6114
진심	-9.61205
▁만들고	-9.6128
▁어릴적	-9.61281
▁예고편	-9.61445
▁세상	-9.61512
준다	-9.6152
네여	-9.61528
재미없다	-9.61547
▁최근	-9.61554
약	-9.61633
들어	-9.61674
▁경찰	-9.61692
것이다	-9.61711
▁좋을	-9.61777
▁질	-9.61919
▁19	-9.6197
▁않게	-9.61978
▁가끔	-9.62028
▁점수를	-9.62068
▁리	-9.62117
음악	-9.62155
▁올해	-9.62212
▁다시한번	-9.62213
▁관심	-9.62214
▁이제야	-9.62216
▁연출도	-9.62246
▁아깝지	-9.62274
최악	-9.62332
▁하면서	-9.62351
▁불구하고	-9.62413
목	-9.62477
어야	-9.62499
▁정말로	-9.62538
감독이	-9.62552
치는	-9.62566
먹	-9.62595
▁있습니다	-9.62638
▁떠나	-9.62658
▁멋지다	-9.627
나온	-9.62751
▁게이	-9.62757
;;;;	-9.6283
▁달	-9.62902
▁40	-9.62988
▁생애	-9.63036
▁사랑스러운	-9.63073
▁하네요	-9.63099
▁뛰어난	-9.6319
주고	-9.63212
▁만든다	-9.63232
▁표절	-9.63263
것은	-9.63284
끼	-9.63301
▁음악도	-9.63348
▁반전도	-9.63444
▁캐릭터들	-9.63566
이에요	-9.63584
▁병	-9.63619
한번	-9.63624
속에서	-9.63675
▁인생을	-9.63725
주의	-9.63758
▁예전	-9.63773
▁진정	-9.63783
▁살아	-9.63889
▁재밌네	-9.63923
▁평이	-9.63944
▁웃기고	-9.63949
▁어려운	-9.63969
▁시선	-9.64027
▁사건	-9.64033
▁말을	-9.64035
▁무지	-9.64133
▁낮아서	-9.64207
▁꼴	-9.64254
으며	-9.64422
나라	-9.64428
▁바보	-9.64434
▁쫌	-9.64495
▁둘다	-9.64554
▁없나	-9.64576
▁홍콩	-9.64614
실망	-9.64625
▁악	-9.64641
▁삼	-9.64674
까진	-9.64683
▁스타일	-9.64747
하던	-9.64809
▁감탄	-9.6481
▁드럽게	-9.64812
,,,,	-9.6488
▁A	-9.64894
▁산으로	-9.6492
▁딱히	-9.64946
▁싫어	-9.65009
좋	-9.65119
던지	-9.65126
▁유머	-9.65129
▁덜	-9.65135
을듯	-9.65208
씨가	-9.65221
▁패	-9.65238
내용이	-9.6535
▁죄다	-9.65397
말고	-9.65483
슬	-9.65483
도없고	-9.65497
노잼	-9.6552
▁봣는데	-9.65533
▁관계	-9.65547
▁표현한	-9.65565
▁그걸	-9.65623
봐야	-9.65647
▁느와르	-9.65664
▁재밌었음	-9.6567
▁볼만하다	-9.65707
▁단순	-9.65771
▁몸매	-9.65773
이상	-9.65829
언	-9.65869
▁천재	-9.65878
n	-9.65956
▁흥미진진	-9.6597
▁먹	-9.65994
▁재밋게	-9.66092
▁성공	-9.66209
걸로	-9.66238
었음	-9.66327
▁시대	-9.66356
혀	-9.66395
▁인간이	-9.66429
▁알아	-9.66474
해지는	-9.66475
▁사랑과	-9.66488
▁어찌	-9.66505
나서	-9.66551
♥♥	-9.66555
▁재미있었다	-9.66563
▁잔인한	-9.66698
▁극장	-9.66749
▁70	-9.66892
▁같	-9.66945
▁어머니	-9.67051
▁쵝오	-9.67068
▁쓰래기	-9.67104
▁시간을	-9.67192
맞	-9.67215
침	-9.67226
슨	-9.67232
▁결말은	-9.67297
다면	-9.67406
▁어이가	-9.67423
▁관람	-9.67494
▁몰입해서	-9.67553
▁짜증나	-9.67584
▁힘들다	-9.67617
▁분들	-9.67624
써	-9.67702
봣는데	-9.67718
▁산	-9.67756
하긴	-9.67772
에대한	-9.67788
▁되고	-9.67813
▁좀더	-9.67815
▁눈물을	-9.67828
여서	-9.67836
았	-9.67866
염	-9.67913
얘기	-9.6803
▁있어요	-9.68079
들과	-9.68136
▁귀	-9.68144
었	-9.68191
▁결말도	-9.68296
려는	-9.6839
▁리뷰	-9.6852
▁집에서	-9.68533
▁통	-9.68592
에서는	-9.6868
▁보았다	-9.68699
▁주제	-9.68735
▁탄탄한	-9.688
있어	-9.68832
▁나옴	-9.69007
때마다	-9.6909
▁그러	-9.6916
인가요	-9.6924
쉬	-9.69262
▁옛날에	-9.69275
▁단순한	-9.69288
외	-9.69294
▁방금	-9.69294
▁괴물	-9.69361
ᄏᄏᄏᄏᄏ	-9.69442
ᄀ	-9.69446
년전에	-9.69449
▁상상	-9.69497
쿠	-9.695
▁아직까지	-9.69546
였습니다	-9.69559
▁하는지	-9.69628
▁재미없어요	-9.69635
▁몇번을	-9.69641
u	-9.69641
▁뻔하고	-9.69664
▁현실적인	-9.69709
편보다	-9.69757
▁노력	-9.69781
▁보니까	-9.69847
웃	-9.69862
께	-9.69874
▁답답	-9.69882
▁교훈	-9.69916
▁느끼는	-9.69939
▁짜	-9.69979
▁+	-9.70003
▁흔한	-9.70021
▁부터	-9.70046
▁떠나서	-9.70075
▁초반에	-9.70116
▁생각해	-9.70134
▁느낌을	-9.70194
손	-9.70199
▁동화	-9.70207
▁제작비	-9.70347
▁짓	-9.70389
졌다	-9.70462
작가	-9.70468
▁팬	-9.70487
다른	-9.70557
▁인기	-9.70585
▁않아	-9.70586
▁남자가	-9.70633
▁시대를	-9.70722
▁시도	-9.70737
▁헐리우드	-9.70737
어도	-9.70746
드는	-9.70865
프로	-9.70906
▁무엇을	-9.70972
딱	-9.71049
▁지금은	-9.71071
가족	-9.71087
▁무섭다	-9.71172
지루	-9.71188
더만	-9.71215
▁이후로	-9.71221
죽	-9.71348
T	-9.71447
범	-9.71523
▁장면에서	-9.71586
▁벌써	-9.71683
▁고전	-9.71738
▁단지	-9.71773
▁멍청한	-9.71812
▁같아서	-9.71826
▁생각없이	-9.71845
▁작가가	-9.71846
▁많	-9.71898
▁대단	-9.71907
▁모든게	-9.71918
▁추	-9.71944
▁섹스	-9.71949
▁와우	-9.71987
."""	-9.72007
▁즐겁게	-9.72145
▁배우들도	-9.72159
▁작품성	-9.72165
▁돌려	-9.72204
▁압권	-9.72217
▁베스트	-9.72252
▁레전드	-9.72261
▁잔잔하고	-9.7229
적이고	-9.72405
▁중간	-9.72465
▁발로	-9.72465
▁희망	-9.72482
▁청춘	-9.72535
▁누구나	-9.72546
▁않지만	-9.72583
▁써	-9.72672
▁그렇다	-9.7275
▁싶네요	-9.7286
▁위대한	-9.72998
해주는	-9.73015
아깝다	-9.73043
리가	-9.73045
▁광고	-9.73056
점준	-9.73091
▁집중	-9.7311
블	-9.73225
▁재밋다	-9.73261
들아	-9.73268
▁재밋	-9.73273
분들	-9.73299
▁줌	-9.73309
▁한데	-9.73317
햇	-9.73466
번째	-9.73501
쇼	-9.73567
▁"""""""	-9.73568
빈	-9.73569
▁눈에	-9.73588
▁짱짱	-9.73722
▁안보고	-9.73747
▁표정	-9.73757
▁알바들	-9.73777
▁돌	-9.73779
▁유쾌하고	-9.73885
▁젊은	-9.73918
▁극	-9.73958
였던	-9.74052
더라구요	-9.74078
▁북한	-9.74139
▁네	-9.74243
인것	-9.74261
▁말하는	-9.74283
▁티	-9.7429
▁보인다	-9.74324
추천	-9.74325
▁ᄋᄋ	-9.74378
▁죽음	-9.7438
내용도	-9.74402
▁유명한	-9.74411
▁죽는	-9.74425
▁우정	-9.74441
▁능력	-9.74473
▁이런영화가	-9.74478
거리	-9.74489
▁개판	-9.74491
출	-9.74532
▁여운	-9.74576
▁이해할	-9.7466
는걸	-9.74675
좋고	-9.7469
스런	-9.74728
▁미화	-9.74774
▁에휴	-9.74779
습	-9.7478
▁메	-9.74853
▁안타깝다	-9.74859
▁성장	-9.74872
▁저예산	-9.74878
▁시트콤	-9.74922
▁아름다움	-9.74938
▁속에	-9.75018
▁수도	-9.75065
ᄃᄃ	-9.75072
▁맨날	-9.75096
▁단연	-9.75139
플	-9.7514
▁영화에요	-9.75193
차라리	-9.75266
아님	-9.75423
▁웃겨	-9.75451
▁허세	-9.75473
기가	-9.75509
▁한참	-9.75735
▁있네요	-9.75905
귀	-9.75906
뜨	-9.75918
▁생각하고	-9.75936
▁버	-9.75947
▁높아	-9.76009
잉	-9.76051
▁어쩔	-9.76124
▁빼고	-9.76159
c	-9.76216
계속	-9.76294
▁멋있다	-9.76299
▁하나하나	-9.76351
▁해야	-9.76412
▁빠져	-9.76499
▁필요한	-9.76547
함을	-9.76591
되지	-9.7663
▁모르겠고	-9.76655
름	-9.7667
▁기본	-9.76768
보세요	-9.76773
▁악역	-9.76775
▁힘이	-9.768
찌	-9.76822
▁웃음이	-9.76858
술	-9.76869
▁연속	-9.76874
▁ᅲᅲᅲ	-9.76972
▁으	-9.77055
▁끝이	-9.77069
▁드	-9.77086
▁폭력	-9.77149
최고의	-9.77177
▁대사가	-9.7718
▁이거보고	-9.77202
▁당	-9.77211
셨	-9.77309
에요	-9.77309
▁독	-9.77395
▁보고나면	-9.77412
▁못할	-9.77509
한데	-9.77545
하라	-9.77598
▁팔	-9.776
▁울었다	-9.77661
▁음악과	-9.77715
▁무비	-9.77751
일본	-9.77902
▁무척	-9.77907
▁지루할	-9.77936
▁여행	-9.77967
▁그렇다고	-9.77979
▁의도	-9.78021
언니	-9.78027
▁이쁘고	-9.78052
▁당시에	-9.78056
▁즐거운	-9.78097
▁제작진	-9.78154
▁맞	-9.78161
▁느낄수	-9.78162
▁최고입니다	-9.78187
▁헐리웃	-9.78206
오빠	-9.78326
▁꿈을	-9.78419
▁동물	-9.78484
▁없는데	-9.78567
▁잊지	-9.78647
런	-9.78695
▁영화였어요	-9.78708
▁성인	-9.78725
▁유치하다	-9.78726
▁있으면	-9.78745
▁의외로	-9.78765
▁작품을	-9.78801
▁따뜻해지는	-9.78846
▁포장	-9.78893
▁개연성이	-9.78925
평점이	-9.78927
▁에피소드	-9.79014
▁미드	-9.79026
▁용서	-9.79032
▁가지	-9.79139
▁긴장감도	-9.79144
없네	-9.79198
▁생각하는	-9.79199
▁잡	-9.79203
▁에로	-9.79237
▁[	-9.79288
결	-9.79308
ᄆ	-9.7937
▁일이	-9.79413
▁굿굿	-9.79442
▁제로	-9.79479
▁이쁘다	-9.79551
▁the	-9.79588
다운	-9.79611
▁우와	-9.79615
각	-9.79654
▁접	-9.79689
윤	-9.79694
▁인생의	-9.79752
▁50	-9.79854
아닌	-9.79867
▁덕분에	-9.79898
▁007	-9.79913
▁거지	-9.79965
▁아쉽네요	-9.80002
▁재미있었어요	-9.80007
▁웃긴	-9.80008
▁까지	-9.80032
"""""""	-9.80141
지고	-9.80142
만화	-9.80156
▁안되	-9.80368
벌	-9.80393
▁인상	-9.8045
돌	-9.80452
본다	-9.80454
▁왜케	-9.80509
▁쩐다	-9.80543
는것	-9.80572
스럽다	-9.80581
▁자연	-9.80601
▁좋게	-9.80655
▁벌	-9.80672
많은	-9.80683
▁신선하고	-9.80691
▁그녀	-9.80759
찍	-9.80935
▁그린	-9.8094
스타	-9.80944
▁짝퉁	-9.8099
▁티비	-9.81008
▁작품이다	-9.81054
잔	-9.81072
▁현실성	-9.81075
▁스타	-9.81116
▁봤더니	-9.81155
나오	-9.81175
▁호러	-9.81186
▁답	-9.81242
독	-9.81266
암	-9.81304
▁동안	-9.81352
탈	-9.81354
▁여기서	-9.81446
하구	-9.81526
받	-9.81527
하자	-9.81545
▁잊혀지지	-9.81553
니깐	-9.81602
▁투	-9.81615
▁모르겠지만	-9.81668
▁조합	-9.81743
품	-9.81786
▁경	-9.81786
▁진실	-9.81811
▁학교에서	-9.81823
만으로	-9.81828
싸	-9.81833
▁지루했다	-9.81843
엇	-9.81918
▁좋지만	-9.81986
합	-9.8199
▁나오면	-9.81999
▁말하고	-9.82095
책	-9.82103
▁흐름	-9.82156
▁영국	-9.82254
▁작은	-9.8229
▁흥미로운	-9.82302
▁맨	-9.82303
▁베	-9.82321
▁박수를	-9.82347
▁더불어	-9.82348
▁몰입감	-9.82358
▁암튼	-9.82385
인생	-9.82504
▁감정을	-9.82533
▁현대	-9.82569
▁없었던	-9.82591
애들	-9.826
덕	-9.82608
▁어휴	-9.82625
전에	-9.82638
▁나쁘지	-9.82645
▁펑펑	-9.82654
렸다	-9.8275
곡	-9.82809
갑	-9.82834
만든	-9.82859
놈들	-9.82887
쪽	-9.8291
▁퀄리티	-9.82933
▁희생	-9.82986
▁문	-9.82993
r	-9.83
▁빼고는	-9.83005
▁웃기지도	-9.83026
편을	-9.83031
▁어색	-9.83087
▁순수	-9.83111
몰	-9.8316
▁부족하다	-9.83164
▁좋았지만	-9.83169
하다가	-9.83186
있음	-9.832
▁카리스마	-9.8328
▁홍보	-9.83325
▁더러운	-9.83339
련	-9.83347
▁종교	-9.83421
▁외모	-9.83502
싶	-9.83515
▁이쁜	-9.8354
▁13	-9.83544
동안	-9.83555
따라	-9.8359
▁끝내	-9.83616
▁라고	-9.83621
▁죽은	-9.83638
▁울고	-9.83678
싶다	-9.83679
영상	-9.837
▁않나	-9.83708
필	-9.83779
잇	-9.83853
공포	-9.84018
x	-9.84028
▁나가	-9.84035
함이	-9.84049
▁먼	-9.84077
▁직접	-9.84129
▁동생	-9.84131
........	-9.84182
▁담	-9.84188
▁지루하게	-9.84192
▁아이가	-9.84269
▁사랑은	-9.84313
첨	-9.84335
▁뻔	-9.84346
▁식	-9.84486
연기가	-9.84494
시킨	-9.84505
▁레	-9.84519
칠	-9.84611
▁말할	-9.84621
한국	-9.84622
▁관	-9.8475
▁사랑의	-9.84771
시절	-9.84779
▁찍	-9.84934
▁못해	-9.84958
▁집	-9.84994
▁:	-9.85047
▁시사회	-9.85057
맛	-9.85058
▁좋았으나	-9.85083
재밌음	-9.851
틀	-9.85117
▁김기덕	-9.85159
▁역할	-9.85163
되서	-9.85198
▁보길	-9.85298
▁현	-9.85305
▁간다	-9.85322
대사	-9.85326
▁역대급	-9.85367
기엔	-9.8537
▁못한다	-9.85395
▁의미를	-9.85397
▁손발이	-9.85427
▁뭐라	-9.85437
▁원작의	-9.85469
▁완전히	-9.85478
▁윤	-9.85526
▁누구	-9.85603
▁유쾌	-9.85686
▁본다면	-9.85702
꼬	-9.85756
씩	-9.85763
▁다룬	-9.85805
▁지구	-9.85834
총	-9.85845
숙	-9.85852
패	-9.85857
▁보여주	-9.85912
했는지	-9.85934
훈	-9.86001
제발	-9.86035
겠네	-9.86035
▁기대했는데	-9.86162
▁어린이	-9.86242
▁좋겠어요	-9.86321
것을	-9.86323
▁이유를	-9.8635
▁고양이	-9.86354
20	-9.86355
▁뇌	-9.86385
연기도	-9.86467
낸	-9.86521
령	-9.86551
▁실제로	-9.86571
▁없지	-9.86587
▁딴	-9.86595
씨의	-9.86664
시키는	-9.86667
ᄃ	-9.86668
한다는	-9.86672
▁급	-9.86679
▁지나치게	-9.8674
ᄂ	-9.86747
▁남자의	-9.86751
▁18	-9.86751
이었음	-9.86765
스릴러	-9.86802
▁쓰레기다	-9.86803
▁그림	-9.86809
S	-9.86827
▁게다가	-9.86967
하는지	-9.87004
▁연기력도	-9.87022
▁싸이코	-9.87038
▁상상력	-9.87066
직	-9.87078
▁영화인듯	-9.87112
▁삶에	-9.87173
▁행복한	-9.87187
▁엉망	-9.87207
요즘	-9.87278
▁넘치는	-9.87342
▁춤	-9.87399
변	-9.87463
▁조폭	-9.87515
▁학교	-9.87583
▁설	-9.87633
있는데	-9.87661
▁끝난	-9.87679
▁잼있다	-9.87695
▁웃김	-9.87715
▁푹	-9.87911
▁문화	-9.8795
▁느껴진다	-9.87994
인간	-9.88043
세기	-9.88295
탕	-9.88315
▁평점보고	-9.88408
▁보며	-9.88412
그런	-9.8845
버렸다	-9.88451
이자	-9.88453
장면이	-9.8849
▁뿐이다	-9.88491
l	-9.88496
▁갑	-9.88684
▁진부하고	-9.88725
▁이어	-9.8875
▁조연	-9.88772
▁똑같은	-9.88828
▁아이돌	-9.88858
▁디	-9.88879
▁않을까	-9.88897
먼	-9.88944
량	-9.89013
▁답답한	-9.89056
▁보여준다	-9.89101
수록	-9.89154
▁스케일	-9.89173
▁모르게	-9.89206
▁많고	-9.89209
▁재밌다고	-9.89284
▁니	-9.8934
▁드립니다	-9.89367
아이	-9.89407
▁중요한	-9.89454
▁묘사	-9.89482
에서도	-9.89564
▁싶은데	-9.89578
▁법	-9.89637
▁느끼	-9.89662
▁빈	-9.89671
▁잊을	-9.89699
▁후반부	-9.89713
▁하는거	-9.89721
▁몇몇	-9.89727
]	-9.89729
자가	-9.89754
▁좋아해서	-9.89837
▁반성	-9.89843
그래서	-9.8985
▁관한	-9.89928
무비	-9.89946
휴	-9.89958
▁없다는	-9.9013
▁사랑이야기	-9.90177
▁스스로	-9.90202
이걸	-9.90206
만들어	-9.90243
이라서	-9.90259
이니	-9.9029
▁가슴에	-9.90293
그러	-9.9036
봤던	-9.90368
▁됨	-9.90401
같음	-9.90413
주세요	-9.90445
만이	-9.90491
새끼	-9.90543
▁훈훈한	-9.90583
▁자유	-9.90585
영화임	-9.9065
▁감동적	-9.90656
▁주기	-9.90658
▁착한	-9.90668
▁전작	-9.90671
와는	-9.90696
▁잠깐	-9.90751
▁메세지	-9.9086
록	-9.9086
▁들었다	-9.90866
던가	-9.90945
▁레알	-9.90994
▁자살	-9.9102
주인공	-9.91024
▁질리지	-9.91049
▁목	-9.91177
▁무섭지도	-9.91213
결말	-9.91219
j	-9.91246
▁웃	-9.91274
▁긴장감이	-9.91367
▁감동적이다	-9.91378
▁대해서	-9.91407
지마라	-9.91456
▁끌어	-9.91499
f	-9.9152
을텐데	-9.91626
완	-9.91714
▁싶어	-9.91767
▁리얼	-9.91777
답	-9.91783
▁젠장	-9.91894
캐릭터	-9.91919
▁로봇	-9.91932
▁좋아하는데	-9.91958
▁남녀	-9.92019
▁달리	-9.92066
나와서	-9.92068
▁괜찮은데	-9.92069
노래	-9.92154
▁원작이	-9.92156
였	-9.92167
▁나오지	-9.9217
땐	-9.92185
▁많아	-9.92203
있네	-9.92207
▁I	-9.92212
▁있던	-9.92244
▁여자들	-9.92269
▁속에서	-9.92281
와서	-9.92303
▁청소년	-9.92318
아서	-9.92381
▁재미와	-9.92385
한영화	-9.92388
▁그녀의	-9.92407
▁밤	-9.9245
▁개막장	-9.92511
청	-9.92517
만의	-9.92532
▁기자	-9.92563
모습	-9.92624
▁뒤로	-9.92636
▁포르노	-9.92766
▁왠만하면	-9.92792
▁보려고	-9.92827
▁그거	-9.9289
▁한국영화는	-9.92915
▁추억이	-9.92933
하려는	-9.9297
엄마	-9.92989
▁하나의	-9.93084
▁보기에	-9.93089
▁어렸을	-9.9314
▁바람	-9.93204
▁기대안하고	-9.93232
▁전개도	-9.93233
부작	-9.93237
.......	-9.9329
었습니다	-9.93394
▁노답	-9.93395
▁케이블	-9.93432
났다	-9.93511
▁못함	-9.9353
▁소중한	-9.93567
▁보여주고	-9.93584
▁재밌던데	-9.93592
▁이제서야	-9.93658
▁힐링	-9.93667
▁웃기다	-9.93672
▁그렇지	-9.93716
하신	-9.93783
▁태	-9.93848
오늘	-9.93861
기분	-9.93868
C	-9.93894
▁막판에	-9.93907
▁있는지	-9.93914
▁숨	-9.93949
막장	-9.9401
점줌	-9.94055
▁우리의	-9.94103
▁인해	-9.94147
▁화가	-9.9415
▁빠	-9.94151
!!!!!	-9.94223
▁감히	-9.94413
▁홍콩영화	-9.94422
▁사이	-9.94491
▁DVD	-9.94584
보는내내	-9.94648
▁점수가	-9.94651
▁꼬	-9.94653
▁한심한	-9.94655
사람은	-9.94657
▁국내	-9.94674
▁앞으로도	-9.94683
깨	-9.94692
우리	-9.94706
▁살고	-9.94723
링	-9.94748
▁뜻	-9.9476
▁사기	-9.94822
▁악마	-9.9485
▁있었지만	-9.94925
▁개뿔	-9.94929
빨	-9.94999
▁금	-9.95009
▁자막	-9.95036
▁하루	-9.95084
▁짜증난다	-9.95107
▁치고	-9.95112
A	-9.95122
▁작가님	-9.9515
팬	-9.95165
▁나왔다	-9.95282
▁대화	-9.95297
OOO	-9.95339
▁시각	-9.955
▁심하게	-9.95508
▁탑	-9.9552
▁먹고	-9.95558
m	-9.95605
취	-9.95641
▁말도안되는	-9.95693
징	-9.95699
▁없어요	-9.95707
밀	-9.95712
▁욕망	-9.95762
하려고	-9.95777
▁할까	-9.95796
▁모두가	-9.95877
▁잼있어요	-9.95965
영화중	-9.9597
▁할머니	-9.95972
▁전달	-9.96058
▁웃기	-9.96081
▁의리	-9.96194
▁죽이는	-9.96224
▁경험	-9.96244
▁안돼	-9.96319
▁볼게	-9.96324
▁생각함	-9.96328
일이	-9.96349
편도	-9.96358
만드는	-9.96398
▁자신이	-9.96416
좋아요	-9.96433
▁볼거리	-9.96469
씬은	-9.96548
▁반개도	-9.96595
향	-9.96649
려서	-9.96666
▁보여	-9.96671
▁어린시절	-9.96673
지않고	-9.96737
▁이하	-9.96794
▁있구나	-9.96796
▁무술	-9.9681
▁보았습니다	-9.96845
▁트	-9.96852
개봉	-9.96881
이였다	-9.96906
▁할수	-9.96912
▁발견	-9.97002
▁왜이래	-9.97079
▁받아	-9.97095
▁진리	-9.97101
▁장르가	-9.97111
적이	-9.97139
▁설마	-9.97154
는건지	-9.9733
점이다	-9.97376
▁그럴	-9.97382
뭔가	-9.97385
▁우리는	-9.97565
거같은데	-9.97566
▁아마	-9.97593
▁의심	-9.97607
▁비판	-9.97612
▁처럼	-9.97635
들만	-9.97646
봐요	-9.97654
▁최초	-9.97665
있어서	-9.97678
▁쩝	-9.97689
중의	-9.97703
▁신기	-9.97721
▁황당	-9.97728
▁패러디	-9.97729
▁정의	-9.97749
▁재미없게	-9.97786
년도에	-9.97835
어떻게	-9.97897
▁본방사수	-9.97923
한다고	-9.97963
▁흥미	-9.98029
▁영화보면서	-9.98062
른	-9.98114
▁포기	-9.98181
▁흑인	-9.98196
▁형님	-9.98233
▁세상을	-9.98262
▁알수	-9.98324
임에도	-9.98353
현실을	-9.98355
?!	-9.98372
힐	-9.98413
▁어른	-9.98423
▁소름이	-9.98448
▁비디오로	-9.9847
영화라고	-9.98507
시작	-9.9858
▁깨닫게	-9.98635
▁11	-9.98645
▁영원히	-9.98666
▁않네요	-9.98679
료	-9.98682
한듯	-9.987
ᅲᅲᅲᅲ	-9.98704
▁죽이고	-9.98742
▁캐릭터가	-9.98757
▁거짓말	-9.98794
▁스트레스	-9.98863
빵	-9.98919
▁영어	-9.98928
▁죽는줄	-9.98949
립	-9.99005
▁떨어진다	-9.99068
▁좋아할	-9.99127
▁아픈	-9.99143
▁c	-9.99166
마지막에	-9.99228
▁감동적이	-9.9926
봤음	-9.99277
▁빼	-9.9935
곤	-9.99357
하지도	-9.99363
보자	-9.99408
▁피해자	-9.99465
▁생각하면	-9.99555
도아니고	-9.99622
▁관객을	-9.99645
▁감동의	-9.99666
아주	-9.99666
겠	-9.99704
▁자주	-9.99707
했네요	-9.99743
▁눈빛	-9.99767
▁취향	-9.99774
친구	-9.99808
감독님	-9.99839
▁망한	-9.99855
▁명작입니다	-9.99912
편의	-10.0012
▁이해하기	-10.0012
▁작품은	-10.0013
▁낮	-10.0023
할까	-10.0024
▁위해서	-10.0029
줌	-10.003
p	-10.0036
익	-10.0042
▁자신을	-10.0046
렌	-10.0048
▁특별한	-10.0052
▁배우를	-10.0053
▁무협	-10.0054
형님	-10.0057
▁누군가	-10.0058
한게	-10.0059
▁만나	-10.0066
▁바라	-10.0071
했나	-10.0073
▁마이클	-10.0074
개도	-10.0076
▁정도의	-10.0077
▁나왔	-10.0083
▁사진	-10.0084
▁겨우	-10.0086
사는	-10.0088
거라	-10.009
▁국가	-10.0093
▁유명	-10.0095
옥	-10.0098
▁단어	-10.0099
▁견자단	-10.0105
▁분들은	-10.0112
황	-10.0114
존	-10.0116
▁생각나서	-10.0117
▁할말이	-10.0118
그리	-10.0118
▁가치가	-10.012
▁크리스마스	-10.0124
▁극치	-10.0125
▁조작	-10.0126
ᅡ	-10.0129
▁그건	-10.0129
▁웃고	-10.0136
▁필름	-10.0144
▁미래	-10.0148
▁척	-10.0151
▁알겠는데	-10.0161
▁가치	-10.0163
▁보긴	-10.0164
▁대놓고	-10.0164
▁있었는데	-10.0165
▁문제가	-10.0167
▁멀	-10.0169
▁골	-10.0171
년만에	-10.0175
▁여러가지	-10.0177
▁보지마라	-10.0181
▁영화관	-10.0181
시간에	-10.0184
▁만든영화	-10.0188
▁잔뜩	-10.0188
▁모험	-10.0188
보이	-10.0189
▁훌륭하다	-10.0197
▁느꼈다	-10.0197
▁영상이	-10.0198
응	-10.0198
알바	-10.0206
▁다르다	-10.0217
접	-10.0218
넹	-10.0219
났	-10.0223
더빙	-10.0224
▁비극	-10.0229
▁재난영화	-10.0236
▁출연진	-10.0247
▁도전	-10.0247
▁듣고	-10.0248
▁고생	-10.0251
▁왠	-10.0251
득	-10.0253
좋아하는	-10.0263
▁악당	-10.0265
혹은	-10.0267
▁무엇인지	-10.0267
▁씬	-10.027
▁노래도	-10.0271
▁엉성	-10.0275
▁슬픔	-10.0282
▁비하면	-10.0284
▁높	-10.0284
▁못하다	-10.0286
편에	-10.0286
빼고	-10.0288
▁억지스러운	-10.0288
▁쓰레기같은	-10.029
셔	-10.0293
지않	-10.0298
▁시걸	-10.0298
▁안타까운	-10.0299
▁해석	-10.03
▁분위기가	-10.0303
▁감정이	-10.0304
▁팬이	-10.0311
송	-10.0314
▁만들다니	-10.0315
▁최근에	-10.0315
▁연예인	-10.0316
▁없습니다	-10.0319
▁이미지	-10.0328
겁니다	-10.033
▁채널	-10.0331
솔직히	-10.0334
▁최고였다	-10.0334
▁전설의	-10.0334
▁아예	-10.0336
▁등등	-10.0339
▁부모	-10.0341
▁잔	-10.0342
▁지나도	-10.0344
▁대본	-10.0347
힘	-10.0347
▁변태	-10.0349
▁국민	-10.035
▁만들면	-10.035
▁이런영화를	-10.0351
성을	-10.0354
자체가	-10.0358
것만	-10.0361
▁다행	-10.0362
▁넘어	-10.0362
▁a	-10.0365
기억	-10.0382
▁의미가	-10.0383
둘	-10.039
앙	-10.0391
리고	-10.0394
▁색다른	-10.0396
..;;	-10.0411
▁아픔	-10.0412
▁비밀	-10.0416
▁두고	-10.0419
수도	-10.0421
해주세요	-10.0423
▁철	-10.0423
▁받을	-10.0424
▁모르겠음	-10.0426
▁읽	-10.0427
면서도	-10.0427
시즌	-10.0428
▁낚시	-10.0431
▁만한	-10.0432
감독의	-10.0433
▁수준의	-10.0436
▁따	-10.0437
▁꽝	-10.0437
재밌게	-10.0441
▁히	-10.0443
▁가득	-10.0446
▁이래서	-10.0448
텐데	-10.0451
▁오바	-10.0453
▁끌	-10.0454
▁ᄏᄏᄏᄏᄏᄏ	-10.0454
소재	-10.0455
봉	-10.0456
▁남은	-10.0457
로써	-10.0458
▁싶지	-10.046
버리고	-10.0467
눈물	-10.0471
▁앞	-10.0472
▁나머지	-10.0472
공감	-10.0475
▁극장가서	-10.0485
▁개연성도	-10.0491
▁킬링타임용으로	-10.0492
▁회	-10.0496
▁하나같이	-10.0499
▁맥	-10.0504
▁전문가	-10.0506
최	-10.051
▁아닙니다	-10.0512
▁sf	-10.0512
▁키	-10.0513
▁해라	-10.0514
▁거기에	-10.0516
먹고	-10.0518
▁공부	-10.0519
▁그저그런	-10.0521
▁뭐하나	-10.0522
▁2014	-10.0527
했네	-10.0529
▁살아가는	-10.0535
▁재미없었다	-10.0541
낼	-10.0546
▁씨	-10.055
때매	-10.0551
▁싸움	-10.0553
▁크	-10.0554
▁나은	-10.0556
▁적당	-10.0556
▁명품	-10.0556
▁답답하고	-10.056
▁킬링타임	-10.0561
아니다	-10.0561
햇다	-10.0562
충	-10.0564
▁여운을	-10.0565
▁후반	-10.0567
안에	-10.057
▁칼	-10.0572
▁소녀	-10.0572
절대	-10.0576
▁실패	-10.0579
g	-10.0584
▁아나	-10.0584
▁21	-10.0584
▁연출과	-10.0595
얼	-10.0601
▁높게	-10.0601
~!!!	-10.0603
엉	-10.0604
▁또다른	-10.0605
30	-10.0607
▁낚였다	-10.0608
도대체	-10.0608
▁엉성하고	-10.0611
▁블록버스터	-10.0611
▁한국인	-10.0615
▁소소한	-10.0617
v	-10.062
▁출연한	-10.0622
▁정말이지	-10.0622
줬	-10.0622
▁참신한	-10.0624
째	-10.0632
▁죽여	-10.0636
시켜	-10.0638
▁노래가	-10.0639
▁외국	-10.0643
▁에로영화	-10.0643
한건	-10.0647
▁재미있습니다	-10.065
하시	-10.065
할듯	-10.066
킹	-10.0668
▁주성치	-10.0673
▁매력을	-10.0673
▁예쁘고	-10.0686
원작	-10.0691
▁일품	-10.0701
▁재밌을	-10.0702
▁차이	-10.0707
▁봅니다	-10.0708
▁구성이	-10.0708
▁낮네	-10.0708
▁열연	-10.0712
▁괜찮다	-10.0713
자의	-10.0717
▁군	-10.0727
만들	-10.0727
▁싸	-10.0728
▁낮아	-10.0732
았다	-10.0735
▁결코	-10.0737
▁요소	-10.0739
▁연극	-10.074
▁밥	-10.0741
얼굴	-10.0742
▁낮다	-10.0743
▁아니야	-10.0753
▁가슴을	-10.0755
▁아줌마	-10.0756
▁반전은	-10.0758
▁따로	-10.0759
까지는	-10.0764
있게	-10.0764
▁있어야	-10.0765
▁길게	-10.0766
만큼은	-10.077
▁인상적	-10.0774
밥	-10.078
잠	-10.0784
▁이때	-10.0785
커플	-10.079
▁종	-10.0793
▁허무	-10.0805
▁풀	-10.0807
▁방영	-10.0808
▁최고임	-10.0811
▁결말을	-10.0812
▁시청	-10.082
▁많은데	-10.0825
▁애들은	-10.0825
▁중에서	-10.0829
▁돈을	-10.0829
▁막장드라마	-10.0831
▁내려	-10.0832
▁만남	-10.0837
년작	-10.0838
▁식상한	-10.0842
▁쓸	-10.0845
였으면	-10.0847
▁적당히	-10.0847
▁먼가	-10.0851
줘	-10.0852
현실	-10.0852
▁빠진	-10.0866
ing	-10.0867
▁자극	-10.0871
▁잼나게	-10.0875
▁졸리	-10.0887
연기력	-10.0887
▁데리고	-10.0888
▁관객들	-10.0898
하기도	-10.09
똥	-10.09
▁잘봤어요	-10.0904
▁봤을	-10.0911
▁코난	-10.092
▁커플	-10.0921
▁옛	-10.0923
▁전쟁영화	-10.0926
▁잼있	-10.093
▁공포물	-10.0931
누나	-10.0933
▁별로임	-10.0933
▁주인공은	-10.0937
듯이	-10.0939
▁신선	-10.0942
▁찡	-10.0945
▁술	-10.0948
돼	-10.0948
버리는	-10.0949
팔	-10.0953
▁현실이	-10.0962
▁아래	-10.0965
▁명화	-10.0965
▁집중해서	-10.0969
▁오버	-10.0972
▁됩니다	-10.0976
▁둘이	-10.0976
▁탄생	-10.0978
▁불러	-10.0986
했을	-10.099
사람들이	-10.0992
정신	-10.0995
힌	-10.0995
▁풍자	-10.0995
▁승리	-10.0996
죄	-10.0998
부족	-10.102
▁없었	-10.1022
버림	-10.1024
재미없음	-10.1036
사건	-10.1037
▁떠	-10.1048
▁살다살다	-10.105
▁다양한	-10.1052
▁만들었는지	-10.1054
▁몰랐다	-10.1055
▁국	-10.1057
▁이따위	-10.1057
감이	-10.1057
▁해결	-10.1066
늘	-10.1072
게임	-10.1073
▁한국에서	-10.1075
였어요	-10.1075
▁아류작	-10.1076
▁쓰는	-10.1077
▁그만큼	-10.108
님의	-10.1082
▁이것이	-10.1083
▁아무런	-10.1087
▁어쩜	-10.1087
▁남네요	-10.1089
끝까지	-10.1092
B	-10.1095
▁친	-10.1097
▁고통	-10.1099
▁생각했는데	-10.1099
▁기독교	-10.1099
▁사상	-10.1103
▁오래된	-10.1105
엄	-10.111
▁채	-10.111
▁살면서	-10.1111
▁잘하고	-10.1114
▁생활	-10.1118
▁넌	-10.112
▁낮지	-10.1121
▁재밌었	-10.1123
▁좋았을	-10.1124
.........	-10.1124
명이	-10.1126
▁이래	-10.1128
▁본영화	-10.1129
▁갖고	-10.1133
▁빼면	-10.1133
E	-10.1135
▁찍어	-10.1136
▁내용인지	-10.1141
▁틀	-10.1144
▁맞아	-10.1145
인건	-10.1155
▁보자	-10.1157
▁멋	-10.1158
▁괜찮	-10.1159
▁철학	-10.116
율	-10.1161
▁그자체	-10.1163
▁한마디	-10.1164
으론	-10.1168
▁수많은	-10.1171
▁보다는	-10.1177
▁꽃	-10.118
로서	-10.118
▁빵점	-10.1186
▁우주	-10.1191
▁살린	-10.1195
▁ᄋ	-10.1196
▁바랍니다	-10.1198
사회	-10.1205
▁놀랍다	-10.1208
▁이상하게	-10.1214
▁가면	-10.1215
▁신파	-10.1219
▁짧은	-10.1219
▁책을	-10.122
점대는	-10.1225
▁핵노잼	-10.1235
▁보통	-10.1242
지말고	-10.1247
혜	-10.1251
봤어요	-10.1258
♥♥♥	-10.1259
▁분노	-10.1262
떄	-10.1262
엇다	-10.1263
▁뭘까	-10.1265
엘	-10.1267
센	-10.1271
▁작	-10.1279
▁안맞는	-10.1288
▁놀라운	-10.129
h	-10.129
▁최고로	-10.1291
왔	-10.1292
▁궁금하다	-10.1294
▁보기에는	-10.1296
▁색	-10.1299
▁개봉한	-10.1303
▁플롯	-10.131
것같아요	-10.1313
▁각	-10.1319
▁제임스	-10.1319
▁죽을	-10.1319
였지만	-10.132
▁갔	-10.1328
재밋	-10.1332
▁볼수있는	-10.1333
없어서	-10.1335
▁망친	-10.1339
▁영화보는	-10.1347
▁주제를	-10.1348
공포영화	-10.1349
▁발전	-10.135
▁받는	-10.135
▁주기도	-10.1351
보지	-10.1351
▁마이너스	-10.1353
▁교훈을	-10.1381
▁예쁘다	-10.1381
▁여주가	-10.1386
땅	-10.1389
▁뒷	-10.1389
▁꽤나	-10.1393
받고	-10.1395
▁연기력은	-10.1397
제목	-10.14
▁스토리의	-10.1404
보다도	-10.1409
▁부분도	-10.1418
효	-10.1433
▁불쌍하다	-10.1442
▁했으면	-10.1444
문제	-10.1448
▁심지어	-10.1453
▁이야기는	-10.1453
▁형사	-10.1455
▁대부분	-10.1455
였어	-10.1456
▁손에	-10.1461
▁마지막까지	-10.1467
▁좋겠네요	-10.1467
▁하네	-10.1467
갔다	-10.147
거같음	-10.1471
▁아쉽지만	-10.1474
▁놓고	-10.1474
모든	-10.1481
있나	-10.1482
거죠	-10.1486
모두	-10.1488
▁전편	-10.1491
▁자체는	-10.1492
이름	-10.15
▁재미도없고	-10.1502
견	-10.1506
▁않아서	-10.1509
관계	-10.1511
▁D	-10.1514
▁넘게	-10.1522
님이	-10.1525
ᄅ	-10.1527
▁반드시	-10.1531
랄까	-10.1532
▁사고	-10.1534
지를	-10.1535
▁봤을까	-10.1538
▁정작	-10.154
지루함	-10.154
▁내용과	-10.1543
▁가벼운	-10.1543
▁어느정도	-10.1545
▁모르	-10.1546
▁인간들	-10.1564
▁생각으로	-10.1565
▁등장인물	-10.1566
▁열정	-10.1567
O	-10.157
▁ᄀ	-10.1574
▁불편한	-10.1578
▁시청률이	-10.1581
▁반복	-10.1581
w	-10.1584
▁외계인	-10.1584
▁첫사랑	-10.1587
▁다운	-10.1588
었지만	-10.1588
하다니	-10.159
나고	-10.159
▁아까웠다	-10.1591
럽	-10.1594
▁엔딩이	-10.1594
▁바다	-10.1595
▁캬	-10.1599
▁역사를	-10.1602
▁포스터가	-10.1604
머리	-10.1607
나와	-10.1608
▁떨어지고	-10.1609
▁쓰고	-10.1609
명의	-10.1613
▁처음에는	-10.1613
배우들의	-10.1617
예요	-10.1621
▁소설을	-10.1623
▁약간의	-10.1624
되면	-10.1627
▁명작을	-10.1628
▁평론가들	-10.1629
▁아깝	-10.163
▁좋았	-10.1636
▁있다니	-10.1637
뜻	-10.1642
갑니다	-10.1644
▁존경	-10.165
▁변화	-10.1654
▁주윤발	-10.1655
▁인내심	-10.1659
▁아름답게	-10.1662
고싶다	-10.1662
▁인물들	-10.1663
영화로	-10.1664
▁어설프고	-10.1666
▁전체	-10.1669
▁어울리는	-10.167
▁풍경	-10.167
껄	-10.1681
▁임팩트	-10.1683
이었던	-10.1686
▁T	-10.1687
▁그립다	-10.1693
▁그야말로	-10.1694
▁복	-10.1694
▁감사	-10.1694
계의	-10.17
▁소재도	-10.1704
▁내가본	-10.1706
▁아까운영화	-10.1706
가지	-10.1707
▁볼때	-10.1707
▁헤	-10.1708
▁태어나서	-10.1708
▁한편의	-10.1709
▁친구가	-10.1713
▁남편	-10.1722
▁당신은	-10.1725
▁무서워	-10.1729
▁원작에	-10.1729
또한	-10.1731
짜증나	-10.1731
▁짜증나서	-10.1731
▁1,2	-10.1735
대는	-10.1736
▁시리즈는	-10.1738
▁홍	-10.174
력이	-10.1746
▁영화들	-10.1749
▁로그인	-10.1754
▁귀여워	-10.1756
튼	-10.1758
사이	-10.1759
▁참신	-10.1762
였고	-10.1772
i	-10.1772
화이팅	-10.1772
▁광	-10.1774
▁소년	-10.1774
▁보던	-10.1776
▁러닝타임	-10.178
▁일부러	-10.1783
자나	-10.1788
▁강렬한	-10.179
인이	-10.1794
▁해리포터	-10.1798
▁유일한	-10.1798
▁쓸데없이	-10.1802
▁싸우는	-10.1802
▁당연히	-10.1804
▁했	-10.1804
▁하나로	-10.1806
▁어른이	-10.1806
▁한국의	-10.1811
▁나름대로	-10.1812
하시는	-10.1814
▁장국영	-10.1818
▁집에	-10.1822
이든	-10.183
▁몇번	-10.1832
▁어렵다	-10.1832
▁이딴걸	-10.1832
▁효과	-10.1832
▁만들수	-10.1832
겠죠	-10.1833
▁첨엔	-10.1835
▁뭉클	-10.1839
▁들고	-10.184
것같은	-10.1847
ᄋᄋ	-10.1847
▁코미디영화	-10.1851
▁교육	-10.1854
설정	-10.1855
▁강한	-10.1856
끈	-10.1859
▁해피엔딩	-10.1864
▁갈등	-10.1871
▁많은걸	-10.1873
▁희망을	-10.1874
▁짜증만	-10.1874
들고	-10.1876
▁한번도	-10.1877
▁선물	-10.1879
▁실력	-10.188
▁받은	-10.1886
골	-10.1889
▁처음에	-10.1894
빨리	-10.1894
▁멋있	-10.1902
젤	-10.1902
▁of	-10.1906
▁다시는	-10.191
▁본게	-10.1912
영화의	-10.1921
하길	-10.1921
▁괜찮았다	-10.1923
▁유일하게	-10.1929
▁상처	-10.1929
스토리도	-10.1935
▁느낌의	-10.1935
▁감동은	-10.1941
▁모든걸	-10.1941
▁황	-10.1945
▁심형래	-10.1946
본영화	-10.1947
쓰고	-10.1954
▁연기자들	-10.1955
▁썩	-10.1956
▁송	-10.1956
배경	-10.1958
▁본지	-10.196
▁수작이다	-10.1964
▁잭	-10.1969
했어	-10.197
▁시간아깝다	-10.1973
페	-10.1974
▁어이	-10.1975
▁ᄍᄍᄍ	-10.1976
▁하는게	-10.1976
▁장면도	-10.1977
▁있네	-10.1981
▁미모	-10.1982
▁남아	-10.1982
▁재미없어서	-10.1983
//	-10.1989
▁음식	-10.1995
▁핵	-10.1998
▁아니지	-10.2001
▁낮게	-10.2007
ᅲᅮ	-10.2007
▁아쉽	-10.2011
▁영상과	-10.2012
한다면	-10.2014
▁배우들은	-10.2022
▁그려	-10.2029
▁여자의	-10.203
갠적으로	-10.2035
▁흐	-10.2037
하는건	-10.2038
▁괜찮음	-10.2041
▁놀	-10.2041
는것도	-10.2042
▁나에겐	-10.2048
▁내생에	-10.205
이해	-10.2051
▁모를	-10.2052
▁dvd	-10.2057
▁뱀파이어	-10.2064
전쟁	-10.2068
누	-10.2068
▁따뜻하고	-10.2069
▁새벽에	-10.2069
▁재미로	-10.207
▁이상하고	-10.2072
..........	-10.2073
겠어요	-10.2073
좋음	-10.2074
해야지	-10.2074
▁웃으면서	-10.2075
▁보다니	-10.2079
봅니다	-10.208
▁케이블에서	-10.2087
갔	-10.2088
쓴	-10.209
속의	-10.2093
▁/	-10.21
거같아요	-10.2101
▁배경음악	-10.2102
▁할아버지	-10.2105
▁미소	-10.2107
▁많아서	-10.2116
긴한데	-10.2116
려면	-10.2118
▁봐야하는	-10.212
학년	-10.2127
▁이해를	-10.2128
봤지만	-10.2131
해준	-10.2134
장르	-10.2134
▁오락영화	-10.2138
느라	-10.2139
표현	-10.2141
▁폴	-10.2153
놓은	-10.2157
▁흐르는	-10.2161
재밌어요	-10.2161
갓	-10.2166
시나리오	-10.2167
걍	-10.2168
▁울리는	-10.2169
높	-10.217
롱	-10.217
▁인도	-10.2172
▁폭	-10.2174
▁얼	-10.218
▁뭐니	-10.2181
▁착각	-10.2184
▁주제가	-10.2193
▁별로고	-10.2199
▁돋보이는	-10.2201
▁혹시	-10.2203
▁가수	-10.2203
▁아깝고	-10.2208
▁놈	-10.2209
▁본거	-10.2215
▁곧	-10.2219
▁영화인지	-10.2221
▁다시보니	-10.2223
▁캐	-10.2226
▁가정	-10.223
나옴	-10.2232
▁잤다	-10.224
..^^	-10.224
꾸	-10.224
▁이런건	-10.2245
▁재밌어서	-10.225
으니까	-10.2253
신고	-10.2255
껏	-10.2256
일듯	-10.2257
▁아쉬움이	-10.2267
생각이	-10.2272
▁현실과	-10.2278
▁싶	-10.2279
스러움	-10.228
▁하아	-10.2282
▁재밋어요	-10.2282
▁^	-10.2283
▁보이	-10.2293
▁기술	-10.2293
렁	-10.2296
▁할리우드	-10.2296
19	-10.2303
▁배트맨	-10.2309
▁지나	-10.2309
냐고	-10.2309
재미없	-10.2311
해진다	-10.2315
▁맞지	-10.2316
▁들어가	-10.2317
▁=	-10.2319
▁조니뎁	-10.2319
져서	-10.2322
▁다운받아	-10.2322
▁느낀	-10.2324
▁봤네	-10.2325
▁하다가	-10.2326
▁숨겨진	-10.2327
▁빌려	-10.233
▁영화인가	-10.2331
▁대통령	-10.2333
▁잘못된	-10.2334
자는	-10.2337
▁명작이	-10.2339
▁추리	-10.2339
▁시간만	-10.2342
것들	-10.2342
▁최고의영화	-10.2344
▁싶을	-10.2348
▁한심	-10.235
점정도	-10.2352
겟다	-10.2353
영화에	-10.2355
▁무언가	-10.2359
나오고	-10.2359
개그	-10.2362
▁없었음	-10.2366
▁자식	-10.2368
▁초딩때	-10.2368
▁제목만	-10.2369
꿀잼	-10.237
▁의문	-10.2372
▁머리가	-10.238
나게	-10.2381
--	-10.2383
인의	-10.2383
▁실화를	-10.2389
▁이쁘	-10.239
▁마음으로	-10.2394
▁싶어요	-10.2395
▁근	-10.2397
▁엄마가	-10.2402
▁영환데	-10.2402
▁장면을	-10.2406
▁삶이	-10.2407
▁섹시	-10.2411
혁	-10.2412
▁가족영화	-10.2415
부분이	-10.2416
▁자신	-10.2417
션	-10.2419
▁남자주인공	-10.2421
▁대중	-10.2422
▁나네요	-10.2423
▁울컥	-10.2425
세계	-10.2428
지않는	-10.2428
ᅥ	-10.2429
었고	-10.2431
▁디워	-10.2432
▁교과서	-10.2433
싱	-10.2434
▁짠	-10.2435
▁짜증이	-10.2436
▁나랑	-10.2446
▁업	-10.2448
▁짝이	-10.2453
▁S	-10.2454
▁언제봐도	-10.2456
▁환상	-10.2457
▁청	-10.2461
▁단순히	-10.2462
▁세상이	-10.2462
▁시간가는줄	-10.2464
기위해	-10.2466
▁마약	-10.2467
▁클레멘타인	-10.2467
▁안간다	-10.2467
오는	-10.2473
▁옷	-10.2476
▁60	-10.2476
▁줍니다	-10.2482
▁어색하고	-10.2486
▁삼류영화	-10.249
▁아냐	-10.2497
▁내게	-10.2497
▁가족이	-10.2497
▁격	-10.2507
▁진수	-10.2512
보니까	-10.2515
분은	-10.2521
가요	-10.2525
▁감독을	-10.2528
▁보지마	-10.2529
▁올리	-10.2531
▁ᄏᄏᄏᄏᄏᄏᄏ	-10.2533
▁유치해	-10.2534
▁어릴	-10.2536
▁아니라고	-10.2538
▁불쌍한	-10.2539
▁후속작	-10.2547
▁예능	-10.2549
▁맛이	-10.2563
팅	-10.2564
짝	-10.2564
▁희대의	-10.2565
▁멋있는	-10.2566
▁하길래	-10.2567
▁편견	-10.2569
▁여러번	-10.2578
▁다르게	-10.2583
하지마라	-10.2584
▁배우도	-10.2586
▁러시아	-10.2586
▁떨어짐	-10.2588
▁풀어	-10.259
▁반전을	-10.2592
▁사운드	-10.2595
매력	-10.2603
▁터미네이터	-10.2606
멜로	-10.2607
▁밀	-10.2612
▁모르겠네요	-10.2617
▁개노잼	-10.2618
안되	-10.262
▁올려	-10.2621
▁멋지고	-10.2626
▁지겹다	-10.2626
▁중반	-10.2629
쳤	-10.263
▁꺼	-10.263
▁궁금	-10.2631
▁얼굴이	-10.2633
▁없나요	-10.2634
▁시리즈중	-10.2634
▁짜증남	-10.2635
▁잼있음	-10.2639
▁배우는	-10.265
쓰레기영화	-10.2663
이죠	-10.2668
▁뛰어	-10.2674
▁안봐도	-10.2678
슈	-10.2678
▁짜임새	-10.2683
▁빵	-10.2685
!!!!!!!!!!!!!!!!	-10.2686
▁방법	-10.269
지않은	-10.2691
홍	-10.2694
▁그것도	-10.2696
▁있다고	-10.27
으로서	-10.2701
▁로버트	-10.2702
부분은	-10.2703
▁달라	-10.2705
졸	-10.2707
▁여주인공이	-10.2707
▁이토록	-10.2709
▁무섭	-10.2711
`	-10.2712
I	-10.2715
캐스팅	-10.2716
멋	-10.2718
었어요	-10.2719
▁높아서	-10.2723
▁체	-10.2729
건가요	-10.2732
▁봤다면	-10.2737
▁알겠다	-10.2737
분만에	-10.2737
▁웬	-10.2738
시대	-10.2738
버리	-10.2741
▁이러	-10.2741
▁사람도	-10.2742
재밌어	-10.2742
▁맘	-10.2742
되었다	-10.2743
있지	-10.2743
▁아이들과	-10.2745
▁재밋음	-10.2748
엿	-10.2757
▁봐도봐도	-10.2759
▁오브	-10.276
▁이뻐서	-10.2761
내용은	-10.2763
▁매일	-10.2763
▁사투리	-10.2767
▁그동안	-10.2768
분을	-10.2774
▁안습	-10.2774
낮	-10.2776
▁가고	-10.2777
▁페	-10.2784
점수	-10.2786
▁앤	-10.2788
ᅵ	-10.2791
괴	-10.2792
▁이런영화는	-10.2798
▁이것	-10.2801
영화인데	-10.2812
온다	-10.2818
였나	-10.2819
▁받고	-10.2819
많	-10.2826
▁에이	-10.2827
북	-10.2828
▁레이	-10.2833
▁무시	-10.2833
▁부부	-10.2834
▁말자	-10.2834
▁귀엽	-10.2834
▁한번쯤	-10.2837
▁도무지	-10.2841
순간	-10.2847
이여	-10.2849
▁끝에	-10.285
함과	-10.2855
▁갑니다	-10.2855
▁잊고	-10.2856
▁믿을	-10.2858
▁제니퍼	-10.2865
했다는	-10.2866
▁같고	-10.2868
후회	-10.287
▁배경이	-10.2873
▁전설	-10.2877
▁배역	-10.2878
제대로	-10.2879
▁조절	-10.2879
더라면	-10.2883
재미도	-10.2886
▁궁금해서	-10.2888
▁블랙	-10.289
먹는	-10.2895
▁이름이	-10.2898
▁창	-10.2911
▁하지원	-10.2912
살아	-10.2916
놀	-10.2917
▁짜증나고	-10.2918
▁먹는	-10.2922
혼	-10.2922
▁긴장	-10.2925
▁작품입니다	-10.2925
레이	-10.2929
▁그것	-10.2934
▁보았	-10.2936
사가	-10.2937
▁집착	-10.2937
▁특수효과	-10.2938
이영화	-10.2938
▁좀비영화	-10.2942
▁붙	-10.2948
▁선생님	-10.2948
따위	-10.295
있었다	-10.2953
사람들은	-10.2968
든다	-10.2968
▁일반	-10.2971
조금	-10.2973
웅	-10.2979
▁야동	-10.298
▁왤케	-10.2981
▁연출은	-10.2982
▁재개봉	-10.2983
▁봤을때	-10.2986
봤네요	-10.2987
극장에서	-10.2988
▁없게	-10.299
▁공짜로	-10.299
같	-10.2992
구성	-10.2993
▁계	-10.2993
▁컴퓨터	-10.2998
으면서	-10.3002
▁아놀드	-10.3002
엔딩	-10.3004
버려	-10.3005
▁쇼	-10.3006
짜증	-10.3007
큰	-10.3007
▁허술한	-10.301
▁아까울	-10.3011
▁취	-10.3013
▁하정우	-10.3014
▁시대에	-10.3015
▁괜찮았는데	-10.3015
▁미안	-10.3018
▁돌아	-10.3023
▁영상미가	-10.3025
▁생각도	-10.3027
▁2000	-10.3028
웃겨	-10.3031
상을	-10.3036
보구	-10.3037
▁정신병자	-10.304
▁거북	-10.3049
▁인생에	-10.3051
▁탈출	-10.3056
▁시원	-10.3062
▁인형	-10.3068
했으나	-10.3084
▁집중이	-10.309
십	-10.3096
▁판	-10.3104
▁남겨	-10.3105
겠습니다	-10.3109
▁가능한	-10.3109
▁뜨	-10.3112
▁개인	-10.3114
시길	-10.3114
착	-10.3115
▁과정	-10.3116
▁받	-10.3122
▁you	-10.3124
▁각색	-10.3127
▁민	-10.3127
▁앞에	-10.3129
▁무엇인가	-10.313
▁대신	-10.3133
▁어거지	-10.3134
▁잔잔하게	-10.3138
▁제이슨	-10.3141
햇는데	-10.3142
▁소중함을	-10.3143
▁영화인	-10.3146
유치	-10.3146
▁기대없이	-10.3148
▁일본은	-10.3149
▁볼만했다	-10.3151
▁여자는	-10.3151
▁쓸데없는	-10.3153
▁나레이션	-10.3153
▁Good	-10.3157
▁최고봉	-10.3166
▁잘하는	-10.3166
▁아들이	-10.3167
르는	-10.3168
▁전쟁의	-10.3171
▁빛을	-10.3177
는거야	-10.3182
▁적어도	-10.3185
다는게	-10.3188
▁설정이	-10.319
▁뭥미	-10.3195
▁가득한	-10.3208
▁여러분	-10.321
물이	-10.3214
끝나	-10.3221
▁결론은	-10.3225
인데도	-10.3226
▁사실을	-10.3227
놓	-10.3234
번은	-10.3241
▁없냐	-10.3243
▁귀엽다	-10.3246
▁애기	-10.3247
분의	-10.3247
12	-10.3254
류영화	-10.3255
▁호구	-10.3257
▁히어로	-10.3257
족	-10.3261
▁오빠	-10.3262
▁인생이	-10.3264
▁성격	-10.3269
▁장면들	-10.3271
라이	-10.3271
▁담배	-10.3273
▁디테일	-10.3274
▁결론	-10.3275
▁않았지만	-10.3275
▁믿고보는	-10.3276
▁어쩔수	-10.3276
▁명대사	-10.3279
▁유쾌하게	-10.3279
상황	-10.3283
▁투자	-10.3283
▁좋네	-10.3283
▁조화	-10.3289
▁일본의	-10.3291
몽	-10.3296
푸	-10.3302
개인적으로	-10.3304
▁주말	-10.3304
앗	-10.3308
아무리	-10.3311
▁으리	-10.3311
▁좋다고	-10.3312
▁영화라니	-10.3314
▁오랫만에	-10.3316
▁우뢰매	-10.3318
▁결과	-10.332
못하고	-10.332
▁안에	-10.3324
▁돈내고	-10.3324
▁유덕화	-10.3326
▁의상	-10.3326
▁사랑해	-10.3328
로만	-10.3328
▁슈퍼	-10.333
▁만약	-10.3332
▁인간은	-10.3333
▁정도면	-10.3336
존나	-10.3337
▁뒤에	-10.3341
▁잠이	-10.3343
▁됐	-10.3346
▁되네요	-10.3348
▁자극적인	-10.3349
의미	-10.3353
▁내면	-10.3355
▁찬	-10.3355
▁만난	-10.3361
▁톰	-10.3361
▁아역	-10.3363
▁표	-10.3367
▁황당한	-10.3375
씨는	-10.3375
▁봤는데도	-10.3382
▁명불허전	-10.3382
나도	-10.3382
▁이보다	-10.3383
▁본건데	-10.3391
▁만들었나	-10.3395
했지	-10.3395
▁임	-10.3396
▁돼	-10.3398
영화입니다	-10.3403
아저씨	-10.3405
▁찍고	-10.3405
▁보려	-10.3406
▁충격적	-10.3408
풀	-10.3414
▁타고	-10.3414
▁실험	-10.3416
▁의사	-10.3416
▁늦게	-10.3416
▁명복을	-10.3416
▁동시에	-10.3417
흐	-10.3418
필요	-10.3418
▁서울	-10.3419
▁안나	-10.3419
00	-10.3419
▁봐야지	-10.342
▁확인	-10.3422
값	-10.3423
▁포스터에	-10.3426
▁분들이	-10.3428
▁내생애	-10.343
▁매미	-10.3431
▁한국영화의	-10.3431
▁좋을듯	-10.3435
▁송강호	-10.3438
간의	-10.3445
▁장난하냐	-10.3445
좋았다	-10.3447
▁모른다	-10.3448
클	-10.345
▁인터넷	-10.345
▁재미없다고	-10.3453
▁기대이상	-10.3458
▁살인마	-10.3459
랄	-10.3462
▁만들어서	-10.3462
지요	-10.3462
▁영화화	-10.3463
▁보았는데	-10.3465
▁영화였음	-10.3465
▁자동차	-10.3466
▁생각할	-10.3479
미국	-10.3481
꼴	-10.3487
하려	-10.3488
그러나	-10.3489
졌	-10.3489
안됨	-10.349
▁절정	-10.3491
▁아깝네	-10.3495
스토리가	-10.3496
▁짐	-10.3501
에서의	-10.3509
장난	-10.3512
▁목소리가	-10.3517
▁답답함	-10.3519
▁시나리오가	-10.3521
▁안볼	-10.3521
▁보시면	-10.3528
▁담은	-10.3529
▁사랑해요	-10.353
▁기적	-10.3531
▁생에	-10.3531
있지만	-10.3533
줘야	-10.3536
었으면	-10.3537
세상	-10.3538
보게	-10.3539
▁믿	-10.3546
▁최소	-10.3549
▁엄	-10.3552
받는	-10.3555
▁좋았을텐데	-10.3567
▁전반적으로	-10.3571
▁공감할	-10.3573
▁요리	-10.3573
잇는	-10.3575
▁어울리지	-10.3578
에만	-10.358
용으로	-10.3581
▁가까운	-10.3583
분동안	-10.3587
▁아깝네요	-10.3587
▁땅	-10.3588
웠	-10.3588
▁스티븐	-10.3592
▁탄탄하고	-10.3595
▁재미있는데	-10.3597
▁짐캐리	-10.36
▁쉬	-10.36
▁그것이	-10.36
▁매력에	-10.3602
▁느낌은	-10.3603
▁독일	-10.3607
▁한국판	-10.3609
코믹	-10.3609
▁반대	-10.361
▁포스터만	-10.361
그럼	-10.3611
▁과장	-10.3613
이었습니다	-10.3615
▁읽고	-10.3616
▁어쩌면	-10.3618
▁찾	-10.3619
▁콩	-10.362
▁액션과	-10.3622
▁축구	-10.3623
리스	-10.3629
▁연기자	-10.3631
▁땜에	-10.3631
▁초등학생	-10.3632
▁명연기	-10.3637
▁시작부터	-10.3641
▁뽑	-10.3643
▁찍는	-10.3644
씀	-10.3648
▁짜집기	-10.3648
연기는	-10.365
같아	-10.3651
▁알았	-10.3659
시고	-10.3661
▁죄	-10.3662
▁십	-10.3663
▁무섭고	-10.3664
▁없으면	-10.3666
웃기	-10.3668
▁출	-10.3672
▁이번에	-10.3676
보인다	-10.368
뒤	-10.3681
▁읽어	-10.3682
욱	-10.3684
▁홍상수	-10.3685
임을	-10.3685
▁합	-10.3687
...........	-10.3689
▁전개와	-10.3693
롭	-10.3702
▁로코	-10.3705
소설	-10.371
나온다	-10.3714
▁듭니다	-10.3717
▁아무생각없이	-10.3717
▁기존	-10.372
하더라	-10.3727
▁만들어낸	-10.373
▁싶었다	-10.3731
▁죽이	-10.3732
▁풍	-10.3733
극장	-10.3735
▁박진감	-10.3736
▁들었	-10.3741
▁은근히	-10.3742
▁행	-10.3744
▁친구랑	-10.3745
▁시간에	-10.3746
▁초등학교	-10.3749
▁왜곡	-10.375
▁깡패	-10.3752
아요	-10.3752
시는	-10.3753
▁명장면	-10.3755
▁:)	-10.3756
샤	-10.3756
▁좋지	-10.3757
▁받았	-10.3759
▁보내	-10.3759
이후	-10.3763
▁생각난다	-10.3765
▁야구	-10.3767
▁무리	-10.3771
할뿐	-10.3775
▁판단	-10.3779
▁다시보고	-10.378
▁이런류의	-10.3784
▁재난	-10.3791
▁사람이라면	-10.3794
▁사람들에게	-10.3797
신이	-10.38
▁낫	-10.3801
▁그당시	-10.3802
옴	-10.3805
▁환경	-10.3807
▁그것을	-10.3807
▁교훈도	-10.381
것같은데	-10.3811
▁빨	-10.3811
▁샘	-10.3813
▁유지	-10.3816
하겠다	-10.3833
배우가	-10.3833
냥	-10.3836
례	-10.3837
▁손발	-10.3838
▁웃는	-10.3843
▁제목을	-10.3849
▁보는거	-10.3852
▁이드라마	-10.3853
▁진지한	-10.3854
특	-10.3857
낫	-10.3863
▁보고싶	-10.3864
▁니들	-10.3865
닥	-10.3869
▁빕니다	-10.3871
내내	-10.3871
▁역겨운	-10.3871
▁블랙코미디	-10.3871
▁최강	-10.3872
허접	-10.3873
▁다신	-10.3876
▁담긴	-10.3878
▁예술영화	-10.3878
▁이것보단	-10.388
▁나오는데	-10.388
▁치유	-10.388
▁한명	-10.3891
뻔한	-10.3891
줘서	-10.3892
였지	-10.3894
뿐이다	-10.3896
▁최소한	-10.3897
▁왠만한	-10.3899
▁보이지	-10.3902
▁잼잇	-10.3902
▁연인	-10.3903
▁깜짝	-10.3906
▁영화예요	-10.3906
▁볼려고	-10.3907
논	-10.3909
높은	-10.3916
▁영원한	-10.392
▁책으로	-10.392
라는걸	-10.3921
M	-10.3922
그래	-10.3924
▁이해불가	-10.3927
▁귀여움	-10.3931
▁각자	-10.3935
▁s	-10.3936
▁사랑합니다	-10.3939
*	-10.3939
▁명작은	-10.3939
15	-10.3942
▁잔잔하면서	-10.3945
▁누군지	-10.3946
▁느낌이다	-10.3946
▁100%	-10.395
이예요	-10.3952
▁탈	-10.3956
긴장감	-10.3959
아니면	-10.3963
아직도	-10.3967
하던데	-10.3969
▁나이가	-10.3971
▁강력	-10.3971
▁허무한	-10.3974
내고	-10.3981
▁진한	-10.3982
▁루	-10.3989
기까지	-10.3991
▁엘	-10.3999
▁시대의	-10.4
▁동네	-10.4002
▁빌	-10.4006
▁액션을	-10.4012
섭	-10.4012
▁한개도	-10.4013
~~^^	-10.4014
쟁이	-10.4014
▁야한	-10.4014
~~!!	-10.4022
▁어두운	-10.4027
▁웰메이드	-10.4027
과는	-10.4031
답게	-10.4031
▁영화속	-10.4032
▁알았음	-10.4035
▁적절한	-10.4038
▁첨부터	-10.4039
▁본듯	-10.4044
▁없는게	-10.4044
가며	-10.4044
됬	-10.4047
▁못보겠다	-10.4047
▁떨	-10.4048
▁평균	-10.4052
▁훌륭	-10.4059
▁볼만합니다	-10.4062
▁잠시	-10.4064
▁파괴	-10.4065
검	-10.4066
떨	-10.4068
▁미국의	-10.4069
▁뜬금없는	-10.4069
▁주변	-10.407
▁재미있어	-10.4078
▁찾아서	-10.4078
▁울면서	-10.4079
하는것	-10.4079
시간동안	-10.4081
▁요새	-10.4082
앤	-10.4084
▁억지감동	-10.4087
와의	-10.4094
▁혹시나	-10.4095
▁소재의	-10.4097
대가	-10.4098
점부터	-10.4099
▁유치해서	-10.4099
▁아프다	-10.4102
▁안보는게	-10.4105
하거나	-10.4108
헤	-10.4111
▁무섭지	-10.4112
▁필	-10.4113
▁마지막이	-10.412
보고싶다	-10.4125
켜	-10.4125
▁영화라는	-10.4126
원이	-10.4128
여운이	-10.413
집니다	-10.4134
▁아진짜	-10.4136
더라도	-10.4138
▁부족함	-10.414
출연	-10.4142
▁주지	-10.4143
▁피해	-10.4147
▁운	-10.4148
▁터	-10.4149
편에서	-10.4149
람	-10.4156
그렇게	-10.4159
▁몰	-10.4159
팀	-10.416
▁테러	-10.416
▁가족의	-10.416
..1	-10.4163
▁것에	-10.4164
▁아무도	-10.4173
▁내용에	-10.4174
스터	-10.4174
▁망할	-10.4176
끔	-10.418
▁거기다	-10.4181
▁정보	-10.4182
꾼	-10.4182
▁여자주인공	-10.4185
같고	-10.4186
▁풋풋한	-10.4186
▁이도저도	-10.4186
▁품	-10.4186
▁괜찮았음	-10.4188
▁찾는	-10.419
%	-10.419
▁남기	-10.4192
▁초반부	-10.4196
▁보라	-10.4197
거리는	-10.42
깔	-10.4208
▁일부	-10.4209
▁스릴도	-10.4214
▁류승범	-10.4218
▁연결	-10.4223
▁잘만들었다	-10.4232
▁p	-10.4233
▁전체적인	-10.4234
▁장면들이	-10.4234
거면	-10.4235
▁배급사	-10.4235
▁남성	-10.4238
▁우울	-10.4241
▁마지막엔	-10.4242
▁싶었던	-10.4244
▁배경으로	-10.4246
▁장애인	-10.4246
엄청	-10.4247
▁빛나는	-10.4247
싸움	-10.4248
바람	-10.425
▁공감도	-10.4258
편집	-10.4261
▁말하고자	-10.4267
스타일	-10.4272
▁푸	-10.4272
장면은	-10.4299
래도	-10.4299
끼리	-10.4301
▁폭발	-10.4311
▁ᄏᄏᄏᄏᄏᄏᄏᄏ	-10.4312
버릴	-10.4314
▁ᄃᄃᄃ	-10.4316
▁사랑한다	-10.432
▁의도가	-10.4322
▁드네요	-10.4325
는듯	-10.4326
긴하지만	-10.4327
▁동양	-10.4335
▁사용	-10.4336
소재와	-10.4336
▁동성애	-10.4338
▁마이	-10.434
▁놀랐다	-10.4347
▁감독과	-10.435
▁연출력이	-10.4351
▁재미있었습니다	-10.4352
못하는	-10.4356
▁놀란	-10.4357
▁모르지만	-10.4358
▁섬	-10.436
▁당신	-10.4365
▁러브라인	-10.4367
에다가	-10.4367
▁향수	-10.4369
으로써	-10.437
▁퍼	-10.4372
▁빠져서	-10.4373
▁자기가	-10.4373
보는게	-10.4375
▁드디어	-10.4375
▁괜찮게	-10.4378
▁있었으면	-10.4383
▁두번째	-10.4383
▁나을듯	-10.4387
확	-10.4388
밤	-10.4389
▁않은데	-10.4393
▁반전에	-10.4395
보긴	-10.4396
▁여름	-10.4397
▁기대이하	-10.4399
▁맞춰	-10.4401
ᄌ	-10.4407
▁다행이다	-10.4407
▁재미있었음	-10.4411
궁	-10.4413
▁했음	-10.4414
X	-10.4417
▁잊	-10.4421
or	-10.4421
▁거지같은	-10.4422
▁바꾸	-10.4423
놨	-10.4434
않고	-10.4438
다큐	-10.4442
▁그렇지만	-10.4443
▁단편	-10.4445
지루하고	-10.4447
▁영화네	-10.445
복수	-10.4451
지도않고	-10.4452
▁괜찮고	-10.4452
▁팀	-10.4455
▁웃기는	-10.4458
주연	-10.4459
▁끄	-10.4461
▁있었	-10.4467
스럽고	-10.4467
▁폐지	-10.4467
▁소개	-10.4472
보내	-10.4473
100	-10.4479
▁인상적인	-10.4483
▁기억나는	-10.4491
▁뭐고	-10.4497
▁반담	-10.4498
층	-10.45
▁잘한다	-10.4501
재미있다	-10.4503
있던	-10.4508
▁커	-10.451
▁깊게	-10.4511
욤	-10.4511
분위기	-10.4514
▁만들었을까	-10.4516
▁진지하게	-10.4516
▁작가의	-10.4517
▁밤에	-10.4517
▁보았던	-10.4519
▁탄탄	-10.4524
▁박중훈	-10.4526
▁되는데	-10.4528
▁논	-10.4531
▁깔끔한	-10.4531
▁이병헌	-10.4535
▁재밌었던	-10.4536
▁나오네	-10.4536
느낌이	-10.454
▁소화	-10.4542
▁부르	-10.4545
▁ᅲᅲᅲᅲ	-10.4554
▁무대	-10.4556
▁안본다	-10.4556
▁생각나	-10.4557
▁평범	-10.4559
▁빛	-10.456
▁브루스	-10.4562
편까지	-10.4564
점이상	-10.4565
했을때	-10.4569
생활	-10.457
▁삭제	-10.4571
▁월	-10.4571
했다고	-10.4575
er	-10.4576
^-^	-10.4579
뭔	-10.4582
▁혼	-10.4584
두고	-10.4584
아깝	-10.4585
헐	-10.4585
졸작	-10.4588
영이	-10.4592
문화	-10.4593
▁죽고	-10.4594
주면	-10.4599
▁쭉	-10.4602
▁속이	-10.4602
▁잇	-10.4605
▁어이없다	-10.4608
▁X	-10.4608
▁욕심	-10.4612
▁교	-10.4615
▁끝나서	-10.4617
▁살려	-10.4623
▁언니	-10.4624
부터가	-10.4626
애들이	-10.4628
▁돼지	-10.463
0%	-10.4633
▁설득력	-10.464
▁난리	-10.4641
스키	-10.4641
▁버리고	-10.4643
가장	-10.4644
부분	-10.4647
쓸	-10.4648
년대에	-10.4651
▁맹	-10.4655
▁정도가	-10.4655
▁극중	-10.4655
▁쩌는	-10.4657
지나	-10.4657
▁조금은	-10.4658
좋은영화	-10.4661
▁전화	-10.4664
▁다르	-10.4665
▁양심	-10.4673
하진	-10.4678
▁은근	-10.4678
▁알았네	-10.4679
▁미안하다	-10.4684
목소리	-10.4688
▁오프닝	-10.4689
▁어설프다	-10.4693
에대해	-10.4695
▁매력적이	-10.4695
▁요소가	-10.4696
▁EBS	-10.4698
▁무거운	-10.4698
▁운명	-10.4703
▁빵빵	-10.4705
▁가족애	-10.4707
▁드라마입니다	-10.4709
▁캐릭터들이	-10.4709
▁않았던	-10.4711
▁한다는	-10.4713
해진	-10.4714
물론	-10.4716
▁뜬금없이	-10.4719
▁개콘	-10.4722
▁감동적이네요	-10.4722
▁베드신	-10.4729
▁내용의	-10.473
▁민폐	-10.4731
▁비행기	-10.4733
자식	-10.4733
▁언젠가	-10.4734
아빠	-10.4734
▁보라고	-10.4739
▁사랑스럽다	-10.474
했을까	-10.4749
▁빼곤	-10.4749
▁기대한	-10.4751
극히	-10.4751
재미있	-10.4752
자들	-10.4756
▁분량	-10.4758
▁신의	-10.4761
▁소장하고	-10.4761
▁동영상	-10.4769
▁뭐임	-10.4777
▁후에	-10.4779
광구	-10.478
▁시청자	-10.4782
▁거장	-10.4791
▁보고나니	-10.4793
돈주고	-10.4798
이었는데	-10.4798
▁낳	-10.4812
▁요즘은	-10.4817
▁미스	-10.4822
▁꼬마	-10.4825
아니고	-10.4827
냈	-10.4831
▁답이	-10.4832
좌	-10.4833
▁권	-10.4835
압	-10.4838
▁예쁘	-10.4839
▁돌아가	-10.4839
워서	-10.4843
▁하하	-10.4843
▁갓	-10.4845
。	-10.4847
닷	-10.4847
▁둘째치고	-10.4848
축	-10.4848
▁말그대로	-10.4851
감독은	-10.4851
▁것들이	-10.4852
주기	-10.4858
▁없다고	-10.4859
▁14	-10.4862
지마	-10.4863
▁가히	-10.4866
▁첨이다	-10.4872
▁절로	-10.4872
▁언	-10.4875
▁순수하고	-10.4876
▁무간도	-10.4877
점만점에	-10.4879
만은	-10.4879
쥐	-10.488
소녀	-10.488
▁기대하지	-10.4881
▁신하균	-10.4881
▁아우	-10.4885
▁점수는	-10.4886
▁매력적	-10.4886
수있는	-10.4887
여주	-10.4888
시다	-10.4892
▁2012	-10.4893
이유	-10.4894
▁잃은	-10.4895
▁뛰어넘는	-10.4896
▁이상하다	-10.49
야한다	-10.4906
▁생각해보게	-10.4906
어린	-10.4908
▁씹	-10.4908
▁참나	-10.4909
▁짜증나게	-10.491
재미있게	-10.4911
▁여배우들	-10.4911
▁자고	-10.492
▁언제까지	-10.4921
영화도	-10.4921
▁;	-10.4923
가슴	-10.4925
▁ᄒᄃᄃ	-10.4926
▁숨은	-10.4926
▁캐릭터를	-10.493
▁미국식	-10.4931
몬	-10.4931
결국	-10.4936
자신	-10.4936
▁멍	-10.4936
▁케릭터	-10.4936
▁및	-10.4937
▁당연	-10.4939
▁시작해서	-10.4941
받은	-10.4941
▁됐다	-10.4945
▁적당한	-10.495
▁최고네요	-10.4952
▁과학	-10.4954
사실	-10.4957
랬	-10.4958
▁인생은	-10.4966
했다면	-10.4968
스럽게	-10.497
▁같았다	-10.4972
나왔	-10.4974
▁세번	-10.4975
▁역사에	-10.4978
▁끝도	-10.4981
만하다	-10.4982
▁재밌다는	-10.4982
▁아기	-10.4984
▁표현할	-10.4989
11	-10.4991
▁아내	-10.4998
▁보게된	-10.5001
▁안나오	-10.5003
▁답답하다	-10.5006
▁연기력에	-10.5006
▁박보영	-10.5007
떠	-10.5008
▁이거보다	-10.5011
▁욕이	-10.5012
▁사람들을	-10.5012
▁했더니	-10.5012
미친	-10.5019
▁워낙	-10.502
▁칭찬	-10.502
▁향연	-10.5021
▁낫겠다	-10.5021
▁좋겠습니다	-10.5023
▁마시길	-10.5023
▁엄청나게	-10.5024
▁뭐하는	-10.5029
천원	-10.503
▁근래	-10.503
▁그들이	-10.5032
정이	-10.5033
▁극장에	-10.5033
▁죽어	-10.5035
▁당신이	-10.5036
▁보겠다	-10.5037
▁따위	-10.5037
▁멋지게	-10.5037
친다	-10.5038
▁ᄒᄒᄒᄒ	-10.5039
▁꾸	-10.5039
▁비호감	-10.504
▁매니아	-10.5042
▁재미있을	-10.5043
▁맡은	-10.5045
▁부활	-10.5051
▁전문	-10.5057
찾아	-10.506
▁재미있었는데	-10.5061
▁책임	-10.5062
▁감정이입	-10.5072
애들은	-10.5073
틱	-10.5076
▁끈	-10.508
▁역겹다	-10.508
▁임창정	-10.5082
▁어디가	-10.5086
이런영화	-10.5092
▁불편	-10.5092
re	-10.5096
물을	-10.5096
▁어디로	-10.5097
▁것만	-10.5099
▁싫	-10.51
것처럼	-10.51
흥	-10.5101
▁흑백	-10.5101
봣	-10.5101
▁흘러가는	-10.5104
▁고독	-10.5104
▁나올때	-10.5108
▁본인	-10.5109
▁있긴	-10.5109
겠네요	-10.5112
경찰	-10.5112
딩	-10.5113
▁쥐	-10.5114
겠음	-10.5115
▁있었고	-10.5119
▁영상도	-10.5122
보고나서	-10.5124
관객	-10.5127
▁왔	-10.513
▁꼭보세요	-10.5133
자리	-10.5134
▁그랬	-10.5138
귀신	-10.5138
▁원하는	-10.5139
갈수록	-10.5142
▁쏘	-10.5149
마음	-10.515
타고	-10.5151
최고다	-10.5151
▁불쌍	-10.5152
자고	-10.5158
생겼	-10.5163
▁뭐여	-10.5166
빙	-10.5169
▁내돈	-10.5169
▁시도는	-10.5179
▁비슷	-10.5183
▁캐스팅이	-10.5187
▁뭐하자는	-10.5194
▁싶어서	-10.5194
긋	-10.5195
▁왕조현	-10.5195
▁그려낸	-10.5197
▁철저	-10.5198
▁형편없는	-10.5199
▁진짜로	-10.52
▁잠을	-10.52
▁이제는	-10.5202
▁소통	-10.5202
▁이럴	-10.5203
▁디카프리오	-10.5207
치고는	-10.5207
▁있으나	-10.5208
▁독특하고	-10.5208
놈들은	-10.5208
▁귀여워요	-10.5212
▁스타워즈	-10.5212
였다면	-10.5212
▁오글오글	-10.5212
▁L	-10.5214
▁힘을	-10.5219
▁글을	-10.5221
▁스타뎀	-10.5221
초반	-10.5223
내는	-10.5228
▁뭐라고	-10.5228
았음	-10.5234
▁응	-10.5242
▁느껴지지	-10.5242
장이	-10.5244
들에	-10.5249
▁소름끼치는	-10.5249
▁아만다	-10.5253
▁더빙이	-10.5254
▁도데체	-10.5254
뭘	-10.5255
▁다운받아서	-10.5256
▁아이디어	-10.5257
뭐냐	-10.526
▁어이없음	-10.5275
겠어	-10.5276
▁충분한	-10.5277
▁어디에	-10.5277
치곤	-10.5285
맥	-10.5289
▁말투	-10.5289
▁내일	-10.5293
있어요	-10.5293
프로그램	-10.5293
▁재밌게봤어요	-10.5293
감동적	-10.5295
▁든	-10.5296
으려	-10.5296
겼	-10.5301
▁얼마	-10.5302
▁한번더	-10.5304
잖아요	-10.531
▁정도는	-10.531
▁논리	-10.531
▁별로였다	-10.5313
▁말고는	-10.5314
▁&	-10.5315
돌아	-10.532
▁오로	-10.5321
억지	-10.5322
안하고	-10.5327
▁이별	-10.533
▁잡아	-10.5331
▁분장	-10.5337
▁안나온다	-10.5337
덕에	-10.534
톤	-10.5342
▁막판	-10.5343
닌	-10.5343
▁사회적	-10.5345
때부터	-10.5346
▁와닿	-10.5347
▁말인가	-10.5347
같은영화	-10.5348
시키	-10.5359
▁하며	-10.5365
▁휘	-10.5365
스의	-10.5366
▁맞다	-10.5367
▁옥	-10.5368
▁감명깊게	-10.5368
▁심한	-10.5368
▁시종일관	-10.5373
▁한효주	-10.5374
▁미스캐스팅	-10.5374
스가	-10.5375
답니다	-10.5376
▁감동적이에요	-10.5376
▁살렸다	-10.5376
이어서	-10.5377
▁살아야	-10.538
▁것인가	-10.5385
▁개봉당시	-10.5386
▁오글거리는	-10.5387
▁가짜	-10.5387
것같네요	-10.5388
▁감독도	-10.5389
▁여러모로	-10.539
▁잼있네요	-10.5391
▁기대가	-10.5392
▁작화	-10.5393
▁최고라고	-10.5393
▁뒤죽박죽	-10.5395
성우	-10.5396
▁알파치노	-10.54
▁연기하는	-10.5407
▁살아있는	-10.5407
▁말밖에	-10.5408
▁방해	-10.5408
▁비쥬얼	-10.541
▁속았다	-10.5413
▁다시금	-10.5416
것같	-10.5417
▁쉽지	-10.542
그만	-10.5421
게하는	-10.5422
▁미스터리	-10.5422
▁타란티노	-10.5424
▁전편보다	-10.5429
▁공유	-10.543
▁완벽하다	-10.5432
▁슬	-10.5433
에게는	-10.5436
▁삶과	-10.5437
몇	-10.544
▁똑같	-10.5441
▁완	-10.5441
▁실망이	-10.5441
▁학생	-10.5442
▁슬픈영화	-10.5448
인걸	-10.545
▁충분	-10.5456
바로	-10.5457
에비해	-10.5458
▁하다니	-10.5459
▁아이들에게	-10.546
자를	-10.5462
▁프랑스영화	-10.5463
아버지	-10.5467
▁그런거	-10.5468
▁정서	-10.5468
▁때려	-10.5468
있습니다	-10.5469
▁왔습니다	-10.5474
▁입장에서	-10.5476
빼곤	-10.5479
판타지	-10.5479
CG	-10.5479
▁보단	-10.5479
▁용기	-10.5479
▁링	-10.5481
▁재미없네요	-10.5481
우리나라	-10.5482
그나마	-10.5482
살이	-10.5484
▁만들어라	-10.5484
비추	-10.5488
▁누나	-10.5489
컷	-10.5492
▁일본인	-10.5492
지루하다	-10.5497
▁떡	-10.5499
헌	-10.5499
▁네티즌	-10.5508
지네요	-10.5513
▁표현이	-10.5526
기로	-10.5528
웃김	-10.5531
▁났다	-10.5531
▁만화영화	-10.5532
▁끝을	-10.5536
▁기가	-10.5537
번을	-10.5542
▁고등학교	-10.555
제로	-10.5552
▁형제	-10.5553
▁아마추어	-10.5555
▁바탕으로	-10.5556
▁만들었	-10.5556
▁보러	-10.5557
▁픽사	-10.5557
▁난해한	-10.5558
▁충분하다	-10.5561
▁닥치고	-10.5561
▁당장	-10.5563
라는게	-10.5567
▁모르겠네	-10.557
▁우선	-10.5571
▁우연	-10.5573
▁받았다	-10.5574
▁쩔어	-10.5574
▁산만하고	-10.5576
빠져	-10.5576
▁오래전에	-10.5577
▁사랑스럽고	-10.5578
▁억지스럽고	-10.558
느냐	-10.5581
아들	-10.5583
할수있	-10.5583
▁충격적인	-10.5585
여주인공	-10.5592
삶	-10.5597
▁movie	-10.5602
▁넣어	-10.5605
▁직업	-10.5608
전혀	-10.5608
▁빠른	-10.561
킨	-10.5611
▁장난하나	-10.5612
▁혁명	-10.5612
옹	-10.5615
▁보지마셈	-10.5623
▁긴장감을	-10.5625
▁어쩌다	-10.5627
대고	-10.5632
▁똑같이	-10.5633
▁라이언	-10.5637
▁보기가	-10.5643
수없는	-10.5643
▁어처구니	-10.5643
같아서	-10.5643
감정	-10.5644
거에요	-10.5645
나름	-10.5648
▁우는	-10.5648
는구나	-10.565
▁하늘	-10.565
▁딸이	-10.5652
▁스릴러물	-10.5655
▁미소가	-10.5658
▁할때	-10.5662
▁역사상	-10.5668
▁리얼리티	-10.5669
▁정우성	-10.567
살때	-10.567
각본	-10.5673
왔다	-10.5673
▁응원	-10.5674
▁나음	-10.5676
▁세상에서	-10.5677
▁보아도	-10.5678
▁대부	-10.5678
▁인류	-10.5679
▁땐	-10.568
▁이용	-10.568
간에	-10.5683
▁코믹영화	-10.5687
았던	-10.5688
▁결	-10.5689
▁검색	-10.569
▁선동	-10.5696
▁백인	-10.5699
▁개성	-10.5701
▁낮은지	-10.5706
▁캐릭터도	-10.5708
▁죽인	-10.5709
▁오는	-10.5709
▁준비	-10.5715
것인가	-10.5717
ᅮᅲ	-10.5718
엽	-10.5719
▁사람에게	-10.5725
▁안나오는	-10.5727
랜	-10.5728
▁이해도	-10.5729
▁바꿔	-10.573
였구나	-10.5732
▁탓	-10.5734
▁최악의영화	-10.5737
하군	-10.5737
▁검	-10.5739
닝	-10.574
▁풀어낸	-10.5744
▁조낸	-10.5744
듯하다	-10.5747
▁뻔한스토리	-10.5749
보네	-10.5749
▁조금만	-10.575
▁영화인줄	-10.575
▁올라가	-10.575
쓰는	-10.5755
▁F	-10.5755
▁식상	-10.5756
▁나열	-10.5758
▁흥분	-10.576
▁에라이	-10.5762
▁심하다	-10.5764
▁신고	-10.5769
▁갖다	-10.577
▁버려	-10.5774
▁좋으나	-10.5776
▁신인	-10.5776
여배우	-10.5777
▁추천하고	-10.5778
▁강동원	-10.5778
▁케빈	-10.5779
없나	-10.578
아라	-10.5783
▁정신이	-10.5787
▁안보	-10.5787
▁지켜	-10.5788
바라	-10.5789
▁좋아하지만	-10.579
▁하품	-10.5791
▁하도	-10.5793
▁섬세한	-10.5793
▁순수함	-10.5794
▁울었어요	-10.5794
거든	-10.5797
▁줄이야	-10.5797
▁후하게	-10.5801
▁못하겠다	-10.5802
▁흥	-10.5802
▁잊을수	-10.5809
▁주연배우	-10.5811
▁아까워서	-10.5813
▁액션신	-10.5815
있네요	-10.5816
▁이것보다	-10.5821
재밋다	-10.5822
캐	-10.5829
겟	-10.583
이었어요	-10.5831
▁찾기	-10.5833
지않아	-10.5833
못한	-10.5834
웨이	-10.5839
흠	-10.5839
▁미쳤	-10.5841
▁아니었다	-10.5842
▁망치	-10.5843
▁절	-10.5848
▁현실은	-10.5848
▁무서움	-10.5849
▁했을까	-10.585
▁당황	-10.5855
벨	-10.5855
얼마나	-10.586
▁나머지는	-10.586
▁건가	-10.5862
▁에효	-10.5864
▁진지	-10.5864
관람	-10.5866
▁코드	-10.5869
▁깎	-10.587
▁아무튼	-10.5871
▁is	-10.5872
져요	-10.5874
▁겨울	-10.5875
▁한가지	-10.5876
점이나	-10.5878
!!!!!!	-10.5883
▁전개는	-10.5885
할줄	-10.5886
ost	-10.5893
▁보고있는데	-10.5896
만큼이나	-10.5896
▁다른영화	-10.5897
▁당신의	-10.59
효과	-10.5901
▁고뇌	-10.5903
붙	-10.5905
트리	-10.5909
도안	-10.5913
▁관심이	-10.5913
웠다	-10.5914
▁뻔하다	-10.5917
▁가능	-10.592
▁대학	-10.5922
픽	-10.5926
당시	-10.5928
▁마찬가지	-10.5929
오랫동안	-10.5929
▁떡밥	-10.593
▁두고두고	-10.593
배우들이	-10.593
▁쉬운	-10.5932
▁고문	-10.5935
▁새벽	-10.5938
50	-10.5938
▁우린	-10.5942
▁버리	-10.5942
어디	-10.5946
▁살리지	-10.5948
오브	-10.595
▁행복하게	-10.5952
▁자리	-10.5956
▁세월이	-10.5956
<	-10.5957
▁묘한	-10.596
▁무섭게	-10.5961
▁클래식	-10.5962
지지	-10.5967
할만한	-10.5968
불쌍	-10.5968
시키고	-10.597
▁비록	-10.5972
▁벗	-10.5978
하기엔	-10.5978
▁끌고	-10.5979
▁사랑하고	-10.5979
▁한심하다	-10.5981
▁소장	-10.5982
▁ᄌᄂ	-10.5983
▁레옹	-10.5983
알아	-10.5984
com	-10.5984
▁영화라서	-10.5984
▁만든거	-10.5984
▁말씀	-10.5985
▁남는게	-10.5989
▁길이	-10.599
▁매번	-10.5994
육	-10.5997
▁낙	-10.5999
▁넘어서	-10.6
▁잔인함	-10.6
▁누	-10.6001
▁신이	-10.6002
하기만	-10.6004
쳐서	-10.6007
맘	-10.601
보여	-10.6011
en	-10.6015
재미있어요	-10.6016
▁민족	-10.6019
못함	-10.6019
였을	-10.6019
▁양아치	-10.602
▁드라마로	-10.6024
▁웃었다	-10.6025
것보다	-10.6026
인게	-10.6029
묘	-10.6031
▁모자라	-10.6031
역사	-10.6032
됩니다	-10.6033
▁설레	-10.6035
하셨	-10.6035
▁조선	-10.6038
봤네	-10.6043
데요	-10.6047
하고싶다	-10.6049
콩	-10.605
▁정리	-10.605
▁강간	-10.6053
▁잼없다	-10.6056
로맨스	-10.6056
▁구성도	-10.6058
점으로	-10.6058
어용	-10.606
허무	-10.6061
이후로	-10.6061
▁천사	-10.6068
▁이소룡	-10.6069
제일	-10.6071
▁심장	-10.6072
▁만드네	-10.6075
나올	-10.6075
▁이만한	-10.6081
▁이야	-10.6085
▁드라마에	-10.6087
▁했으나	-10.6088
▁바닥	-10.6088
▁포스	-10.6088
▁유럽	-10.6091
▁의도는	-10.6092
▁서양	-10.6093
볼만	-10.6094
▁했는지	-10.6096
▁필요가	-10.6098
▁찌	-10.6098
▁버린	-10.6098
▁침	-10.6099
끌	-10.6108
콘	-10.6109
답다	-10.611
▁티비로	-10.6111
▁수록	-10.6112
▁마냥	-10.6114
는거지	-10.6115
▁소름돋	-10.6115
룩	-10.6117
컨	-10.6121
▁4.44	-10.6122
▁감성팔이	-10.6122
▁온갖	-10.6122
▁아이유	-10.6123
▁재앙	-10.6124
▁호기심	-10.6124
▁괜찮았던	-10.6125
▁자연스럽게	-10.6126
▁눈으로	-10.6126
당한	-10.6128
▁지옥	-10.6129
▁성룡의	-10.6131
▁개꿀잼	-10.6131
▁의지	-10.6132
려나	-10.6135
▁언어	-10.6135
▁부모님	-10.6136
▁부산	-10.6138
▁흘러	-10.6139
▁액션씬	-10.6141
▁괜찮네요	-10.6143
▁공주	-10.6147
▁친구들	-10.6148
싫어	-10.6148
▁잔잔함	-10.6148
▁영화라지만	-10.6149
▁재미있었	-10.6155
▁아파	-10.6156
▁조잡한	-10.6161
▁마지막회	-10.6163
▁원작과	-10.6164
재밌고	-10.6167
▁관객이	-10.6171
무섭	-10.6172
▁이거보단	-10.6174
▁일을	-10.6174
▁스파이더맨	-10.6181
제작	-10.6183
나마	-10.6187
▁커서	-10.6189
▁아쉬워요	-10.6198
▁인생영화	-10.6198
▁조카	-10.6199
▁하기엔	-10.6201
▁보게되는	-10.6205
▁싶습니다	-10.6207
잼있	-10.6207
▁빅	-10.6212
중에서	-10.6213
★	-10.6215
▁벤	-10.6222
하니까	-10.6223
▁이영화의	-10.6224
▁재방	-10.6225
혹	-10.6226
▁재미없을	-10.6227
▁의미도	-10.6227
부리	-10.6228
▁상황이	-10.6229
▁여신	-10.6229
▁드림	-10.623
▁비교해	-10.623
▁영화보다가	-10.6231
평가	-10.6233
▁아니라면	-10.6234
▁별점이	-10.6234
폭	-10.6234
▁공포가	-10.6236
▁평을	-10.6238
새끼들	-10.6242
...(	-10.6246
듬	-10.6247
▁러브	-10.625
선택	-10.625
빛	-10.6251
▁나왔던	-10.6252
덕분에	-10.6255
결혼	-10.6255
이랄까	-10.6257
너무나	-10.6262
든지	-10.6264
충격	-10.627
▁하세요	-10.627
▁버렸다	-10.6271
▁빠지는	-10.628
만을	-10.628
▁아동	-10.6285
▁봉	-10.6289
▁액션만	-10.6291
▁거리	-10.6295
한것	-10.6306
▁잼있는	-10.6307
▁널	-10.6311
▁들어서	-10.6311
춘	-10.6312
▁웃음을	-10.6315
▁껐다	-10.6318
▁점수준것들	-10.6318
^^*	-10.6318
▁로빈	-10.632
▁스포츠	-10.6323
▁상징	-10.6325
▁별로네요	-10.6325
▁감동적입니다	-10.6327
▁실망이다	-10.6327
▁낚인	-10.6328
역할	-10.6328
▁기발한	-10.633
▁화장실	-10.6331
▁짱이다	-10.6333
▁구분	-10.6336
▁느껴졌다	-10.6338
할수가	-10.6341
▁안타까움	-10.6342
▁애초에	-10.6342
▁한동안	-10.6342
▁생긴	-10.6346
▁피아노	-10.6347
서도	-10.6347
ᅮᅮᅮ	-10.6348
▁필요한가	-10.6353
더군	-10.6353
▁로맨틱코미디	-10.6355
분짜리	-10.6358
▁멋져	-10.6361
▁제작비가	-10.6363
류의	-10.6366
▁외국인	-10.637
▁높이	-10.6374
흔	-10.6376
▁P	-10.6376
고요	-10.6376
▁빨갱이	-10.6377
▁웃겼다	-10.6378
▁m	-10.6381
▁f	-10.6383
▁제목에	-10.6386
안된다	-10.6387
▁착	-10.639
▁지루함을	-10.6393
같지	-10.6395
▁부정	-10.6396
▁짜리	-10.6396
폰	-10.6397
▁배우분들	-10.6397
▁느끼고	-10.6399
▁끊	-10.6401
나가는	-10.6402
수는	-10.6407
▁유발	-10.6407
그런데	-10.6412
결말이	-10.6412
보이는	-10.6413
식으로	-10.6413
▁했습니다	-10.6414
▁때문	-10.6419
▁걱정	-10.6424
▁공간	-10.6424
택	-10.6426
▁실수	-10.6432
했었는데	-10.6437
▁이상해	-10.6437
흑	-10.6439
하는영화	-10.6443
사를	-10.6444
▁d	-10.6445
▁최대	-10.6449
▁말아야	-10.6449
▁알려주는	-10.6449
P	-10.645
ᄇ	-10.6453
▁하이틴	-10.6454
셀	-10.6454
것들이	-10.6456
▁신화	-10.6458
쩝	-10.6459
되나	-10.646
TV	-10.646
▁남자들	-10.6465
는대	-10.6469
애니메이션	-10.647
▁있었음	-10.6471
▁맞나	-10.6474
▁영화와	-10.6476
개는	-10.6478
▁오해	-10.648
▁통쾌	-10.6481
▁열라	-10.6484
▁높지	-10.6484
당시엔	-10.6485
▁해야지	-10.6485
▁니가	-10.6486
남주	-10.6488
보던	-10.6489
화가	-10.6496
모르	-10.65
▁기억나	-10.65
▁것들	-10.65
▁여자를	-10.6501
▁가족을	-10.6501
보소	-10.6502
▁시청자들	-10.6502
▁끝났	-10.6502
▁줘야	-10.6504
솔	-10.6507
▁해준다	-10.6511
▁듣는	-10.6511
▁쪽	-10.6513
▁반영	-10.6516
▁뒤늦게	-10.6518
▁오그라드는	-10.6518
▁자연스러운	-10.652
▁재밌었습니다	-10.6525
라지만	-10.6525
▁고증	-10.6525
하나하나가	-10.6525
▁들어간	-10.6529
▁몰입도도	-10.6535
▁처음본다	-10.6537
▁타임	-10.6539
▁부인	-10.654
▁있냐	-10.654
▁밋밋한	-10.654
▁데이빗	-10.6542
좋네요	-10.6542
▁바란다	-10.6543
감을	-10.6543
올리	-10.6543
▁나오기	-10.6545
▁화끈한	-10.6547
▁역작	-10.6547
광고	-10.6551
서야	-10.6552
▁안될	-10.6555
▁김수현	-10.6556
나올때	-10.656
놀이	-10.6562
▁니들이	-10.6562
보지말	-10.6564
▁전성기	-10.6564
▁의미있는	-10.6567
...^^	-10.6567
▁하자	-10.6571
▁부족하고	-10.6575
▁수면제	-10.6575
ar	-10.6579
st	-10.6581
▁또라이	-10.6584
학년때	-10.6584
▁바라는	-10.6586
하겠습니다	-10.6586
▁커버	-10.6588
▁관점	-10.6588
▁볼수있	-10.6593
맞는	-10.66
▁염	-10.66
▁ᄉ	-10.6602
▁보고싶은데	-10.6603
~~~~~	-10.6604
꿈	-10.6607
▁도둑	-10.6608
▁음악은	-10.661
▁빠져들게	-10.6611
▁글고	-10.6613
만들어도	-10.6614
▁앞에서	-10.6614
▁멋짐	-10.6614
▁떼	-10.6618
▁도시	-10.6618
▁V	-10.6621
▁넣	-10.6622
▁의해	-10.6624
들끼리	-10.6627
꽃	-10.6635
▁느낀다	-10.6635
▁전투	-10.6635
▁남자는	-10.6636
분정도	-10.6636
▁절대로	-10.6638
▁모든것이	-10.6639
▁공포는	-10.664
비디오	-10.6641
▁여기에	-10.6642
▁보는것	-10.6642
▁아무나	-10.6644
▁멋있고	-10.6647
둔	-10.6649
▁영상은	-10.665
몸	-10.6652
적은	-10.6652
▁괴	-10.6652
더라고요	-10.6653
▁할말	-10.6653
▁;;;	-10.6657
되네요	-10.6657
▁되서	-10.6657
▁기다리	-10.6663
포인트	-10.6665
여자가	-10.6666
▁안나옴	-10.6668
▁족	-10.6675
재밋음	-10.6676
▁안보면	-10.6678
▁스토리전개	-10.6679
▁겁	-10.6684
드만	-10.6686
▁믿기지	-10.6689
간만에	-10.6692
▁칠	-10.6697
40	-10.6701
▁과정이	-10.6707
▁점이	-10.6712
▁안감	-10.6712
님들	-10.6712
▁대박이다	-10.6713
▁후반부에	-10.6715
거라고	-10.6717
▁나와야	-10.6718
▁얘기를	-10.6719
랭	-10.672
▁봤고	-10.6722
▁세련된	-10.6722
▁짬뽕	-10.6722
▁크레딧	-10.6722
▁bad	-10.6722
▁재미잇	-10.6722
▁늙은	-10.6722
▁천국	-10.6723
▁아니잖아	-10.6725
▁억지스런	-10.6726
▁마블	-10.6727
▁한다고	-10.6729
뭐지	-10.6732
좋았	-10.6732
▁복선	-10.6734
▁주온	-10.6735
▁모방	-10.6735
▁않습니다	-10.6736
르고	-10.6738
▁스페인	-10.6741
뭐야	-10.6743
▁의문이	-10.6744
▁편하게	-10.6747
▁최고에요	-10.6748
▁현실적이고	-10.6748
▁짱구	-10.675
▁신비	-10.6751
▁있겠지만	-10.6752
▁웃겨서	-10.6753
▁독특	-10.6762
▁진부하다	-10.6763
▁한석규	-10.6763
▁완젼	-10.6763
▁엄정화	-10.6769
없는영화	-10.6769
아까운	-10.677
▁느껴질	-10.6773
에휴	-10.6773
넣	-10.6774
▁거품	-10.6775
▁새끼	-10.6777
▁미스테리	-10.678
▁정체성	-10.6781
▁올라	-10.6783
▁ᄌ	-10.6783
▁낚	-10.6785
▁킬러	-10.6789
누구	-10.6789
▁사이코	-10.679
▁답답해	-10.6792
▁상업영화	-10.6794
▁대사도	-10.6795
▁발상	-10.68
수작	-10.6802
on	-10.6804
▁낮네요	-10.6807
▁드라마다	-10.6808
씬이	-10.6809
▁꿈과	-10.6811
▁안본	-10.6812
▁달려	-10.6815
▁안가는	-10.6816
▁볼것	-10.6817
▁감독에게	-10.682
▁당연한	-10.682
▁제대로된	-10.6825
▁브	-10.683
z	-10.6831
▁무협영화	-10.6834
▁본능	-10.6834
구먼	-10.6838
▁관련	-10.6839
▁형편없	-10.684
끄	-10.6842
▁받아야	-10.6843
고싶은	-10.6846
마저도	-10.6848
ᄏᄏᄏᄏᄏᄏ	-10.6848
▁슬퍼	-10.6848
▁설정은	-10.6851
셈	-10.6856
찡	-10.6857
구역	-10.6862
픈	-10.6863
▁가족과	-10.6874
탓	-10.6876
▁재능	-10.6877
▁두명	-10.6879
K	-10.6879
▁와서	-10.6885
▁만들기	-10.6888
▁흑	-10.6892
▁끝날	-10.6893
▁오글	-10.6895
▁약한	-10.6898
가면서	-10.69
▁이영화에	-10.69
▁슈	-10.6907
▁일본에서	-10.6912
▁센스	-10.6916
▁주인공들이	-10.692
긴다	-10.692
▁G	-10.692
▁어째	-10.6922
객	-10.6922
▁전개에	-10.6924
▁여태	-10.6928
냄	-10.6929
▁기획	-10.6929
▁호불호가	-10.693
▁설경구	-10.693
▁원피스	-10.693
▁드니로	-10.693
▁그냥저냥	-10.6931
▁생존	-10.6931
▁보낸다	-10.6932
▁거짓	-10.6932
▁시골	-10.6934
▁빠져들	-10.6937
▁극본	-10.6937
▁미학	-10.6939
▁시체	-10.6941
▁개인적인	-10.6942
▁걸까	-10.6943
▁멋져요	-10.6943
▁기대된다	-10.6948
▁아이를	-10.6948
곳	-10.695
점주	-10.6953
▁이런식으로	-10.6957
▁재밌지	-10.6961
▁않아요	-10.6963
▁감정선	-10.6964
▁후속편	-10.6968
▁의한	-10.697
▁제작자	-10.6971
▁애니매이션	-10.6972
▁나루토	-10.6972
▁남아있는	-10.6973
바른	-10.6974
▁초반엔	-10.6979
▁가장한	-10.6991
회부터	-10.6991
▁상처를	-10.6992
▁첨으로	-10.6995
▁말이필요없다	-10.6996
▁그이상	-10.7
▁파리	-10.7
▁아침	-10.7001
▁일주일	-10.7008
▁깔	-10.701
▁만들었으면	-10.7011
놈은	-10.7024
▁사람과	-10.7027
야할	-10.703
▁직	-10.703
▁되었습니다	-10.703
할정도로	-10.7034
▁17	-10.7036
▁나오네요	-10.7036
큐	-10.7037
▁스토리로	-10.704
▁웃을	-10.7043
▁간지	-10.7045
▁예고	-10.7046
지루해	-10.705
었네요	-10.7055
식이	-10.7055
거니	-10.7056
▁스포	-10.7057
짜리	-10.7061
▁살리	-10.7065
▁견	-10.7076
자체	-10.7077
▁회사	-10.7078
▁16	-10.7079
G	-10.7081
▁이하도	-10.7085
▁색감	-10.7086
▁진행되는	-10.7087
▁지루하	-10.7087
▁그대	-10.7088
▁무겁	-10.7094
털	-10.7095
▁주세요	-10.7095
▁팬들	-10.7095
▁욕을	-10.7096
춤	-10.7096
▁영화인것	-10.7097
▁헛	-10.7097
칼	-10.7097
▁배신	-10.7097
하겠	-10.7098
암튼	-10.7098
갑자기	-10.7099
▁전율이	-10.7099
▁연주	-10.7101
▁걸로	-10.7101
▁넘넘	-10.7106
대를	-10.7107
▁봐야한다	-10.7108
▁아련	-10.711
▁액션물	-10.7111
▁정부	-10.7111
▁만화책	-10.7114
▁감성을	-10.7121
▁멜로영화	-10.7122
몰입	-10.7122
▁긴장감과	-10.7123
▁살다	-10.7124
▁구조	-10.7126
랫	-10.7127
▁보여줄	-10.7128
▁이어지는	-10.7132
▁킬링	-10.7134
▁따름	-10.7136
릭	-10.7137
▁벽	-10.7139
▁늑대	-10.714
▁봤나	-10.7143
▁흥미롭게	-10.7143
▁2.22	-10.7144
▁적은	-10.7145
▁새삼	-10.7146
▁떨어지	-10.7148
▁심각하게	-10.7148
▁범죄자	-10.7152
것같아	-10.7152
▁없던	-10.7153
▁동화같은	-10.7157
▁아이언맨	-10.7157
▁취향이	-10.7158
▁히어로물	-10.7161
▁박찬욱	-10.7163
▁영웅본색	-10.7163
▁감동적이었다	-10.7163
▁귀여워서	-10.7164
▁O	-10.7168
표정	-10.7169
▁점에서	-10.7174
▁몰라	-10.7174
80	-10.7176
▁러닝타임이	-10.718
점주기도	-10.718
▁안되네	-10.7181
굳	-10.7182
있으면	-10.7184
않음	-10.7185
▁광기	-10.7185
살인	-10.7186
모르고	-10.7186
▁김희선	-10.7186
▁테이큰	-10.7186
▁한시간	-10.7187
았지만	-10.7189
기전에	-10.719
상영	-10.7191
▁머야	-10.7192
지말자	-10.7196
▁모습에	-10.7199
▁아버지가	-10.72
기영화	-10.7202
하였다	-10.7203
▁놈들	-10.7203
었나	-10.7204
▁허구	-10.7205
▁우리에게	-10.7208
▁김치	-10.7211
▁완성도가	-10.7215
▁걸작이다	-10.7217
제가	-10.7222
▁싶었	-10.7223
▁강추합니다	-10.7225
▁졸잼	-10.7226
▁들게	-10.7228
▁공룡	-10.7229
▁보구	-10.723
받을	-10.723
하기에	-10.7231
▁말았다	-10.7231
▁만들었냐	-10.7231
▁반감	-10.7232
ᄃᄃᄃ	-10.7233
알고	-10.7235
▁못했던	-10.7235
▁그림체	-10.7236
최악의	-10.7237
게다가	-10.7238
▁앞뒤	-10.7239
▁명배우	-10.7242
▁안맞	-10.7244
▁스토리나	-10.7246
▁감이	-10.7246
▁대역	-10.7246
▁이렇게까지	-10.7246
▁생각만	-10.7247
▁않았	-10.7248
▁다시봤는데	-10.725
이기에	-10.725
▁포함	-10.7252
하러	-10.7254
▁특이	-10.7258
▁평화	-10.7259
▁싶다면	-10.7261
▁다름	-10.7261
▁케	-10.7262
▁궁	-10.7264
▁잔인	-10.7267
▁싶음	-10.7268
▁감각	-10.7269
▁여자들이	-10.727
▁연습	-10.727
▁느껴	-10.7274
▁이해할수	-10.7275
▁머냐	-10.728
▁꿀	-10.7281
있었	-10.7283
▁편인데	-10.7284
▁알려	-10.7286
돈이	-10.7288
▁이딴게	-10.729
▁영상미도	-10.7293
▁연기만	-10.7293
▁만들다	-10.7295
우스	-10.7295
요소	-10.7296
▁컨셉	-10.7298
▁음악을	-10.73
▁죽음을	-10.7302
레스	-10.7304
▁H	-10.7304
▁잼나	-10.7306
으로만	-10.7307
꺼야	-10.7307
▁왔는데	-10.7308
▁느	-10.7308
▁대결	-10.7308
▁참여	-10.7311
봣다	-10.7311
▁가져	-10.7315
어지는	-10.7317
▁주고싶다	-10.7317
▁락	-10.7317
▁좋더라	-10.7317
▁허나	-10.7318
▁마리	-10.7321
없네요	-10.7322
것같음	-10.7325
시기	-10.7326
▁집중도	-10.7332
답답	-10.7333
오랜만에	-10.7333
▁보아	-10.7337
▁되면	-10.7337
▁노인	-10.7338
▁세월	-10.7341
▁고어	-10.7341
:)	-10.7345
호러	-10.7345
아닌데	-10.7345
한국영화	-10.7346
▁영화야	-10.7348
예술	-10.7353
▁로망	-10.7353
됫	-10.7354
th	-10.7355
낭	-10.7355
어여	-10.7356
▁유행	-10.736
▁너무하네	-10.736
▁군더더기	-10.736
▁송승헌	-10.736
▁오페라	-10.736
▁외로움	-10.736
▁왕가위	-10.736
점준것중	-10.7361
▁예측	-10.7361
▁오락	-10.7361
▁북	-10.7362
▁웃으며	-10.7363
▁소품	-10.7365
랜드	-10.7368
▁어설프게	-10.7372
▁같지	-10.7374
까봐	-10.7374
줘요	-10.7376
▁손예진	-10.7381
▁원조	-10.7381
▁시험	-10.7383
많고	-10.7383
분들께	-10.7385
▁등장인물들	-10.7385
▁결국엔	-10.7386
보기엔	-10.7387
▁갖게	-10.7389
▁동감	-10.739
본거	-10.739
거같아	-10.7392
면에서	-10.7393
▁막상	-10.7395
▁웃다가	-10.7396
▁엔딩은	-10.7397
▁이기	-10.7399
▁재탕	-10.7407
▁권상우	-10.741
▁어차피	-10.741
▁크리스	-10.741
▁권력	-10.7411
▁슈퍼맨	-10.7412
▁제시카	-10.7412
▁면이	-10.7412
▁보이고	-10.7418
▁힘들었다	-10.7419
▁전라도	-10.7419
점대가	-10.742
▁자위	-10.7421
됐	-10.7423
▁지금보면	-10.7423
▁우승	-10.7425
▁인식	-10.7426
▁면에서	-10.7427
▁허접하고	-10.7428
▁잊지못할	-10.7429
▁이야기의	-10.7429
▁나올까	-10.7429
▁기회	-10.7433
bb	-10.7433
▁육	-10.7434
▁아깝습니다	-10.7435
▁민망	-10.7435
둥이	-10.7437
............	-10.7442
이리	-10.7443
ᄏᄏᄏᄏᄏᄏᄏ	-10.7445
▁ᄏᄏᄏᄏᄏᄏᄏᄏᄏ	-10.7446
▁곳	-10.7453
기도하고	-10.7454
학교	-10.7455
▁남기는	-10.746
여운	-10.7461
▁만드냐	-10.7461
▁알지	-10.7463
않다	-10.7464
▁돈아까워	-10.7464
▁듣기	-10.7467
올라	-10.7468
▁공연	-10.7468
▁상어	-10.747
▁우울한	-10.7471
믿고	-10.7474
하지말고	-10.7474
▁매주	-10.7475
▁경우	-10.7475
주지	-10.748
줄이야	-10.7481
▁허허	-10.7481
아까움	-10.7483
하겠지만	-10.7484
많은것을	-10.7486
뿌	-10.7488
▁ᄡ	-10.7488
자기	-10.7494
▁필요하다	-10.7494
▁마니	-10.7497
▁대사와	-10.7499
▁많네	-10.7501
▁완성	-10.7502
하길래	-10.7504
▁줄수	-10.7505
▁명작임	-10.7505
▁잡는	-10.7505
하기에는	-10.7508
▁진실을	-10.7511
다음	-10.7511
있다면	-10.7511
▁감성이	-10.7513
▁무엇이	-10.7513
눈물이	-10.7516
자들이	-10.7516
영화라	-10.752
▁영화였는데	-10.7522
▁미녀	-10.7523
역을	-10.7523
시킬	-10.7526
▁두개	-10.7529
▁위로	-10.753
▁기사	-10.7531
▁비해서	-10.7531
▁포인트	-10.7531
잡고	-10.7533
▁찍지	-10.7535
포스터	-10.7536
앞에서	-10.7539
비가	-10.7542
널	-10.7544
탑	-10.7544
L	-10.7546
▁흥미진진한	-10.7546
볼때마다	-10.7551
멘	-10.7552
▁들지	-10.7554
▁x	-10.7554
로운	-10.7555
▁십점	-10.7556
엇는데	-10.7558
▁안봄	-10.7558
▁박수	-10.7559
▁본건	-10.756
나보다	-10.756
조차도	-10.7561
▁말은	-10.7563
보러	-10.7565
힘들	-10.7565
▁이딴거	-10.7568
쾌	-10.7571
▁극혐	-10.7574
재미없어	-10.7576
▁내용전개	-10.7576
편과	-10.7577
을수	-10.758
▁귀신이	-10.7582
연기를	-10.7582
▁가볍지	-10.7582
▁스필버그	-10.7582
▁컬트	-10.7582
▁챙겨	-10.7584
▁알바가	-10.7586
화면	-10.7586
▁연기로	-10.7587
어른	-10.7588
▁과장된	-10.7589
▁기억난다	-10.7589
▁일찍	-10.759
좋겠다	-10.7591
▁예뻐서	-10.7592
▁오직	-10.7592
줬다	-10.7593
▁재밋고	-10.7593
▁정석	-10.7594
▁싫어하는	-10.7595
함에	-10.7596
▁부분에서	-10.7599
▁불쌍해서	-10.7603
▁번역	-10.7604
▁경계	-10.7605
낮은	-10.7609
▁아바타	-10.761
▁채워	-10.761
▁중독	-10.761
정도는	-10.761
▁불안	-10.7611
▁현실에	-10.7613
▁나머진	-10.7616
▁봐줄만	-10.7617
▁로마	-10.7617
▁났	-10.7618
▁최고인듯	-10.7619
▁흔들	-10.762
분도	-10.7621
▁추억을	-10.7621
하시길	-10.7622
줄거리	-10.7623
▁영혼	-10.763
이즈	-10.763
▁사람만	-10.7632
명성에	-10.7632
ed	-10.7633
▁돌아보게	-10.7636
재밌는	-10.7643
▁후반부로	-10.7643
▁음향	-10.7644
▁치료	-10.7645
입니까	-10.7646
▁표정이	-10.765
어라	-10.7653
▁시기	-10.7653
하려면	-10.7653
▁옆에	-10.7654
▁향한	-10.7654
미화	-10.7657
이래	-10.7658
▁오글거림	-10.7658
▁가까이	-10.7658
▁싶었는데	-10.7661
대의	-10.7661
▁영상미와	-10.7663
었지	-10.7664
▁멋지	-10.7664
▁청년	-10.7667
▁떨어져	-10.7669
▁차승원	-10.767
▁설명이	-10.7671
▁메세지를	-10.7671
즘	-10.7675
▁다리	-10.7676
짱짱	-10.7677
▁실상	-10.7678
▁하나는	-10.7679
▁신선함	-10.768
▁성형	-10.768
▁커녕	-10.7682
같은데	-10.7685
▁그리워	-10.7686
▁캐스팅은	-10.7688
▁여운도	-10.7689
▁시대적	-10.7691
▁잔혹	-10.7693
▁모르겠	-10.7693
▁스릴감	-10.7699
방식	-10.77
.,.,	-10.7706
▁절망	-10.7713
별점	-10.7714
▁소재만	-10.7717
▁캐리	-10.7718
생각을	-10.7718
><	-10.7718
▁오지	-10.7718
적이다	-10.7718
▁입장	-10.7724
▁즐기	-10.7725
빌	-10.7727
그저	-10.7728
▁크다	-10.7728
▁킬링타임용으로도	-10.773
▁무기	-10.7732
▁못본	-10.7734
▁바라보는	-10.7735
할것	-10.7737
끝나고	-10.7737
▁어렵	-10.7745
내려	-10.7747
럼	-10.7747
▁쥬	-10.7751
▁인물들의	-10.7754
▁즐겨	-10.7761
▁최악임	-10.7767
납니다	-10.7771
▁to	-10.7771
굴	-10.7772
▁이것은	-10.7774
홀	-10.7775
▁봤지	-10.778
▁잘하네요	-10.7782
아오	-10.7782
천재	-10.779
▁소름끼치	-10.7792
▁초반에는	-10.7793
껀	-10.7794
됐다	-10.7795
심이	-10.7796
겹	-10.7796
▁승부	-10.7797
덩어리	-10.78
▁저평가	-10.7802
▁하기	-10.7803
보네요	-10.7803
것에	-10.7804
▁결국은	-10.7805
▁본듯한	-10.7805
▁나고	-10.7807
렉	-10.7807
▁기법	-10.7808
볼때	-10.7808
▁헬	-10.7808
덩	-10.7809
▁봤는지	-10.781
▁학창시절	-10.781
졋	-10.781
▁섞어	-10.781
▁소피마르소	-10.781
▁간간히	-10.781
▁욕나온다	-10.7812
▁의견	-10.7814
▁썼	-10.7815
▁흥미롭지	-10.7815
▁슬프	-10.7816
▁세대	-10.7819
원래	-10.7819
이구나	-10.782
▁거기서	-10.7822
▁굿굿굿	-10.7825
인들	-10.7826
보임	-10.7826
▁이전	-10.7826
▁처음이네	-10.7828
과정	-10.7828
▁이은주	-10.7829
▁인간적으로	-10.7831
▁약하다	-10.7831
▁김명민	-10.7831
▁엉망진창	-10.7831
▁싸이코패스	-10.7831
▁총체적	-10.7832
▁손색이	-10.7832
▁감동적임	-10.7834
▁했어요	-10.7836
▁구혜선	-10.7837
▁다이하드	-10.7837
▁내리	-10.7839
▁빈약한	-10.784
▁어디까지	-10.784
▁영향을	-10.7842
▁빠질	-10.7842
이어	-10.7842
▁훈훈하고	-10.7843
▁최민수	-10.7844
▁시간과	-10.7844
▁목적	-10.7845
▁에로물	-10.7846
이였음	-10.7848
▁시리즈가	-10.785
▁겨울왕국	-10.785
▁보지도	-10.7853
났음	-10.7854
올려	-10.7854
▁만든건지	-10.7856
몰입도	-10.7857
2005	-10.7858
▁드라마중	-10.7859
감상	-10.786
▁줘	-10.7861
▁니콜	-10.7862
어떤	-10.7864
조연	-10.7864
▁커피	-10.7865
▁두시간	-10.7865
봐야지	-10.7866
▁25	-10.7866
▁영화같다	-10.787
▁좋아했던	-10.787
▁이따위로	-10.7871
걸작	-10.7871
었는지	-10.7872
▁스파이	-10.7872
았는데	-10.7875
▁아련한	-10.7876
.............	-10.7879
▁생기	-10.7881
▁쿠	-10.7885
▁가져다	-10.7886
곳이	-10.7886
리아	-10.7888
▁몰입하게	-10.7894
▁한개	-10.7894
▁끝남	-10.7897
▁있었습니다	-10.7897
▁남의	-10.7903
▁개그맨	-10.7903
▁노래는	-10.7903
▁헉	-10.7906
▁의도를	-10.7915
▁담고	-10.7915
그대로	-10.7917
▁줬	-10.7918
▁ᅲᅮ	-10.7925
▁여주인공의	-10.7928
▁감동입니다	-10.7928
▁없어도	-10.7929
▁W	-10.7932
흥미를	-10.7937
▁유치찬란	-10.7938
▁인권	-10.7939
▁아이고	-10.7941
▁쿨	-10.7941
▁여자애	-10.7944
▁대사들	-10.7946
▁사과	-10.7947
▁심장이	-10.7948
▁하나가	-10.7948
▁역량	-10.795
▁하하하	-10.7951
▁캐릭	-10.7953
대체	-10.7953
▁눈치	-10.7955
사람들의	-10.7955
흘	-10.7957
여기	-10.7957
▁프	-10.7968
▁빠졌	-10.7968
▁감명	-10.7968
▁갔다	-10.7971
▁밑	-10.7972
▁기다려	-10.7975
쩐다	-10.7976
▁어른들	-10.7976
▁군인	-10.7977
동화	-10.7978
▁키스	-10.7981
괜찮	-10.7983
▁살인자	-10.799
졌음	-10.7991
것만으로도	-10.7991
▁따라가	-10.7993
쳤다	-10.7998
▁라스트	-10.7999
very	-10.7999
▁지가	-10.8
▁식상하다	-10.8002
수준이	-10.8002
▁삐	-10.8006
▁되야	-10.8006
탁	-10.8006
▁이런것도	-10.8008
끝내	-10.8009
▁뉴	-10.8011
섬	-10.8011
뒤에	-10.8012
▁결정	-10.8015
▁조아	-10.8015
▁한국어	-10.8017
▁어이없	-10.8018
아름다운	-10.8019
▁될듯	-10.802
▁예수	-10.8021
▁알게된	-10.8021
▁굳굳	-10.8021
▁곡	-10.8028
엠	-10.803
▁시대가	-10.8032
립니다	-10.8033
▁나면	-10.8033
협	-10.8035
싫다	-10.8037
▁애니를	-10.8037
▁웬만하면	-10.8042
☆	-10.8042
▁저리	-10.8043
▁관람객	-10.8043
▁람보	-10.8043
▁재방송	-10.8047
▁중반부터	-10.8051
▁등장하는	-10.8051
▁중학교	-10.8051
▁고작	-10.8052
▁좋아하지	-10.8056
▁여유	-10.8058
▁이기적인	-10.8058
-.-	-10.8059
▁신경쓰	-10.8059
▁회상	-10.806
었을까	-10.8061
▁감동이다	-10.8066
▁성인이	-10.8067
▁없애	-10.8067
봤을땐	-10.8068
후에	-10.8068
작가님	-10.8071
▁강아지	-10.8071
▁OOOO	-10.8072
▁재밋네요	-10.8072
자들의	-10.8072
▁미친듯이	-10.8074
▁와닿지	-10.8074
돋	-10.8074
▁2015	-10.8081
편부터	-10.8082
기에는	-10.8083
▁재미없었음	-10.8085
▁역사적	-10.8085
▁아닐	-10.8085
▁길다	-10.8088
버전	-10.8092
▁여태까지	-10.8093
▁소리가	-10.8093
노출	-10.8094
▁뭐랄까	-10.8097
▁제목은	-10.8098
▁베일	-10.8098
▁뉴스	-10.8103
중국	-10.8104
듣고	-10.8104
▁택	-10.8104
▁지루했음	-10.8105
▁어쨌든	-10.8109
▁안봐서	-10.8109
▁기억을	-10.8109
▁시간아까워	-10.8112
▁개소리	-10.8112
▁마법	-10.8113
▁통해서	-10.8114
▁호감	-10.8118
▁듬	-10.8119
웨	-10.812
딴	-10.8121
하하	-10.8122
레기	-10.8129
▁심오한	-10.813
내리	-10.8131
▁보는동안	-10.8132
▁나무	-10.8132
잃	-10.8133
▁텐데	-10.8134
밑에	-10.8138
▁진부	-10.8138
▁뻥	-10.8141
조아	-10.8142
▁승	-10.8143
아까운영화	-10.8154
▁장진	-10.8155
읽	-10.8156
나무	-10.816
▁되어야	-10.8161
같은거	-10.8163
▁쓰지	-10.8165
▁때가	-10.8167
▁죽는다	-10.8168
▁지금이나	-10.8169
▁거기	-10.8173
이긴	-10.8175
미가	-10.8181
시청률	-10.8183
▁태국	-10.8183
개가	-10.8185
죽여	-10.8189
▁나올수	-10.8193
범죄	-10.8194
보라	-10.8194
드리	-10.8196
▁반도	-10.8198
▁아닌것	-10.8201
▁때는	-10.8203
겁	-10.8205
▁정신없	-10.8205
▁향기	-10.8211
랴	-10.8214
을뿐	-10.8218
항	-10.8218
라곤	-10.822
하고싶은	-10.8222
▁없으니	-10.8222
▁달리는	-10.8224
▁까는	-10.8224
▁대표	-10.8227
▁남들	-10.8228
▁흉내	-10.8229
놈이	-10.823
▁가야	-10.8233
옛날	-10.8241
느껴	-10.8245
동생	-10.8245
말고는	-10.825
기술	-10.8251
▁몰랐	-10.8251
▁내시간	-10.8252
F	-10.8255
▁다보고	-10.8256
덤	-10.8256
노답	-10.8257
▁이후에	-10.8258
썼	-10.8258
아닌가	-10.8261
옷	-10.8261
하기는	-10.8261
ᄉᄇ	-10.8263
잘봤습니다	-10.8266
폭력	-10.8266
▁배꼽	-10.8267
란다	-10.8268
하죠	-10.8268
▁늙어	-10.8268
▁쓰레기를	-10.8268
▁연기력과	-10.8269
으려고	-10.8269
in	-10.8269
어진	-10.8272
집에서	-10.8273
▁삼가	-10.8274
하실	-10.8276
여행	-10.8279
뜸	-10.828
▁팝콘	-10.828
▁모순	-10.828
▁원주율	-10.828
▁트랜스포머	-10.828
▁엑스맨	-10.828
▁김민종	-10.8281
▁고인의	-10.8283
▁첫번째	-10.8283
성룡	-10.8283
-_-;	-10.8285
부러	-10.8286
▁조악	-10.8292
▁적당하다	-10.8292
▁정통	-10.8292
▁네이버평점	-10.8292
▁신세계	-10.8293
▁제왕	-10.8293
이란게	-10.8293
▁시키	-10.8294
같아요	-10.8295
▁넘치	-10.8295
▁러브스토리	-10.8298
방에서	-10.8299
자막	-10.83
까지만	-10.83
▁이따구로	-10.83
▁오랜만	-10.8302
▁더욱더	-10.8302
▁사라진	-10.8303
▁자체로	-10.8306
▁실감	-10.8307
▁애국심	-10.8307
▁최고인	-10.8311
▁아리	-10.8311
찍는	-10.8316
▁농담	-10.8317
▁죽었	-10.832
▁환상적인	-10.832
▁갖	-10.832
▁퇴보	-10.8322
▁힙합	-10.8322
▁돈으로	-10.8324
▁중국영화	-10.8325
▁가상	-10.8327
지루한	-10.8327
▁마무리가	-10.8328
▁E	-10.8328
거랑	-10.8329
▁갖춘	-10.8329
▁어이없고	-10.833
▁불쾌한	-10.8332
는것을	-10.8334
▁이것저것	-10.8335
성의	-10.834
▁세상의	-10.834
▁알리	-10.8345
▁상상력이	-10.8347
▁기준	-10.8347
▁많음	-10.8347
이기도	-10.8348
아무	-10.8348
▁전지현	-10.8349
▁통쾌한	-10.8351
▁작품에	-10.8354
▁한거	-10.8355
▁최하	-10.8359
▁제외	-10.8366
탁월한	-10.8367
▁인생에서	-10.8369
▁드라마라고	-10.8369
나면	-10.8373
▁아침드라마	-10.8374
다운받	-10.8378
▁보일	-10.8379
▁명작이라고	-10.8382
▁원숭이	-10.8382
리를	-10.839
감성	-10.8391
▁영화중에서	-10.8391
▁-_-;;	-10.8394
▁발연기에	-10.8395
보시길	-10.8398
▁돈아깝다	-10.8399
마음이	-10.84
▁J	-10.8401
▁보고싶네요	-10.8401
판이	-10.8401
▁쌍	-10.8406
▁데뷔작	-10.8407
어울리	-10.8408
▁야하지도	-10.8409
않는	-10.8414
없었다	-10.8418
빼고는	-10.8418
▁끔	-10.842
▁허술	-10.8421
▁희	-10.8425
뎅	-10.8429
달라	-10.8433
▁불쌍해	-10.8437
셔서	-10.8438
잘못	-10.8438
냈다	-10.8439
ᄒᄒᄒᄒ	-10.844
내용을	-10.844
▁것과	-10.8444
▁철학적	-10.8445
그녀	-10.8445
중간에	-10.8446
영화보다	-10.8449
▁드라마의	-10.8455
▁시간도	-10.8461
▁유리	-10.8461
▁인도영화	-10.8461
버렸네	-10.8462
▁케미	-10.8463
▁시간은	-10.8463
▁기대했던	-10.8464
발연기	-10.8466
였네	-10.8469
▁R	-10.847
▁봣	-10.8471
▁멋진영화	-10.8472
멜	-10.8473
▁장르의	-10.8473
행복	-10.8477
▁형식	-10.848
▁웃긴다	-10.8482
▁이끌어	-10.8483
▁나온거	-10.8486
▁좋겠	-10.8486
▁우리나라에서	-10.8488
봤으면	-10.8492
▁한방	-10.8493
보려고	-10.8494
빡	-10.8494
▁말해	-10.8499
콜	-10.85
낀	-10.8501
딘	-10.851
칸	-10.851
▁작품중	-10.851
▁부실	-10.8512
특유의	-10.8512
▁남긴	-10.8513
am	-10.8515
오래	-10.8515
▁알려주	-10.8518
▁욕만	-10.852
측	-10.8521
멸	-10.8521
▁고등학생	-10.8522
▁본방	-10.8523
안에서	-10.8524
재미있음	-10.8524
▁정확히	-10.8524
▁톰크루즈	-10.8524
▁엽문	-10.8524
▁사무라이	-10.8524
▁아쉬웠지만	-10.8524
▁스킵	-10.8524
▁흑역사	-10.8524
▁전도연	-10.8525
▁오우삼	-10.8525
▁드래곤볼	-10.8525
▁몰락	-10.8525
없지	-10.8525
▁예술이	-10.8526
▁털	-10.8526
▁이민기	-10.8526
▁지브리	-10.8527
▁학살	-10.8528
▁본적이	-10.8528
▁중요	-10.8528
▁더더욱	-10.8531
▁모자란	-10.8532
▁임신	-10.8535
▁어떠한	-10.8535
▁그들을	-10.8535
▁의미없는	-10.8536
▁부자	-10.8536
▁왔다	-10.8536
▁굉장한	-10.8536
▁성경	-10.8536
▁화질	-10.8537
▁미쳐	-10.8539
나오네	-10.854
▁에드워드	-10.8541
▁흐지부지	-10.8541
후반	-10.8543
▁제목과	-10.8543
▁잼나요	-10.8544
▁분위기를	-10.8544
▁않네	-10.8545
▁상영관	-10.8549
▁복수극	-10.8549
▁초반부터	-10.8549
▁막장이	-10.855
▁남기고	-10.8552
▁장동건	-10.8554
▁신세경	-10.8554
웃긴	-10.8557
▁끼	-10.8557
▁신데렐라	-10.8561
▁새록새록	-10.8561
▁공포감	-10.8561
까요	-10.8563
▁짜릿	-10.8564
▁이탈리아	-10.8567
▁추천한다	-10.8569
▁했나	-10.857
놨네	-10.8572
▁장난감	-10.8572
▁변신	-10.8573
▁최민식	-10.8574
▁자체도	-10.8575
▁상대	-10.8575
▁슬펐다	-10.8576
▁명작이네요	-10.8576
함은	-10.8577
▁정점	-10.858
▁찍을	-10.858
치기	-10.858
▁본격	-10.8581
드라마는	-10.8581
▁이루	-10.8582
턴	-10.8583
▁만화를	-10.8584
▁MBC	-10.8587
▁다루	-10.8588
▁깜놀	-10.8588
▁쏘우	-10.8588
▁특이한	-10.8592
이니까	-10.8594
멀	-10.8596
일단	-10.8598
▁오그라들	-10.8599
▁만화가	-10.86
▁주연의	-10.8606
▁만날	-10.861
▁도움이	-10.8611
이상은	-10.8611
▁빠지게	-10.8612
보려	-10.8615
▁현실감	-10.8617
▁생각나게	-10.862
▁조연들	-10.862
▁믿지	-10.8624
거같네요	-10.8627
▁마지막은	-10.8627
▁여친	-10.863
▁기타	-10.8633
▁비교하면	-10.8634
▁잔인하고	-10.8635
▁재밋는	-10.8635
▁익	-10.8637
이형	-10.8638
능력	-10.8643
시간을	-10.8643
▁결과는	-10.8644
있을까	-10.8644
▁사실이	-10.8644
▁됬	-10.8647
명을	-10.8654
▁아류	-10.8655
▁지루하기	-10.8655
▁영환	-10.8656
▁못해서	-10.8657
▁남고	-10.8665
▁보고싶어	-10.8665
▁못하네	-10.8673
▁무서웠	-10.8673
▁다른건	-10.8677
▁한줄	-10.8678
사극	-10.8678
볼려고	-10.8679
년동안	-10.8681
▁안나오고	-10.8684
▁선생	-10.8684
주시	-10.8687
으시	-10.8695
혼자	-10.8695
▁그들	-10.8699
~♥	-10.8699
▁떠오르는	-10.8703
▁씁쓸	-10.8704
애가	-10.8704
믿	-10.8705
▁한글	-10.8706
▁메세지가	-10.8706
마리	-10.8708
렷	-10.8708
▁재밌게봤는데	-10.8711
▁그시절	-10.8712
▁평소	-10.8713
라는데	-10.8715
▁유치하기	-10.8717
▁엔딩크레딧	-10.8719
느끼	-10.8719
▁스타일이	-10.872
▁잼없	-10.8724
스토리는	-10.8724
▁하니	-10.8728
성에	-10.8731
▁하던데	-10.8731
▁찾을	-10.8732
un	-10.8732
▁끝난다	-10.8737
▁높은지	-10.8738
▁아니네	-10.8738
텐	-10.874
▁나타나	-10.8741
돌려	-10.8745
먹은	-10.8746
▁게임을	-10.8748
평점은	-10.8751
▁성적	-10.8752
즐	-10.8765
쫌	-10.8768
밧	-10.8769
▁하지마라	-10.877
▁게스트	-10.877
▁벗어나	-10.8771
▁매끄럽지	-10.8774
▁인상깊게	-10.8774
썬	-10.8774
▁엉터리	-10.8774
▁키아누	-10.8774
▁니콜라스	-10.8774
▁best	-10.8775
▁말아먹은	-10.8775
▁보여줌	-10.8775
://	-10.8776
▁극찬	-10.8777
▁윌리스	-10.8778
▁2003	-10.8778
▁드문	-10.8779
▁이상으로	-10.878
▁유령	-10.878
▁실패작	-10.8782
▁태양	-10.8782
▁영광	-10.8782
▁카피	-10.8782
▁정신병	-10.8782
▁잔잔하지만	-10.8784
▁감흥	-10.8786
한마디로	-10.8787
▁엿	-10.8788
▁터지는	-10.879
▁한번씩	-10.8791
▁도망	-10.8792
사의	-10.8793
▁우리들	-10.8797
▁황정민	-10.8798
▁미장센	-10.8798
▁r	-10.8799
▁의외의	-10.8805
▁함부로	-10.8805
▁나오는거	-10.8807
▁싶으면	-10.8807
엿다	-10.8808
▁다시보기	-10.8808
▁어설퍼	-10.8812
했었	-10.8813
▁믿을게	-10.8816
으러	-10.882
▁아름다웠다	-10.8821
년간	-10.8821
였네요	-10.8823
▁낚여서	-10.8823
▁강하게	-10.8823
▁불가	-10.8824
▁조정	-10.8825
▁몬	-10.8829
만함	-10.8831
▁멘탈	-10.8832
▁완죤	-10.8832
▁이정재	-10.8832
곳에	-10.8833
▁애가	-10.8835
▁오글거려서	-10.8835
야겠다	-10.8835
▁K	-10.8835
▁줘도	-10.8836
댓글	-10.8836
▁만들어야	-10.8839
국민	-10.884
점도아깝다	-10.8842
학원	-10.8845
하시고	-10.8847
▁허무함	-10.8847
위에	-10.8847
▁사람마다	-10.8848
▁8.5	-10.8849
학생	-10.8849
▁할말을	-10.8853
▁교회	-10.8857
었어	-10.886
▁잘해	-10.8864
▁이영화보고	-10.8865
긴했지만	-10.8865
줄알았는데	-10.8869
▁만세	-10.887
이기	-10.8871
▁믿어	-10.8872
없는데	-10.8873
▁재밋는데	-10.8874
▁집단	-10.8874
▁또봐도	-10.8878
ᄏᄏᄏᄏᄏᄏᄏᄏᄏ	-10.888
▁혼자서	-10.8881
▁컷	-10.8883
▁짱짱맨	-10.8883
필요없	-10.8883
▁가치도	-10.8884
▁흘러가	-10.8885
▁마누라	-10.8887
▁결말까지	-10.8888
▁낚였네	-10.8889
그때	-10.8892
▁애니메이션이	-10.8894
볼까	-10.8896
랑은	-10.8897
처리	-10.8898
▁예술가	-10.8898
▁ᄏᄏᄏᄏᄏᄏᄏᄏᄏᄏᄏ	-10.8899
▁읽는	-10.8899
▁단역	-10.89
▁맞추	-10.89
▁잘만들	-10.8905
▁어색함	-10.8905
누가	-10.8905
▁범인이	-10.8906
▁찌질	-10.8909
▁워	-10.8912
▁사회의	-10.8914
▁조폭영화	-10.8916
▁쓰레기네	-10.8922
인지도	-10.8926
▁처절	-10.8928
▁수입	-10.8935
▁아니네요	-10.8936
있었는데	-10.894
물로	-10.895
편으로	-10.8951
▁밝혀	-10.8956
않은	-10.8956
될듯	-10.8957
▁하나님	-10.8957
▁신경	-10.8959
▁영화내내	-10.8962
▁평가를	-10.8963
▁중년	-10.8963
▁힘들어	-10.8964
▁모아	-10.8965
럴	-10.8967
싶은	-10.8967
뿐인	-10.8968
▁생각했던	-10.8968
가아니라	-10.8969
▁즐거움	-10.8969
아직	-10.897
▁g	-10.8971
▁돋	-10.8972
▁알아야	-10.8973
90	-10.8975
▁마음속에	-10.8977
▁그럴싸	-10.8978
인물	-10.898
▁애들도	-10.8982
▁곰	-10.8982
▁오랜	-10.8983
▁존스	-10.8985
▁출신	-10.8985
▁지겹	-10.8992
▁배가	-10.8992
▁터지	-10.8993
▁추가	-10.8994
삼류	-10.8995
▁복잡	-10.9
잖	-10.9002
▁돌리	-10.9006
▁만듬	-10.9006
▁틀어	-10.901
시에	-10.901
▁스릴이	-10.9012
N	-10.9016
병맛	-10.9019
▁아름다워	-10.9019
▁바뀌	-10.9024
활	-10.9027
맹	-10.9029
▁아쉬울	-10.903
덴	-10.903
핫	-10.903
귀여워	-10.9031
▁정당화	-10.9031
히어로	-10.9031
▁고마운	-10.9032
▁경의를	-10.9032
▁가슴아픈	-10.9032
▁에릭	-10.9032
cg	-10.9032
로우	-10.9034
▁장혁	-10.9034
▁영화적	-10.9034
▁개같은	-10.9035
▁기록	-10.9036
▁명성	-10.9036
▁울었습니다	-10.9036
▁젊음	-10.9036
▁몰랐는데	-10.9036
▁존잼	-10.9037
▁나오다니	-10.9038
▁스크린	-10.9038
공부	-10.9038
▁찬사를	-10.9038
▁안타깝네요	-10.9038
▁필요없음	-10.9039
▁소재에	-10.904
▁재현	-10.9041
▁레오	-10.9043
▁어케	-10.9045
▁안좋은	-10.9045
보지마라	-10.9046
▁에러	-10.9047
형사	-10.905
▁자랑	-10.905
▁피식	-10.9052
았어요	-10.9052
▁재밌기만	-10.9053
▁겉멋만	-10.9054
▁이야기에	-10.9054
▁상당한	-10.9056
▁장점	-10.9058
▁독립	-10.9059
죽음	-10.9059
벽	-10.906
▁아이들은	-10.9064
▁마다	-10.9068
▁도라에몽	-10.9069
▁차태현	-10.9069
▁알려준	-10.907
▁죽기전에	-10.9071
▁돈낭비	-10.9072
▁되나	-10.9072
▁해외	-10.9075
▁폭풍	-10.9076
▁거다	-10.908
▁우리나라의	-10.9085
▁말라	-10.9091
유머	-10.9093
▁꺼내	-10.9096
▁재미만	-10.9097
▁슬프네요	-10.9102
점만점	-10.9104
▁클라스	-10.9104
▁재미나게	-10.9109
일때	-10.911
▁폰	-10.9112
▁없었는데	-10.9112
액션영화	-10.9114
볼수	-10.9114
▁넘어가	-10.9117
▁내놓	-10.912
▁믿음	-10.9121
설명	-10.9121
▁볼만한데	-10.9122
▁일본이	-10.9122
보셈	-10.9123
▁재미있어서	-10.9124
▁잼없음	-10.9125
▁더럽다	-10.9125
▁작품들	-10.9126
▁최고최고	-10.9129
▁웃음과	-10.9129
▁소리만	-10.913
▁재밌었고	-10.9131
▁클라라	-10.9132
▁지루함이	-10.9133
▁슬퍼요	-10.9133
대단히	-10.9137
▁좋아하네요	-10.9137
▁작가는	-10.9138
▁충격이	-10.9142
▁장소	-10.9143
▁답답해서	-10.9143
▁첨에	-10.9144
드가	-10.9144
아쉽	-10.9144
▁졸작이다	-10.9144
▁끝은	-10.915
아가	-10.9158
▁모르나	-10.9159
▁움직이	-10.9163
▁고수	-10.9168
▁킬링타임용도	-10.9168
▁ᄃ	-10.9168
줄은	-10.917
▁등록	-10.9171
장애	-10.9174
▁뽑아	-10.9176
▁던져	-10.9178
지면	-10.918
것도아니고	-10.9182
an	-10.9183
▁버전	-10.9184
틴	-10.9193
는줄	-10.9195
같네	-10.9196
▁안남	-10.9196
씨도	-10.9198
▁같네	-10.9198
까지도	-10.9201
▁가족들	-10.9203
자와	-10.9206
하지않고	-10.9207
▁대학생	-10.9211
▁장면만	-10.9212
이면서	-10.9215
▁머리를	-10.9216
죽이고	-10.9218
▁선택한	-10.922
▁쓰레기임	-10.922
추억	-10.9221
스러워	-10.9226
성은	-10.9226
▁현실에서	-10.9227
댄	-10.9227
시대에	-10.9229
▁숙	-10.923
▁300	-10.923
▁잘만들었	-10.9231
▁캐릭터와	-10.9231
▁재주	-10.9233
▁여배우가	-10.9233
▁퀄리티가	-10.9238
앞으로	-10.9242
▁돌아오	-10.9242
▁김혜수	-10.9249
떼	-10.9252
▁흐르	-10.9252
▁모욕	-10.9252
▁재밌게본	-10.9255
▁힘들게	-10.9256
▁아닌지	-10.9257
▁즐길	-10.9258
▁하던가	-10.9259
봤습니다	-10.9259
▁사라져	-10.9265
부분도	-10.9267
▁정주행	-10.9269
▁개똥	-10.9271
▁주제는	-10.9271
정보	-10.9273
▁남자를	-10.9276
▁충실	-10.9276
도좋고	-10.9278
말도	-10.9278
맞고	-10.9279
♥♥♥♥	-10.9288
대단	-10.9288
저런	-10.9289
▁펼쳐	-10.9292
찰	-10.9293
▁끝판왕	-10.9294
▁홧팅	-10.9294
푼	-10.9294
였다니	-10.9294
▁눈요기	-10.9295
▁크리스찬	-10.9295
그래픽	-10.9295
▁성찰	-10.9295
▁2004	-10.9296
▁혹평	-10.9297
창있네	-10.9297
감동도	-10.9297
려다	-10.9299
▁아이러니	-10.9299
▁더러워	-10.93
▁아니라서	-10.93
촬영	-10.9303
tv	-10.9304
▁억지설정	-10.9304
▁대표적인	-10.9305
필름	-10.9305
▁몇번이나	-10.9305
▁볼만했는데	-10.9306
남는	-10.9307
▁어렸을적	-10.9307
▁신선하	-10.9307
한건지	-10.9307
▁세계관	-10.9311
▁도중에	-10.9311
이아니라	-10.9311
▁알겠지만	-10.9313
▁재밌당	-10.9314
▁항	-10.9314
▁범	-10.9317
▁남발	-10.9318
판에	-10.9318
겁니까	-10.9319
▁앞서	-10.9319
▁놀라	-10.9321
끼고	-10.9322
영상미	-10.9323
▁다세포소녀	-10.9326
하느라	-10.9327
는것이	-10.9329
▁연기한	-10.9329
▁아프리카	-10.9333
▁임청하	-10.9333
▁글쎄요	-10.9339
▁처음이네요	-10.9339
▁다운로드	-10.9341
▁시원한	-10.9342
되게	-10.9344
▁즉	-10.9348
▁같지만	-10.9348
▁원작소설	-10.935
이었	-10.935
▁끔찍	-10.9352
!!!!!!!	-10.9354
▁납치	-10.9355
▁무리수	-10.9355
▁김태희	-10.9356
▁옛날영화	-10.9357
▁또보고	-10.9357
실력	-10.9359
▁샤	-10.936
▁들어도	-10.936
▁배려	-10.9361
쪽으로	-10.9363
아쉽다	-10.9365
▁충	-10.9367
▁존재하는	-10.9367
,,,,,,	-10.9367
▁발음	-10.9375
▁분명히	-10.9375
기대하고	-10.9375
▁매력은	-10.9376
▁설정에	-10.9376
▁틈	-10.9376
점주고	-10.9377
▁심각	-10.9377
▁밑도	-10.9377
▁꿈꾸는	-10.938
▁거슬리	-10.9381
▁싶지만	-10.9383
▁무서울	-10.9384
▁한번쯤은	-10.9384
괜찮은	-10.9389
▁우리나라에	-10.939
려다가	-10.9394
저는	-10.9396
죽어	-10.9397
작품이	-10.9397
▁싹	-10.9398
자연	-10.9399
▁남는건	-10.94
하더니	-10.94
▁>	-10.94
▁좋아한다	-10.9401
▁문제는	-10.9408
▁그지같은	-10.9411
▁블루	-10.9412
▁만들었네	-10.9413
▁끄는	-10.9416
^^;	-10.9419
▁생각한	-10.9425
▁이뻐	-10.9427
▁대사를	-10.943
▁유혹	-10.943
세대	-10.9431
▁일본판	-10.9436
엑	-10.9436
▁확실	-10.9436
▁수고	-10.9441
▁안들	-10.9442
▁개봉을	-10.9442
▁중심	-10.9443
하지마	-10.9444
▁돈과	-10.9446
▁매력있는	-10.9453
▁있나요	-10.9453
▁상실	-10.9454
둥	-10.9456
▁저러	-10.9456
le	-10.9456
▁한대	-10.9458
▁주먹	-10.946
상태	-10.9465
▁혼란	-10.9465
▁얻어	-10.9468
판을	-10.9475
▁뿌리	-10.9478
▁스토리지만	-10.9478
▁좋아하고	-10.9479
▁마지막장면	-10.948
어색	-10.9481
상이	-10.9481
겠다는	-10.9485
게만드는	-10.9485
▁즐거웠	-10.9485
▁다크	-10.9487
▁돋보이	-10.9487
▁예고편이	-10.9487
▁되어서	-10.9491
▁예술성	-10.9492
▁성룡이	-10.9494
▁무료	-10.9498
▁k	-10.9499
저도	-10.9499
▁무게	-10.95
이라는게	-10.9502
▁시나리오도	-10.9506
▁믿는	-10.9506
▁대사는	-10.9512
▁쓰레기는	-10.9512
▁액션의	-10.9513
이영화는	-10.9514
▁안되나	-10.9517
▁있어도	-10.952
▁영화라는게	-10.952
▁무한	-10.9524
▁편안	-10.9525
스릴	-10.9527
▁ᄍ	-10.9527
재밋게	-10.9533
겠냐	-10.9537
▁짧아	-10.9537
▁학생들	-10.9538
▁부르는	-10.954
▁않아도	-10.9541
▁먹먹	-10.9542
▁it	-10.9547
▁참고로	-10.9548
▁흐름이	-10.9549
▁적이	-10.955
프라	-10.9552
뷰	-10.9556
▁않으면	-10.9558
장면에서	-10.9558
▁외국영화	-10.9559
▁묻어	-10.9559
▁표정연기	-10.956
찐	-10.9561
하는듯	-10.9563
▁드림웍스	-10.9564
▁똑바로	-10.9564
▁미야자키	-10.9564
▁송혜교	-10.9564
▁어둡고	-10.9564
▁태어난	-10.9564
▁한쿡영화	-10.9564
▁끊임없	-10.9564
▁사로잡	-10.9564
▁정신나간	-10.9565
휘	-10.9565
▁모티브	-10.9565
▁가해자	-10.9565
▁짐승	-10.9565
▁문득	-10.9566
▁지나친	-10.9566
▁자본주의	-10.9566
▁마틴	-10.9566
▁절제된	-10.9567
▁절반	-10.9567
▁접근	-10.9567
▁덤	-10.9568
따윈	-10.9569
부를	-10.9569
▁먹먹하다	-10.9569
▁우왕	-10.9572
..............	-10.9573
▁일탈	-10.9573
▁훌륭함	-10.9575
▁스토리라인	-10.9575
▁된다는	-10.9575
▁있겠지	-10.9575
튀	-10.9577
▁발레	-10.9577
▁주제도	-10.9578
▁중간부터	-10.9578
▁돈만	-10.9579
개연성	-10.9579
▁남자라면	-10.9582
했더니	-10.9582
▁전락	-10.9584
마냥	-10.9584
▁구라	-10.9584
▁부디	-10.9584
▁돋보인다	-10.9585
다시봐도	-10.9586
과도한	-10.9587
▁슬프지만	-10.9587
별루	-10.959
▁오인혜	-10.959
▁차마	-10.9592
▁인종차별	-10.9597
▁가슴아프	-10.9598
진행	-10.9598
▁없구나	-10.9598
▁초등학교때	-10.9599
주인공이	-10.9601
▁예쁘게	-10.9601
▁돈은	-10.9602
묘사	-10.9603
언제	-10.9604
▁솔직한	-10.9604
▁오글거리고	-10.9605
하나요	-10.9605
나왔으면	-10.9607
▁구원	-10.9607
▁무엇	-10.9608
다음으로	-10.961
넘어	-10.9611
▁감수성	-10.9612
▁색채	-10.9612
▁복잡한	-10.9613
심리	-10.9614
▁아까워요	-10.9614
당신	-10.9618
▁존경합니다	-10.9618
트로	-10.9619
▁드라마네요	-10.9619
▁The	-10.962
▁고맙습니다	-10.962
▁작품이라	-10.9621
▁7.5	-10.9621
다리	-10.9621
봣음	-10.9622
▁영화제목	-10.9624
▁장면과	-10.9624
▁만드	-10.9624
▁나참	-10.9624
분들이	-10.9627
▁명성을	-10.9629
18	-10.9633
▁재미있네	-10.9634
▁매력적이다	-10.9635
달까	-10.9635
▁감옥	-10.9636
▁일본영화는	-10.9636
▁엉망이	-10.9637
▁출현	-10.9637
▁200	-10.9639
▁찾아볼	-10.964
▁둔	-10.964
▁사랑으로	-10.964
안나	-10.9642
잇고	-10.9644
▁경제	-10.9644
▁높네	-10.9647
시오	-10.9647
▁지루하기만	-10.9648
▁대실망	-10.9649
해줘서	-10.9649
▁소지섭	-10.9649
▁오글거리	-10.965
돌이	-10.9654
▁몇년	-10.9654
▁분위기에	-10.966
영화네요	-10.9662
▁철학적인	-10.9664
▁예산	-10.9664
▁공포도	-10.9667
▁더럽고	-10.967
다보니	-10.9671
▁울었던	-10.9672
맞아	-10.9674
마이	-10.9675
▁해주세요	-10.9678
▁존재한다	-10.968
어느	-10.968
같지만	-10.968
▁행복해	-10.9683
▁지키	-10.9684
성과	-10.9686
▁아쉽고	-10.9688
이젠	-10.9689
다들	-10.9689
자면	-10.969
▁망쳐놓	-10.9691
▁농	-10.9692
▁정말정말	-10.9693
젠	-10.9694
▁이유로	-10.9695
때메	-10.97
▁예고편만	-10.9701
▁캐릭터의	-10.9701
▁나은듯	-10.9701
▁배경과	-10.9702
▁뭉	-10.9707
▁울었	-10.971
▁바꾼	-10.9711
▁안했는데	-10.9716
▁웃음만	-10.9718
점에서	-10.9722
역의	-10.9726
▁지지	-10.9727
장에서	-10.973
▁느낌도	-10.9737
아나	-10.9739
▁잡고	-10.9741
▁지들	-10.9746
▁끝날때	-10.9746
▁여인	-10.9748
인척	-10.9752
서는	-10.9753
▁미안해	-10.9754
아내	-10.9756
▁몰입되	-10.9757
!!!!!!!!	-10.976
사진	-10.9766
▁머리에	-10.977
▁코미디는	-10.9771
it	-10.9773
▁완벽하	-10.9774
▁첩보	-10.9776
▁머가	-10.9776
▁조차	-10.9778
▁실화라는	-10.9779
▁후기	-10.978
▁달콤	-10.9783
▁놓은	-10.979
▁따라한	-10.9797
▁외면	-10.9801
인간들	-10.9805
▁속은	-10.9805
타임	-10.9807
▁동심	-10.9808
▁한숨	-10.9811
▁확실한	-10.9813
▁젖	-10.9814
▁몸을	-10.9816
모르겠다	-10.9816
킬	-10.9818
든가	-10.982
▁저게	-10.982
른다	-10.9824
ᄍ	-10.9824
▁h	-10.9827
▁안된	-10.9829
▁효	-10.983
la	-10.9831
▁극복	-10.9836
회가	-10.9837
시리즈를	-10.9838
▁몸이	-10.9838
만들지	-10.9838
컬	-10.9839
▁노력이	-10.984
▁웃기지	-10.984
칙	-10.9841
밍	-10.9842
▁두려움	-10.9842
▁뜨거운	-10.9842
▁예쁨	-10.9842
▁용두사미	-10.9842
▁파워레인저	-10.9842
▁팀버튼	-10.9842
▁뉴욕	-10.9843
▁비싼	-10.9843
▁신기한	-10.9843
배속으로	-10.9843
▁비롯	-10.9843
드려요	-10.9844
▁보셈	-10.9845
▁출발	-10.9846
▁초능력	-10.9848
▁넘어선	-10.9849
▁가려	-10.9849
▁말하려는	-10.9851
▁않았음	-10.9851
▁없군	-10.9851
▁이정도로	-10.9853
▁재수없	-10.9854
▁되었는데	-10.9855
달라고	-10.9856
안돼	-10.9857
뉴	-10.9857
21	-10.9857
▁사실적으로	-10.9858
▁짧게	-10.9859
▁받아들이	-10.9862
▁다큐를	-10.9863
▁짱나	-10.9863
챙겨	-10.9864
불륜	-10.9866
▁중학교때	-10.9866
▁송지효	-10.9868
▁현실적으로	-10.9873
▁다시보게	-10.9873
▁최고였습니다	-10.9877
글자	-10.9877
▁부럽다	-10.9878
▁어쩌	-10.9881
다만	-10.9882
▁걸리	-10.9884
▁뺏	-10.9887
▁포켓몬	-10.9891
▁이쁘게	-10.9891
▁힘내세요	-10.9892
겠다고	-10.9892
▁전부다	-10.9893
▁미국판	-10.9894
▁실패한	-10.9896
▁이연희	-10.9899
번이나	-10.99
남기	-10.99
▁망쳐	-10.9901
▁공포영화가	-10.9902
당하는	-10.9906
▁아침에	-10.9908
약간	-10.9911
▁버릴	-10.9914
▁쩔	-10.9917
▁먹먹한	-10.9918
소름	-10.9918
▁불편함	-10.9919
▁희망이	-10.9921
스케	-10.9923
▁환자	-10.9923
▁틈이	-10.9924
이었고	-10.9925
▁선동영화	-10.9925
▁엉성함	-10.9926
▁볼만해요	-10.9928
▁즐겁고	-10.9929
▁팍팍	-10.9929
▁캐스팅도	-10.993
▁똥을	-10.993
▁제시	-10.993
▁,,	-10.9932
▁영상미는	-10.9933
▁조명	-10.9934
▁택시	-10.9934
▁와닿는	-10.9935
▁표현했다	-10.9936
받았	-10.9936
▁성유리	-10.9937
▁허접하다	-10.9937
었네	-10.9937
▁별하나	-10.9939
▁멀리	-10.9941
재미는	-10.9945
▁옳	-10.9946
여야	-10.9946
▁향	-10.9946
▁코드가	-10.9949
쏘	-10.9952
▁향해	-10.9953
있는영화	-10.9954
▁자유를	-10.9954
▁국산	-10.9955
티비	-10.9958
▁달아	-10.9959
▁읽은	-10.996
줘도	-10.9961
수를	-10.9963
드라마를	-10.9967
▁최대의	-10.9968
▁방식	-10.9973
▁지경	-10.9976
▁별거	-10.9977
았습니다	-10.9979
리지	-10.998
▁빠지	-10.9981
▁섹시한	-10.9981
줘야지	-10.9983
▁어딘가	-10.9984
▁한장면	-10.9991
..2	-10.9996
일세	-10.9997
이건뭐	-10.9998
할려고	-10.9999
써요	-11.0003
▁맘이	-11.0003
▁죽일	-11.0004
이유는	-11.0007
가슴이	-11.0013
▁재밌게봤다	-11.0015
등급	-11.0016
▁기억될	-11.0016
갔으면	-11.0018
▁영화란	-11.002
▁스케일이	-11.0021
때는	-11.0021
때도	-11.0021
▁비현실적	-11.0022
▁하긴	-11.0023
분들은	-11.0027
차이	-11.0028
었을	-11.0032
라인	-11.0034
▁별루다	-11.0034
저질	-11.0036
▁너무재밌어요	-11.0039
▁알겠	-11.004
▁봐주	-11.0041
기법	-11.0044
▁별로인	-11.0045
▁뭣	-11.0048
▁최후	-11.0049
▁나한테	-11.0049
대장	-11.005
▁아니냐	-11.005
쟁	-11.005
▁초중반	-11.0051
▁그런영화	-11.0052
이런거	-11.0054
▁이상함	-11.0055
못해	-11.0055
▁몰아	-11.0055
▁전편의	-11.0062
▁나니	-11.0063
▁갔는데	-11.0063
으세요	-11.0063
▁대단하	-11.0066
해지고	-11.0066
▁보물	-11.0069
▁빛이	-11.0069
▁외치	-11.0072
잤	-11.0072
▁멋졌	-11.0073
슬프	-11.0073
▁좋았어	-11.0074
▁폐	-11.0082
▁하려는	-11.0085
▁흥미로웠	-11.0086
▁지루하네	-11.0088
▁즐	-11.0089
그게	-11.0092
▁만나는	-11.0093
만들엇	-11.0096
네유	-11.0098
돈으로	-11.01
▁다른거	-11.01
꺼면	-11.01
▁날아	-11.0101
▁보고싶어요	-11.0101
...;;;	-11.0102
평점을	-11.0103
▁짱임	-11.0107
▁것들을	-11.0108
일수도	-11.0108
잊	-11.0111
형제	-11.0112
▁전쟁이	-11.0113
▁후반에	-11.0115
▁허탈	-11.0115
받아	-11.0115
삭	-11.0117
로서의	-11.0118
▁결말에	-11.012
▁노력한	-11.012
▁녹아	-11.0121
텔	-11.0122
균	-11.0123
벼	-11.0125
렀	-11.0125
▁위트	-11.0126
탱	-11.0126
경이	-11.0127
핀	-11.0127
ᄎ	-11.0127
▁고스란히	-11.0128
▁김강우	-11.0128
▁양동근	-11.0128
▁어우러진	-11.0128
▁엉덩이	-11.0128
▁찝찝한	-11.0128
▁클리셰	-11.0128
▁불후의	-11.0128
습니당	-11.0128
▁다니엘	-11.0128
▁흥미롭고	-11.0128
▁잃어버린	-11.0128
▁은퇴	-11.0128
▁추락	-11.013
▁경기	-11.0132
▁이해하지	-11.0132
▁나온다는	-11.0132
▁지들끼리	-11.0134
▁여왕	-11.0134
▁그럼에도	-11.0134
▁말았어야	-11.0135
▁엄마의	-11.0135
▁평점조절	-11.0136
주제	-11.0138
점대라니	-11.0138
▁t	-11.0138
겨운	-11.0139
▁불법	-11.014
아쉬웠	-11.014
습니까	-11.0141
▁않았으면	-11.0141
▁재밋어	-11.0141
ᄏᄏᄏᄏᄏᄏᄏᄏ	-11.0142
▁좋아한다면	-11.0142
들로	-11.0143
▁잘생기고	-11.0145
▁분위기도	-11.0146
▁백배	-11.0148
▁무슨말이	-11.0149
▁심히	-11.0149
뽕	-11.0151
혈	-11.0152
▁주상욱	-11.0155
▁알게해준	-11.0155
▁해피	-11.0156
합시다	-11.0156
덜	-11.0156
▁관객에게	-11.0156
분만	-11.0157
브라	-11.0157
▁아동용	-11.0158
흐름	-11.0159
▁어린아이	-11.0159
카메라	-11.0159
▁인간적인	-11.016
진정한	-11.016
▁in	-11.0161
으신	-11.0162
시간낭비	-11.0162
▁서프라이즈	-11.0163
▁인터뷰	-11.0163
좋았어요	-11.0164
영웅	-11.0164
▁빌리	-11.0164
▁잠들	-11.0165
인거같다	-11.0165
갈수	-11.0165
먼저	-11.0165
▁연상	-11.0166
▁만들려고	-11.0167
▁메리	-11.0169
관련	-11.0169
...;;	-11.017
줬으면	-11.0171
었을텐데	-11.0171
훌륭한	-11.0175
▁어린이용	-11.0175
▁보는사람	-11.0176
전이	-11.0176
▁반전영화	-11.0177
▁신념	-11.018
▁말아	-11.018
▁ᄇᄉ	-11.0181
▁유지태	-11.0181
가면	-11.0183
할지	-11.0184
▁물건	-11.0184
▁불행	-11.0185
▁쓰레기들	-11.0186
▁조승우	-11.0186
▁신민아	-11.0186
▁영원	-11.0187
▁2013	-11.0188
▁어이없어서	-11.0189
▁수준이하	-11.0189
▁없었으면	-11.0191
▁일어나	-11.0191
▁무서웠다	-11.0193
▁카메론	-11.0194
▁배경도	-11.0195
할거	-11.0196
치도	-11.0196
이쁘고	-11.0197
시면	-11.0197
▁♥	-11.0198
만듬	-11.0199
▁목숨	-11.0201
없어요	-11.0201
▁산만한	-11.0202
▁클	-11.0202
식의	-11.0203
▁날리	-11.0203
▁광팬	-11.0203
▁이혼	-11.0204
▁정도다	-11.0204
▁연출을	-11.0206
▁보여주지	-11.021
▁돌려줘	-11.021
▁아카데미	-11.021
▁패션	-11.021
모습이	-11.0212
▁노래를	-11.0214
▁던지는	-11.0214
▁전투씬	-11.0215
▁안되서	-11.0215
▁쏴	-11.0217
->	-11.0218
▁지어	-11.0218
▁괜찮아	-11.0231
▁보이지만	-11.0231
▁촌	-11.0232
▁없었고	-11.0232
있냐	-11.0233
▁예뻐	-11.0233
▁난국	-11.0234
▁모르겟다	-11.0234
▁탄	-11.0235
▁조금씩	-11.0236
웃기고	-11.0237
하나로	-11.0237
▁좋아해요	-11.0241
▁한숨만	-11.0241
▁허무하게	-11.0244
▁뛰어나	-11.0245
이요	-11.0246
방울	-11.0248
..."""	-11.0249
▁기대되는	-11.025
▁재미있었고	-11.0251
...............	-11.0251
▁운동	-11.0251
많다	-11.0253
▁엄마랑	-11.0255
▁그지같	-11.0256
▁저희	-11.026
▁아프	-11.0267
▁죽인다	-11.0268
▁심각한	-11.027
▁영화판	-11.0272
▁감흥이	-11.0274
들이랑	-11.0275
하는건지	-11.0277
▁진정성	-11.0278
♡♡	-11.028
▁짜증나네	-11.028
▁제작사	-11.0282
▁그래픽이	-11.0282
데이	-11.0283
▁찬양	-11.0286
거보고	-11.0286
▁거야	-11.0286
▁죽을뻔	-11.0288
척하는	-11.0289
▁남았다	-11.0289
보고있어요	-11.0291
▁이성	-11.0293
지마세요	-11.0294
▁봤었다	-11.0296
▁전쟁을	-11.0297
주네	-11.0298
문제를	-11.0298
폐	-11.03
배는	-11.0302
너무너무	-11.0304
신분	-11.0306
▁애매	-11.0308
▁조지	-11.0308
영환	-11.0308
▁괜찮네	-11.0314
ll	-11.0317
이해가	-11.0318
▁재밌는영화	-11.032
al	-11.032
▁강력추천	-11.0322
겐	-11.0327
▁움직이는	-11.0331
▁만든것	-11.0333
▁어우	-11.0334
▁28	-11.0335
▁싫은	-11.0336
▁있는듯	-11.0336
▁미국이	-11.0337
▁고딩	-11.0337
▁찢어	-11.0338
순위	-11.0339
▁숲	-11.0344
▁개념	-11.0345
▁모여	-11.0346
바다	-11.0346
▁하는것	-11.035
▁잔잔하	-11.0351
▁비중	-11.0351
▁태어나	-11.0353
▁영상으로	-11.0353
급도	-11.0354
쩌	-11.0358
▁늘어	-11.036
▁위에	-11.0361
▁액션에	-11.0363
▁알게되	-11.0365
아이가	-11.0366
▁초딩이	-11.0366
▁위험	-11.0373
▁심심	-11.0376
▁막장으로	-11.0386
이러	-11.0387
시네	-11.0391
▁단편영화	-11.0392
▁그지	-11.0393
▁밋밋	-11.0398
이유가	-11.0399
생겨서	-11.0403
▁살았	-11.0404
▁안성기	-11.0405
▁집어	-11.0406
인지는	-11.0406
시네요	-11.041
죽이	-11.0412
▁끼워	-11.0414
▁난잡	-11.0418
▁미술	-11.0418
▁주제에	-11.0418
흉	-11.0421
뎁	-11.0422
느니	-11.0422
▁웹툰	-11.0422
▁펭귄	-11.0422
▁ebs	-11.0422
뚜	-11.0422
▁러셀	-11.0422
▁뚝뚝	-11.0422
▁리메이크작	-11.0422
▁퍼즐	-11.0422
해주고	-11.0422
▁고찰	-11.0423
▁놀라울	-11.0423
▁콜린	-11.0424
▁알았더니	-11.0424
▁가끔씩	-11.0424
▁언론	-11.0424
▁빠져드는	-11.0424
▁자세히	-11.0425
▁충격을	-11.0425
▁우익	-11.0426
▁지루했어요	-11.0428
▁지났지만	-11.043
▁물씬	-11.043
▁총알	-11.0431
▁나왔음	-11.0431
▁다니는	-11.0431
▁쫓	-11.0432
▁공감가는	-11.0432
▁주목	-11.0433
원주고	-11.0435
▁깔끔하고	-11.0435
▁엉성하다	-11.0436
▁나누	-11.0436
▁중반부	-11.0436
▁않았을까	-11.0438
트가	-11.0438
년을	-11.0439
지않게	-11.044
▁허술하고	-11.044
▁남자와	-11.044
거든요	-11.044
▁일깨워주는	-11.0441
▁서스펜스	-11.0442
▁정이	-11.0443
▁뭔가요	-11.0443
▁성우들	-11.0446
▁최고였어요	-11.0446
▁생각나네요	-11.0447
같애	-11.0451
▁무서워서	-11.0451
동물	-11.0452
요소를	-11.0452
▁웃게	-11.0453
▁존내	-11.0453
▁욕먹	-11.0454
▁기차	-11.0454
▁안봐	-11.0455
꼽	-11.0457
▁이범수	-11.0457
▁임수정	-11.0458
▁일요일	-11.0458
▁뻔해서	-11.0458
깍	-11.046
하듯	-11.046
▁약해	-11.046
▁조용히	-11.046
코메디	-11.0461
▁새끼들	-11.0461
아줌마	-11.0462
▁때문이다	-11.0462
보지마세요	-11.0464
▁화려하고	-11.0465
▁후한	-11.0466
하라는	-11.0466
예능	-11.0467
존재	-11.0468
그자체	-11.0469
▁후회함	-11.0469
▁특징	-11.0474
▁강지환	-11.0474
▁토니	-11.0474
겨울	-11.0475
▁훌륭하고	-11.0476
혔	-11.0476
▁심심한	-11.0477
▁서극	-11.0479
▁찾고	-11.0479
▁영화계의	-11.0479
▁연기까지	-11.048
▁메인	-11.048
줄알았	-11.048
들이나	-11.0481
▁환타지	-11.0482
▁많지만	-11.0483
▁잘생겼	-11.0484
▁성우가	-11.0485
▁많지	-11.0485
▁그들은	-11.0485
▁저거	-11.0485
▁위기	-11.0487
▁진부함	-11.0489
▁많았	-11.049
▁어울려	-11.0492
▁시선으로	-11.0492
할수도	-11.0492
▁말해주는	-11.0492
▁상영시간	-11.0492
하곤	-11.0496
▁됐는데	-11.0496
▁위험한	-11.0499
해야할	-11.0501
▁보나	-11.0501
▁혹	-11.0502
년의	-11.0502
▁못하	-11.0503
드립	-11.0505
▁뻔하	-11.0506
▁보진	-11.0507
▁뻔해	-11.0508
▁말하면	-11.0509
▁안다	-11.0509
▁먹었	-11.051
▁여튼	-11.051
▁지겨워	-11.051
▁중반까지	-11.0511
▁망쳤다	-11.0511
램	-11.0511
▁정치적	-11.0512
▁모야	-11.0512
▁구성은	-11.0514
▁증말	-11.0514
을수가	-11.0515
▁건강	-11.0518
▁내고	-11.0523
▁재미있었던	-11.0523
▁나왔는데	-11.0525
▁않았나	-11.0525
▁였다	-11.0526
▁가치를	-11.0529
드라마가	-11.053
▁무어	-11.0531
▁인물의	-11.0533
▁이완	-11.0536
▁것만으로도	-11.0536
끼들	-11.0537
▁ᄏᄏᄏᄏᄏᄏᄏᄏᄏᄏ	-11.0539
▁화나	-11.0539
▁채우	-11.0544
교육	-11.0546
실화	-11.0546
▁감동적으로	-11.0548
▁쓰렉	-11.0548
▁쯧쯧	-11.055
정도의	-11.0552
코드	-11.0553
곳에서	-11.0553
팬이	-11.0555
하지마세요	-11.0557
하라고	-11.0558
▁손가락	-11.0563
데로	-11.0565
▁감동도없고	-11.0567
▁나왔을	-11.0568
▁방법이	-11.0572
▁누워	-11.0573
▁마음의	-11.0573
스토	-11.0575
만든영화	-11.0576
만들고	-11.058
▁지루함의	-11.0581
▁으아	-11.0582
▁한수	-11.0587
▁실사	-11.0588
싶어서	-11.0592
▁나온다고	-11.0596
평론가	-11.0598
룡	-11.0599
성공	-11.0603
▁시간대	-11.0604
뭔지	-11.0606
물에	-11.0606
▁플레이	-11.0608
▁남아있	-11.0609
아빠가	-11.0612
▁않는데	-11.0615
▁누구도	-11.0623
차원	-11.0626
▁개인의	-11.0626
드립니다	-11.0627
▁말만	-11.0627
액션이	-11.0629
▁법정	-11.0636
▁그럴듯	-11.0636
님은	-11.0637
▁전설이	-11.0637
오고	-11.0637
나봐요	-11.0637
▁재미있다고	-11.0639
▁벌어	-11.0639
씨를	-11.0641
▁만들어준	-11.0641
영화였다	-11.0641
▁티가	-11.0644
▁열광	-11.0646
▁부른	-11.0647
▁잘함	-11.0647
일을	-11.0648
번도	-11.0648
▁슬픔이	-11.065
▁화려	-11.0651
▁낭만	-11.0654
▁편집이	-11.0655
▁봤다는	-11.0657
▁따분	-11.0658
한텐	-11.0661
▁상관	-11.0662
▁닮았	-11.0662
▁잇는	-11.0664
▁어울	-11.0665
▁불가능	-11.0666
▁생생	-11.0666
념	-11.0666
▁가라	-11.0668
하는것도	-11.0668
▁찰	-11.0668
▁경악	-11.0668
▁날려	-11.0669
했다가	-11.0676
▁받아서	-11.068
▁아오이	-11.068
▁똑같다	-11.0683
네이버	-11.0686
섯	-11.0687
면이	-11.0688
채널에서	-11.0691
▁기대에	-11.0691
▁있으니	-11.0693
▁만났	-11.0693
▁부럽	-11.0696
▁먼지	-11.0696
전을	-11.0698
▁저기	-11.0704
▁보고있는	-11.0705
▁나가는	-11.071
▁기대도	-11.0712
촌	-11.0712
멋진	-11.0714
▁보고있어요	-11.0715
릿	-11.0715
▁--	-11.0716
엿음	-11.0717
▁해주	-11.0718
▁생각하지	-11.0719
보길	-11.0719
▁보다보다	-11.0723
쩍	-11.0723
쿡	-11.0724
늬	-11.0724
▁벨	-11.0724
퓨	-11.0725
▁ocn	-11.0725
▁기쁨	-11.0725
▁내러티브	-11.0725
▁매트릭스	-11.0725
▁보냅니다	-11.0725
▁오리지널	-11.0725
▁컨저링	-11.0725
人	-11.0725
긔	-11.0725
벙	-11.0725
▁멘붕	-11.0725
▁귀찮	-11.0725
▁저절로	-11.0725
▁하이킥	-11.0725
다니는	-11.0725
▁록키	-11.0725
할수있는	-11.0725
▁어울린다	-11.0725
▁재발견	-11.0725
▁간첩	-11.0726
▁증거	-11.0726
^.^	-11.0726
▁잃고	-11.0726
▁달고	-11.0726
▁조잡	-11.0726
▁있어보이	-11.0726
소장	-11.0726
야말로	-11.0727
▁대표작	-11.0727
▁낚이지	-11.0727
▁절실	-11.0727
▁역쉬	-11.0728
▁기대됩니다	-11.0729
▁어쩌라고	-11.073
▁영화평	-11.0731
▁만들어주세요	-11.0733
엇어요	-11.0733
▁원표	-11.0734
▁잔인하기만	-11.0734
▁묘미	-11.0735
▁기억도	-11.0735
▁맡	-11.0736
▁주인	-11.0736
▁하이	-11.0736
▁비교가	-11.0737
▁영화관에	-11.0737
▁말이필요없는	-11.0738
▁언급	-11.0738
▁수애	-11.0739
▁실소	-11.0739
▁지났	-11.074
▁고발	-11.074
▁튀	-11.0741
▁해도해도	-11.0741
영화관에서	-11.0741
▁그만좀	-11.0741
▁요약	-11.0742
▁차이가	-11.0742
▁새롭게	-11.0743
▁연장	-11.0743
▁잘했다	-11.0745
▁내보내	-11.0747
▁정신을	-11.0748
▁담아내	-11.0748
걸까요	-11.0748
겠는데	-11.0749
▁저급	-11.0749
▁헐크	-11.0749
▁이나영	-11.0751
▁어색하다	-11.0751
▁필수	-11.0752
▁장애	-11.0753
▁잠수함	-11.0754
칭	-11.0755
▁별로였음	-11.0755
흘리	-11.0756
▁별점을	-11.0757
시리즈중	-11.0757
▁구리다	-11.0757
▁우려먹	-11.0757
▁헛웃음만	-11.0758
이었지만	-11.076
▁있는것	-11.0761
▁쏙	-11.0762
▁수작이	-11.0763
▁되돌아	-11.0765
ᅩ	-11.0765
들보다	-11.0765
▁별한개도	-11.0766
▁감독님의	-11.0766
낭비	-11.0767
첫	-11.0769
한건가	-11.077
▁다크나이트	-11.077
거예요	-11.0771
▁사망	-11.0771
테러	-11.0772
삐	-11.0773
전달	-11.0774
▁죽었다	-11.0775
OST	-11.0775
됬다	-11.0776
더스	-11.0777
되지않	-11.0777
마치	-11.0777
▁없는듯	-11.0778
▁위대함	-11.0779
▁레이첼	-11.0779
▁ᄅᄋ	-11.0779
▁미국에서	-11.078
▁말이다	-11.078
▁인물이	-11.078
▁ᄏᄏᄏᄏᄏᄏᄏᄏᄏᄏᄏᄏᄏᄏ	-11.0783
는건가	-11.0783
▁상업	-11.0783
왔던	-11.0783
음악이	-11.0784
건만	-11.0785
신의	-11.0785
로봇	-11.0786
▁http	-11.0787
▁달콤한	-11.079
않았다	-11.0792
▁뻔히	-11.0792
▁드라마도	-11.0793
▁조기종영	-11.0794
수밖에	-11.0795
그것도	-11.0797
있었던	-11.0797
갈때	-11.0799
말아먹	-11.08
먹어	-11.0802
▁몫	-11.0804
▁녹	-11.0805
없었	-11.0805
▁모르겠는데	-11.0807
▁웃겼음	-11.0808
▁불만	-11.0809
▁더빙판	-11.0809
▁무언가를	-11.0812
맘에	-11.0814
▁가자	-11.0815
어야지	-11.0817
▁옛다	-11.082
▁런닝타임	-11.0822
▁재료	-11.0824
지금까지	-11.0824
▁기회가	-11.0825
▁거냐	-11.0828
우는	-11.0829
▁출연하는	-11.083
▁신선하다	-11.0834
살에	-11.0835
불가	-11.0837
▁허접함	-11.0839
▁밀라	-11.084
지않는다	-11.084
어쩌	-11.0841
일에	-11.0841
▁배울	-11.0843
▁상상을	-11.0843
▁달달한	-11.0843
▁깜	-11.0843
▁퇴	-11.0844
▁화면이	-11.0845
▁어른들이	-11.0846
ol	-11.0847
▁픽션	-11.0849
▁안되는데	-11.085
▁뛰어넘	-11.0851
▁않았고	-11.0853
신선	-11.0858
▁걸린	-11.086
▁지리	-11.086
이구만	-11.0861
보고싶은	-11.0863
▁보소	-11.0864
▁당하는	-11.0867
나왔다	-11.0874
▁의식	-11.0875
돋네	-11.0876
▁비현실적인	-11.0877
구조	-11.0885
▁보시	-11.0888
▁쩌네	-11.0888
▁전작에	-11.0889
▁봐야겠다	-11.089
▁잼씀	-11.0895
황당	-11.0897
씬에서	-11.0904
스러웠다	-11.0904
▁영화감독	-11.0905
미는	-11.0905
▁지금까지도	-11.0906
...1	-11.0906
ᄏᄏᄏᄏᄏᄏᄏᄏᄏᄏᄏᄏᄏ	-11.091
▁도망가	-11.091
▁사이에서	-11.0911
▁찍었	-11.0913
▁놈이	-11.0914
▁소름돋는	-11.0914
윽	-11.0915
▁덕에	-11.0916
▁본것	-11.0918
▁모습과	-11.0927
▁반갑	-11.0927
치를	-11.093
▁보느니	-11.0931
▁남긴다	-11.0933
쩔어	-11.0933
▁복수를	-11.0933
▁꿈꾸	-11.0937
▁꿈에	-11.0937
▁작품성이	-11.0938
찍은	-11.0938
▁열정이	-11.0938
▁애니가	-11.094
▁생각해서	-11.0941
▁구경	-11.0941
▁구려	-11.0942
나쁜	-11.0943
▁욕하는	-11.0945
es	-11.0945
▁감정이입이	-11.0945
▁여전	-11.0949
재밋어요	-11.095
늙	-11.095
▁아이와	-11.0954
낚	-11.0957
▁것인지	-11.0962
▁마음속	-11.0963
▁압도	-11.0969
~~!	-11.097
▁뭔데	-11.097
재미있는	-11.0977
했어도	-11.098
▁안좋아	-11.0981
▁꿈이	-11.0982
봤다가	-11.0983
스러울	-11.0984
▁얘기가	-11.0987
▁자세	-11.0987
보고싶어요	-11.0988
▁해적	-11.099
▁죽을때	-11.099
▁아닌가요	-11.0993
▁악평	-11.0993
니가	-11.0995
해준다	-11.0998
▁안에서	-11.0998
▁노는	-11.0999
▁잔잔	-11.0999
빼	-11.1001
▁헛웃음	-11.1004
▁겉멋	-11.1009
▁되었	-11.101
초딩	-11.1011
아마	-11.1012
▁웃기네	-11.1012
▁때의	-11.1016
▁마마	-11.1017
▁피곤	-11.1018
하기까지	-11.1019
보나	-11.102
별로다	-11.1022
안가	-11.1025
▁오글거려	-11.1025
기준	-11.1026
▁검사	-11.1026
납	-11.1028
▁있는거	-11.1029
▁할지	-11.1029
R	-11.103
▁편의	-11.1032
밉	-11.1034
이하	-11.1034
뮤	-11.1035
부르	-11.1037
▁박신양	-11.1037
▁계획	-11.1037
▁에일리언	-11.1037
▁이스트우드	-11.1037
▁채플린	-11.1037
▁혹성탈출	-11.1037
댕	-11.1037
▁나타내	-11.1037
▁두근두근	-11.1038
▁관람불가	-11.1038
인간의	-11.1038
▁경쾌	-11.1038
▁맞춘	-11.1038
▁그들만의	-11.1039
▁당최	-11.1039
▁재평가	-11.1039
▁기분좋게	-11.1039
▁고향	-11.104
▁.....	-11.1041
급이	-11.1042
▁무얼	-11.1042
▁묘하게	-11.1042
▁99	-11.1043
▁썼다	-11.1043
▁꼽을	-11.1043
부턴	-11.1044
▁허술하다	-11.1044
▁많았던	-11.1044
▁창조	-11.1044
▁중요하다	-11.1044
▁심심해서	-11.1045
볼수있	-11.1047
▁하여	-11.1048
▁곳에서	-11.1048
▁느낌이랄까	-11.105
▁일베	-11.105
▁지금껏	-11.105
▁볼만했음	-11.1051
▁불편하다	-11.1051
▁알수없는	-11.1051
▁이번엔	-11.1052
▁졸면서	-11.1052
▁낸	-11.1052
▁속아서	-11.1053
삘	-11.1053
▁신나게	-11.1054
▁멋있어요	-11.1054
▁낮음	-11.1055
▁느리고	-11.1055
▁달달	-11.1055
▁마초	-11.1058
▁슬래셔	-11.1059
▁인터스텔라	-11.1059
▁주체	-11.1059
▁말아라	-11.106
벗	-11.106
▁몇개	-11.1063
▁몽환적인	-11.1063
▁저급한	-11.1064
▁일생	-11.1064
▁아쉽네	-11.1065
▁안타깝고	-11.1065
▁총질	-11.1066
▁KBS	-11.1067
▁만드네요	-11.1068
▁미이라	-11.1068
모를	-11.1068
타령	-11.1069
▁적절히	-11.107
▁안든다	-11.107
반전이	-11.1072
▁청춘의	-11.1073
▁거울	-11.1074
▁뻔하지만	-11.1075
▁작위적인	-11.1075
▁묻어나는	-11.1075
▁도와	-11.1075
▁오타쿠	-11.1076
▁불면증	-11.1076
연애	-11.1076
▁국어책	-11.1077
▁2010	-11.1077
▁만들겠다	-11.1078
▁씁쓸한	-11.108
▁생각하며	-11.1081
찍고	-11.1081
▁했을	-11.1082
무서운	-11.1083
▁홍금보	-11.1084
▁케이지	-11.1085
▁미치도록	-11.1085
▁화려함	-11.1086
▁많네요	-11.1087
▁잘만들어진	-11.1087
▁유아인	-11.1088
역으로	-11.1088
룰	-11.109
▁모든것을	-11.109
뚝	-11.1092
▁좋아지는	-11.1092
▁재미가없다	-11.1093
▁지내	-11.1094
▁떨어진	-11.1095
봤더니	-11.1096
▁있었다니	-11.1097
▁봐줄	-11.1097
▁분이	-11.1098
▁아니죠	-11.1098
괜히	-11.1098
바닥	-11.11
▁혜	-11.11
▁아까웠던	-11.11
▁애인	-11.11
철학	-11.1101
▁잃었다	-11.1101
▁영화라면	-11.1102
▁패턴	-11.1102
▁인간들이	-11.1103
여성	-11.1103
▁빨간	-11.1104
▁가을	-11.1105
▁환장	-11.1108
거여	-11.1108
▁잔혹한	-11.1109
마음에	-11.111
▁엉엉	-11.111
▁공포영화는	-11.1112
▁단점	-11.1113
울리	-11.1115
▁스릴러를	-11.1116
▁검은	-11.1117
재미없는	-11.1118
▁섭외	-11.1119
다르	-11.112
다는걸	-11.1123
▁충실한	-11.1123
재미가	-11.1124
▁재밌지도	-11.1124
▁장나라	-11.1125
▁존중	-11.1125
앗다	-11.1126
▁ᄏᄏᄏᄏᄏᄏᄏᄏᄏᄏᄏᄏᄏ	-11.1127
▁스피드	-11.1127
그림	-11.1128
▁배우만	-11.113
▁어찌나	-11.1131
▁아니겠지	-11.1132
▁종영	-11.1134
▁닮은	-11.1136
보이고	-11.1136
세여	-11.1137
▁뭔가가	-11.1137
▁상영관이	-11.1138
키스	-11.1138
▁남편이	-11.1144
▁느꼈	-11.1144
하더군요	-11.1145
▁얻	-11.1146
▁거부감이	-11.1147
대한	-11.1147
아이돌	-11.1148
들한테	-11.1148
▁엘리	-11.1149
▁오오	-11.1153
▁하고싶은	-11.1155
선생님	-11.1161
▁뛰	-11.1162
▁추천해	-11.1162
▁사나이	-11.1164
햇던	-11.1166
▁찌질한	-11.1167
▁마녀	-11.1168
▁공식	-11.117
▁구멍	-11.1171
미래를	-11.1173
▁애정	-11.1174
되면서	-11.1175
▁나을	-11.1176
▁아프고	-11.1176
안되는	-11.1179
▁no	-11.1185
▁좋아하시는	-11.1186
높아	-11.1187
▁한건지	-11.1189
▁만드나	-11.1189
▁넘기	-11.119
▁지나서	-11.119
▁현실성이	-11.119
ᄍᄍᄍ	-11.1191
시킨다	-11.1194
▁리뷰를	-11.1195
▁여자친구	-11.1198
▁내용으로	-11.1199
▁수준은	-11.12
▁할배	-11.1203
▁탐	-11.1203
사고	-11.1204
재미없고	-11.1207
애기	-11.1211
▁남친	-11.1213
만들었	-11.1214
▁대사들이	-11.122
▁출연자	-11.1222
▁졸려	-11.1225
▁현실이다	-11.1225
▁계기	-11.1226
▁죽이네	-11.1227
괴물	-11.1228
▁치는	-11.1228
▁이해하고	-11.123
보여주	-11.1232
▁처음임	-11.1232
▁자본	-11.1234
있다는	-11.1244
▁세상은	-11.1244
▁보러가	-11.1246
좀비	-11.1247
▁있는가	-11.1248
▁노예	-11.1248
싶네요	-11.1249
▁당한	-11.1253
할정도	-11.1256
▁하던	-11.1256
▁싸우	-11.1257
해줄	-11.1263
선수	-11.1264
▁영화랑	-11.1265
▁될수	-11.1266
▁있겠다	-11.1267
▁개봉하는	-11.127
▁성장영화	-11.1271
▁묵	-11.1272
티가	-11.1272
하겠지	-11.1274
▁미쳤다	-11.1275
▁봤었	-11.1278
찍어	-11.1278
▁더럽	-11.1278
▁흡입력	-11.1279
▁보는듯	-11.1281
▁주원	-11.1283
속으로	-11.1285
▁반전의	-11.1285
좋아할만한	-11.1285
게요	-11.129
▁비중이	-11.129
▁얘	-11.1294
▁누님	-11.1294
넘들	-11.13
만세	-11.1302
▁낚이	-11.1304
객관적으로	-11.1305
▁시나리오에	-11.131
믄	-11.131
▁못된다	-11.1314
▁시작한	-11.1317
▁도통	-11.1317
▁사회에	-11.1317
▁다른사람	-11.1322
▁저주	-11.1323
▁바뀌는	-11.1324
▁me	-11.1328
깝	-11.1329
▁뗄	-11.1329
▁생각했다	-11.133
보다보면	-11.1331
▁환	-11.1333
관계를	-11.1334
▁느껴지	-11.1334
▁수사	-11.1336
▁봣다	-11.1337
영화자체는	-11.1337
▁먹을	-11.1339
쇄	-11.1342
모습을	-11.1344
▁극장판은	-11.1347
ri	-11.135
랏	-11.1353
▁개잼	-11.1354
▁모독	-11.1354
▁한사람	-11.1356
밖엔	-11.1357
▁있었나	-11.1357
챙	-11.1357
▁첨이네	-11.1357
쟈	-11.1358
콤	-11.1359
읍	-11.1359
▁스콧	-11.1359
얄	-11.136
쯔	-11.136
▁가볍고	-11.136
▁맙시다	-11.136
▁역사왜곡	-11.136
▁콘서트	-11.136
▁클린트	-11.136
쌀	-11.136
웰	-11.136
▁어설픔	-11.136
▁탕웨이	-11.136
▁나발이고	-11.136
▁오그라든다	-11.136
▁사다코	-11.136
됐음	-11.136
▁담아낸	-11.136
▁결합	-11.1361
▁둘째	-11.1361
▁덮	-11.1361
▁용가리	-11.1361
왓	-11.1362
▁과잉	-11.1362
것이지	-11.1362
▁이름값	-11.1362
▁웬만한	-11.1363
헌터	-11.1363
묵직한	-11.1363
▁감동적이었습니다	-11.1363
▁위하여	-11.1364
▁응원합니다	-11.1364
▁따뜻하게	-11.1365
▁봤었던	-11.1365
▁차원이	-11.1365
▁치열	-11.1365
▁멋있었다	-11.1366
▁깔끔하게	-11.1366
▁스릴있고	-11.1367
▁2001	-11.1367
괜찬	-11.1372
▁느꼈던	-11.1372
▁개나	-11.1373
▁이건좀	-11.1374
▁이승기	-11.1375
▁결론이	-11.1375
▁울었네요	-11.1376
▁잊을수가	-11.1376
▁집어넣	-11.1377
▁재미없습니다	-11.1378
▁콜	-11.1378
▁슬퍼서	-11.1379
▁전율	-11.1379
음악도	-11.138
▁현실의	-11.1382
▁옆	-11.1384
▁남주가	-11.1384
▁프리	-11.1384
▁못생긴	-11.1385
▁실망스럽다	-11.139
▁싶은건지	-11.139
▁홍진호	-11.1391
▁무게감	-11.1392
▁화끈	-11.1392
라이트	-11.1393
▁제작된	-11.1394
▁재회	-11.1397
▁선전	-11.1397
좋게	-11.1398
▁엑소시스트	-11.14
취향	-11.14
▁전세계	-11.14
▁하시	-11.14
같네요	-11.1402
▁외화	-11.1403
▁좀비물	-11.1405
▁시점	-11.1405
ᄁ	-11.1406
사기	-11.1406
합니까	-11.1406
▁저것도	-11.1408
▁오락성	-11.1408
▁만나서	-11.1409
▁머지	-11.1411
▁지루하지않고	-11.1412
▁서우	-11.1412
본사람	-11.1413
▁ᄏᄏᄏᄏᄏᄏᄏᄏᄏᄏᄏᄏᄏᄏᄏ	-11.1414
무서워	-11.1416
▁풀었	-11.1416
햇지만	-11.1419
인영화	-11.1422
닉	-11.1422
핑	-11.1423
붕	-11.1424
▁줄리아	-11.1424
액	-11.1425
핵	-11.1426
바탕	-11.1426
만원	-11.1426
▁마케팅	-11.1426
▁런닝맨	-11.1426
▁저녁	-11.1427
▁울게	-11.143
마무리	-11.1432
▁계기가	-11.1433
섹스	-11.1433
교훈	-11.1433
▁장근석	-11.1435
▁스텝업	-11.1436
하나도	-11.1436
외로	-11.1439
중요한	-11.1441
좋았음	-11.1441
망작	-11.1443
나오면	-11.1444
▁괜찮을	-11.1444
▁고질라	-11.1444
▁기대감	-11.1447
보여주는	-11.1447
▁낳은	-11.1449
▁시간아까움	-11.1451
▁부탁	-11.1451
이쁘	-11.1453
▁보여줬다	-11.1454
현재	-11.1455
▁미소를	-11.1456
▁여정	-11.1457
▁불쾌	-11.1459
▁씨발	-11.146
어진다	-11.1461
좋아서	-11.1461
해줬으면	-11.1462
이군	-11.1464
▁만화는	-11.1464
▁잔인하	-11.1465
▁나이에	-11.1465
▁님들	-11.1468
▁극한	-11.1469
꺼라	-11.1469
▁이건진짜	-11.1469
▁자아	-11.1469
▁팬이라면	-11.1469
▁일드	-11.1471
▁나오게	-11.1473
▁작품인데	-11.1473
▁총을	-11.1474
▁사랑도	-11.1476
▁장편	-11.1477
▁실망한	-11.1479
▁듣	-11.1479
▁썩은	-11.1479
ma	-11.1479
▁영화같은	-11.1481
▁첫장면	-11.1482
잔잔한	-11.1485
▁같기도	-11.1485
▁속편이	-11.1486
마라	-11.1487
▁아깝다는	-11.1489
▁억지스럽	-11.1492
▁기어	-11.1494
좋은데	-11.1496
정돈	-11.1497
▁상황에	-11.1498
▁만점을	-11.15
▁수준급	-11.1501
▁살기	-11.1501
▁개발	-11.1504
▁마을	-11.1506
▁박평식	-11.1507
▁어느것	-11.151
▁분위기와	-11.1511
▁물어	-11.1511
등등	-11.1512
떨어지는	-11.1514
▁난해하다	-11.1515
▁이영화에서	-11.1515
▁너무한다	-11.1517
▁별반개도	-11.1517
▁못보겠	-11.1517
▁걸어	-11.1519
지않나	-11.1519
해놓고	-11.1519
앞으로도	-11.152
좋아해서	-11.1522
▁밑에분	-11.1523
는데도	-11.1526
▁전개되는	-11.1527
▁잘하네	-11.1532
영화에서	-11.154
▁징	-11.1541
▁고로	-11.1542
점정도가	-11.1549
맞추	-11.1551
낫다	-11.1551
▁지적	-11.1552
▁분노가	-11.1555
▁윤아	-11.1557
▁작품성은	-11.1559
못할	-11.1562
자로	-11.1563
▁있다는게	-11.1567
야만	-11.1567
▁두분	-11.1572
▁깍	-11.1573
▁지루하지만	-11.1573
▁말하지	-11.1575
▁좋앗	-11.1575
▁중후반	-11.1577
▁서로를	-11.1581
▁나오는지	-11.1583
특별	-11.1585
기보단	-11.1588
▁상식	-11.1588
볼만한	-11.1589
▁넘은	-11.1591
▁집안	-11.1591
▁훈훈	-11.1593
▁쓰러	-11.1594
▁증명	-11.1594
▁싶네	-11.1598
남편	-11.1599
▁사랑이란	-11.1601
▁활	-11.1602
▁진보	-11.1603
▁해야하나	-11.1604
몇번이고	-11.1608
▁없을까	-11.1614
▁멍청	-11.1615
최고의영화	-11.1618
70	-11.1619
▁가능성	-11.162
▁태도	-11.162
최악의영화	-11.1621
▁앉아	-11.1622
▁천만	-11.1625
▁상황에서	-11.1625
▁제작한	-11.1626
▁다문화	-11.1627
▁반응	-11.1628
▁어울리	-11.1631
▁차지	-11.1631
▁드라마보다	-11.1633
개를	-11.1635
▁평론	-11.1636
때가	-11.1637
▁높은거	-11.1638
▁온다	-11.1641
미안	-11.1641
▁해놓고	-11.1642
선생	-11.1644
미치	-11.1648
▁자라	-11.1648
▁외계인이	-11.165
점입니다	-11.1651
▁방황	-11.1651
▁아닌거	-11.1658
▁표현하는	-11.1658
네용	-11.1661
▁실화라니	-11.1663
기분이	-11.1666
▁질리	-11.1667
금을	-11.1668
쇠	-11.1668
친구들	-11.1669
▁말았	-11.1671
▁맛에	-11.1673
▁가리	-11.1673
▁피터	-11.1674
▁활용	-11.1674
엇음	-11.1676
법한	-11.1677
▁그런건	-11.1677
헝	-11.1679
▁돈도	-11.1683
넘게	-11.1683
릉	-11.1683
▁선사	-11.1684
▁솔까	-11.1685
잔아	-11.1686
이번	-11.1688
구리	-11.1688
깃	-11.1691
Y	-11.1692
첩	-11.1692
깁	-11.1693
▁소름끼친다	-11.1693
▁신현준	-11.1693
▁휴머니즘	-11.1693
렐	-11.1693
▁뭡니까	-11.1693
▁충무로	-11.1693
▁정재영	-11.1693
▁침묵	-11.1693
▁몬스터	-11.1693
▁전문성우	-11.1694
▁황홀	-11.1694
▁불필요한	-11.1694
▁레이싱	-11.1694
▁어려울	-11.1694
▁자칫	-11.1694
▁에로틱	-11.1694
▁촌스러운	-11.1694
▁0.5	-11.1694
▁꺼버렸다	-11.1694
해줌	-11.1695
주기도	-11.1695
▁오싹	-11.1695
▁하는건	-11.1696
▁느꼈습니다	-11.1696
▁뭔내용인지	-11.1697
▁신파극	-11.1697
▁어떨까	-11.1699
▁잘보고	-11.1699
▁정도껏	-11.1699
▁아름다웠던	-11.1699
유쾌	-11.17
▁처참	-11.1702
▁와이어	-11.1704
▁유아용	-11.1704
▁다를게	-11.1704
▁솔직	-11.1705
▁한계가	-11.1706
▁생각나네	-11.1706
▁호평	-11.1706
▁내겐	-11.1707
▁허무하다	-11.1709
▁졸려서	-11.1709
▁보석	-11.1709
▁나았다	-11.171
▁보는줄	-11.1712
▁사람으로	-11.1714
▁리암니슨	-11.1716
간지	-11.1719
▁볼만하네요	-11.172
▁거대한	-11.1722
쉽	-11.1723
▁+1	-11.1723
ery	-11.1724
▁제작진들	-11.1728
▁교감	-11.1728
대작	-11.1729
▁깔끔	-11.173
▁부여	-11.1731
▁지대로	-11.1732
연기자	-11.1733
▁이념	-11.1734
▁강혜정	-11.1734
▁유치하지만	-11.1735
▁여자들의	-11.1737
▁음모	-11.1737
▁씨네	-11.1738
▁힘든데	-11.1739
▁말에	-11.174
▁어수선하	-11.1741
이딴	-11.1741
▁공감되는	-11.1742
▁웃겨요	-11.1742
▁강호동	-11.1744
▁심사위원	-11.1744
▁양조위	-11.1744
▁졸았다	-11.1744
아까워	-11.1744
떡	-11.1747
▁욕구	-11.175
▁스릴러가	-11.175
▁!!!!	-11.1752
▁다섯	-11.1753
▁개인적으론	-11.1753
▁촬영기법	-11.1754
▁순위	-11.1755
▁못잡	-11.1756
▁음악에	-11.176
▁감당	-11.176
▁코스프레	-11.1762
▁예술적	-11.1763
▁실망했다	-11.1763
▁억지스럽다	-11.1766
▁재밌게봤음	-11.1766
티비에서	-11.1768
▁아니었음	-11.1768
▁진행이	-11.1769
땜시	-11.177
H	-11.1771
▁이순신	-11.1771
뽑	-11.1772
▁남주인공	-11.1772
죽고	-11.1773
낳	-11.1774
깎	-11.1774
지경	-11.1775
▁별다른	-11.1776
터짐	-11.1776
훨씬	-11.1777
▁일본식	-11.178
때까지	-11.178
항상	-11.1781
▁시간때우기	-11.1786
▁맞게	-11.1788
▁재미있던데	-11.1789
자들은	-11.1789
▁기분만	-11.1789
▁꼬맹이	-11.179
영환데	-11.179
▁하는건지	-11.1794
▁성룡영화	-11.1797
▁했어야	-11.1797
▁소문	-11.1798
어디서	-11.1798
▁병원	-11.1799
▁마구	-11.18
▁자극하는	-11.1801
앞에	-11.1803
▁평소에	-11.1803
▁내스타일	-11.1805
ᅳᅮ	-11.1805
▁오늘도	-11.1806
▁주제로	-11.1813
하고픈	-11.1814
과정을	-11.1815
▁500	-11.1815
계를	-11.1816
▁일어날	-11.1817
재밌는데	-11.1817
등장	-11.1819
▁끝날때까지	-11.182
▁사람들도	-11.1821
60	-11.1822
▁왕자	-11.1822
▁모냐	-11.1823
▁영화인거	-11.1823
▁민망한	-11.1824
베르	-11.1826
▁둘의	-11.1827
▁날라	-11.1828
만하고	-11.1829
재밌네요	-11.183
먹었	-11.1831
▁믿을수	-11.1833
▁되기	-11.1833
▁겁니다	-11.1835
범인	-11.1836
없지만	-11.1836
▁이따구	-11.1838
▁안하는데	-11.1842
▁장르는	-11.1844
안좋	-11.1846
해버린	-11.185
▁느끼지	-11.185
▁인간들은	-11.1851
▁때리	-11.1851
▁떠난	-11.1852
당하고	-11.1853
▁앞부분	-11.1853
못한다	-11.1853
▁냄새	-11.1855
미스	-11.1858
아니야	-11.1858
▁보고서	-11.1859
답지	-11.1859
스크	-11.1859
▁이어지	-11.186
▁코믹물	-11.186
▁팔아먹	-11.1863
▁다같이	-11.1864
▁말한다	-11.1864
▁사기꾼	-11.1866
▁미국영화	-11.1866
점드립니다	-11.187
▁식으로	-11.1871
공주	-11.1874
쓴다	-11.1875
▁안난다	-11.1879
깐	-11.188
▁환불	-11.1883
▁떠오르	-11.1884
▁원인	-11.1887
버려서	-11.1887
데다가	-11.1892
▁행위	-11.1893
▁해요	-11.19
▁포스터는	-11.1902
ᄏᄏᄏᄏᄏᄏᄏᄏᄏᄏᄏ	-11.1902
▁마시	-11.1907
수준의	-11.1908
▁호흡	-11.1909
▁롤	-11.1909
▁우리네	-11.191
▁꼽	-11.1912
▁영화들이	-11.1912
점드림	-11.1914
▁반개	-11.1915
▁막히	-11.1917
아닌듯	-11.1918
▁배우로	-11.1918
ut	-11.1921
시죠	-11.1923
▁좋아하게	-11.1923
▁봤어	-11.1925
▁먹어	-11.1928
▁도움	-11.1929
▁못보고	-11.1931
▁벗어	-11.1937
▁서부영화	-11.1938
급으로	-11.1938
▁선수	-11.1938
출신	-11.194
▁건질	-11.1941
▁하려고	-11.1942
▁덕	-11.1943
이영화를	-11.1944
▁진화	-11.1945
▁so	-11.1946
▁산다	-11.1946
▁줬다	-11.1946
드네요	-11.195
놨다	-11.195
▁꺼져	-11.1951
▁미인	-11.1951
▁댄스	-11.1953
▁예수님	-11.1954
부부	-11.1954
▁]	-11.1955
시티	-11.1959
▁넘겨	-11.1961
▁베리	-11.1962
!!!!!!!!!	-11.1965
국가	-11.1966
▁오로라	-11.1966
▁우리집	-11.1968
기만하고	-11.1969
겠군	-11.197
대상	-11.197
▁끝나지	-11.1972
▁잘해서	-11.1975
개의	-11.1976
▁감안	-11.1977
▁깨달음	-11.1977
험	-11.1978
▁때도	-11.1979
▁어색하지	-11.1981
▁될것	-11.1982
▁좋구	-11.1984
▁아까웠	-11.1986
하군요	-11.1988
▁아이의	-11.1989
었죠	-11.1991
▁날로	-11.1991
▁살인을	-11.1992
시장	-11.1993
▁끝났다	-11.1996
것다	-11.1998
▁황금	-11.2001
▁길고	-11.2001
▁보자고	-11.2004
광수	-11.2005
므	-11.2006
잊혀지	-11.2008
장면도	-11.2011
가자	-11.2012
▁일반인	-11.2013
▁적절	-11.2014
써서	-11.2015
▁여주의	-11.202
크로	-11.2021
랍	-11.2021
제국	-11.2021
~10	-11.2024
▁교훈이	-11.2025
즌	-11.2026
어가는	-11.2027
관이	-11.2031
걷	-11.2031
보다니	-11.2033
찮	-11.2033
뜯	-11.2035
랍니다	-11.2035
▁일어나는	-11.2037
숭	-11.2037
넷	-11.2038
▁봤으니	-11.2038
▁스탤론	-11.2038
▁인상깊은	-11.2038
닦	-11.2038
뒀	-11.2038
▁알맹이	-11.2038
▁무슨내용인지	-11.2038
-0-	-11.2038
▁못미치는	-11.2038
▁kbs	-11.2038
▁흔히	-11.2038
▁박해일	-11.2038
▁콤비	-11.2038
▁본성	-11.2038
▁에이리언	-11.2038
▁슈렉	-11.2038
▁루이스	-11.2038
▁빵터짐	-11.2038
▁로드무비	-11.2038
▁리즈시절	-11.2038
▁옹박	-11.2039
▁얼른	-11.2039
▁놓친	-11.2039
▁실컷	-11.2039
▁악몽	-11.204
▁발휘	-11.204
▁습작	-11.204
▁적나라하	-11.204
▁가득찬	-11.204
▁한정된	-11.204
▁첨본다	-11.2042
▁억지스러움	-11.2043
▁나중엔	-11.2043
▁뇌리에	-11.2043
페이스	-11.2044
▁고백	-11.2044
▁생생하게	-11.2045
▁미안하지만	-11.2045
▁치밀한	-11.2047
▁몰입하면서	-11.2047
▁파악	-11.2048
미니	-11.2048
▁소유	-11.2049
▁다세포	-11.205
▁없었습니다	-11.205
▁울었음	-11.2051
시지	-11.2051
▁표본	-11.2052
▁예뻐요	-11.2052
▁발생	-11.2052
▁시원하게	-11.2053
▁사랑스런	-11.2054
▁그리운	-11.2055
▁남지	-11.2055
▁깨알같은	-11.2055
▁지원	-11.2055
씨와	-11.2056
▁저평가된	-11.2057
▁메세지도	-11.2058
▁칸	-11.2058
▁볼거	-11.2058
▁이준기	-11.2059
었다고	-11.206
▁왠만해선	-11.2062
▁후덜덜	-11.2062
▁행동이	-11.2063
▁기준으로	-11.2063
▁없었지만	-11.2066
▁전환	-11.2067
▁이야기와	-11.2068
▁안들어	-11.2068
데스	-11.207
▁무료로	-11.2071
되길	-11.2071
▁하냐	-11.2071
▁의미는	-11.2072
▁찰리	-11.2072
▁잔인하게	-11.2073
유키	-11.2073
는영화	-11.2073
▁않으	-11.2075
▁새롭고	-11.2075
▁올레티비	-11.2075
중간	-11.2076
▁결과물	-11.2077
▁비난	-11.2079
▁빅뱅	-11.208
▁매년	-11.2081
▁김하늘	-11.2081
▁참신하고	-11.2081
▁서부극	-11.2082
▁찾았다	-11.2082
▁비유	-11.2082
햇음	-11.2083
▁조직	-11.2083
▁and	-11.2084
▁명배우들	-11.2086
▁끝내주는	-11.2087
▁넘쳐	-11.2087
▁뭐하냐	-11.2088
▁기대는	-11.2088
▁역할이	-11.2089
▁이동욱	-11.209
▁영화자체	-11.2091
▁이성재	-11.2093
졌으면	-11.2093
▁백미	-11.2093
▁남자들이	-11.2093
기때문에	-11.2094
▁공중파	-11.2094
▁어떻게든	-11.2095
것같습니다	-11.2095
▁관람가	-11.2096
▁식스센스	-11.21
▁엉망이고	-11.21
없으면	-11.2101
▁수작입니다	-11.2104
액션은	-11.2104
옆에서	-11.2104
▁감정들	-11.2105
▁잃지	-11.2105
ne	-11.2108
틀리	-11.2108
신은	-11.2108
▁잠든	-11.2109
인들의	-11.211
감사합니다	-11.211
▁잼있었다	-11.211
▁목숨을	-11.2111
▁냄새가	-11.2111
바보	-11.2111
▁못했	-11.2112
▁평정	-11.2112
▁공포영화를	-11.2113
▁스타일의	-11.2113
▁신나는	-11.2115
▁언제쯤	-11.2115
때문인지	-11.2115
▁틀어주	-11.2117
▁시청자를	-11.2118
▁알고보니	-11.212
▁드라마에요	-11.212
톱	-11.2125
뛰	-11.2126
고생	-11.2126
번에	-11.2127
쥬	-11.2127
▁영화자체가	-11.2129
묵	-11.2129
때문	-11.2129
특집	-11.2129
젖	-11.2131
약한	-11.2132
달리	-11.2132
저렇게	-11.2133
오히려	-11.2133
썩	-11.2133
▁너무좋아	-11.2133
개념	-11.2133
▁미션	-11.2134
흥행	-11.2134
예고편	-11.2135
실패	-11.2137
▁쉣	-11.2138
▁이런것	-11.2138
▁선율	-11.2141
▁마음은	-11.2142
▁새로	-11.2143
▁아아	-11.2144
▁불과	-11.2144
▁각각	-11.2145
▁야이	-11.2146
▁그랬다	-11.2147
▁안쓰는데	-11.2147
▁체험	-11.2148
페이지	-11.2149
▁얻을	-11.2152
이란걸	-11.2153
▁미리	-11.2154
▁가시	-11.2154
▁편이	-11.2155
남녀	-11.2156
설마	-11.2156
▁전기	-11.2156
▁니들은	-11.2156
이것도	-11.2159
짜증난다	-11.2162
▁재밌긴	-11.2162
▁건데	-11.2163
▁멋있어	-11.2168
▁CGV	-11.2168
버스	-11.2168
주는게	-11.2169
▁안녕	-11.217
▁뚫	-11.2171
작이라	-11.2171
▁앙	-11.2172
▁밀려	-11.2174
지금도	-11.2174
▁영화계	-11.2174
▁턱	-11.2176
▁만들기도	-11.2177
▁갱	-11.2177
맞음	-11.2179
이였	-11.218
▁크고	-11.2182
...-_-	-11.2184
뻔했다	-11.2184
▁나이트	-11.2185
▁영활	-11.2189
▁밝	-11.2189
영화이다	-11.2193
몰라도	-11.2193
▁영화로서	-11.2194
▁몇년이	-11.2196
▁슬프게	-11.2201
▁없는영화	-11.2201
봤었는데	-11.2203
어어	-11.2204
감은	-11.2206
뒤로	-11.2206
▁빠져들어	-11.2208
데서	-11.221
두번	-11.2211
▁님	-11.2212
▁거대	-11.2214
▁진부하	-11.2215
200	-11.2215
아는	-11.2215
에여	-11.222
▁잘봤다	-11.2223
자꾸	-11.2225
▁못만들	-11.2227
▁쳐도	-11.2228
▁없더라	-11.2229
러브	-11.2234
▁한국영화가	-11.2235
▁뛰어나다	-11.2239
▁서기	-11.224
▁놈들이	-11.2242
만족	-11.2245
▁♡	-11.2246
▁후회하지	-11.2247
빠르	-11.2247
브리	-11.225
미래	-11.225
좋아하는데	-11.2252
왔는데	-11.2252
하는걸	-11.2252
행동	-11.2252
▁만나고	-11.2253
▁이준	-11.2253
▁기분좋은	-11.2255
▁타이	-11.2257
▁베이	-11.2261
▁미화하는	-11.2262
▁중학생	-11.2262
본게	-11.2263
▁봤다니	-11.2264
▁뽀	-11.2265
▁너는	-11.2266
가네	-11.2269
갔는데	-11.2271
위를	-11.2275
▁과거의	-11.2276
한테는	-11.2277
인증	-11.228
▁죽기	-11.228
▁볼거리가	-11.2285
▁지우	-11.2286
▁촌스럽지	-11.2286
받아서	-11.2291
▁보신	-11.2296
삶은	-11.2297
므로	-11.2301
▁주려고	-11.2302
▁코믹한	-11.2303
▁코미디가	-11.2303
▁사라	-11.2305
▁보여서	-11.2307
▁몽	-11.2308
역할을	-11.2311
▁과장되	-11.2312
▁부각	-11.2312
▁진짜진짜	-11.2312
▁w	-11.2316
▁붕	-11.2318
id	-11.2319
▁순간이	-11.2321
▁왓	-11.2322
▁외에는	-11.2326
숨	-11.233
심을	-11.2334
▁없구	-11.2335
▁망치는	-11.2336
같았다	-11.2336
▁해피엔딩이	-11.2336
▁생각에	-11.2336
▁감동받	-11.2338
무라	-11.234
영화보면서	-11.2341
무지	-11.2343
▁미치는	-11.2346
▁잃었	-11.2348
▁욕나오는	-11.2352
▁말이지	-11.2353
▁일이다	-11.2357
▁몰입을	-11.2357
▁모성애	-11.2358
▁신비로	-11.2359
▁맞추기	-11.236
▁젊	-11.2361
▁연기의	-11.2365
▁다음에	-11.2366
▁알수가	-11.2367
럭	-11.2368
▁명작이라	-11.2368
둘이	-11.2373
!^^	-11.2376
▁잘생긴	-11.2376
났던	-11.2378
▁->	-11.2379
▁당하고	-11.2379
▁연관	-11.2379
ᄏᄏᄏᄏᄏᄏᄏᄏᄏᄏ	-11.238
▁아쉽긴	-11.2382
쩔	-11.2382
▁볼까	-11.2385
▁눈빛이	-11.2385
▁음악만	-11.2387
것인지	-11.2393
하잖아	-11.2394
썰	-11.2395
naver	-11.2395
▁문근영	-11.2395
▁원맨쇼	-11.2395
▁찝찝함	-11.2395
ᄑ	-11.2395
▁무의미한	-11.2395
▁추악한	-11.2395
▁크루즈	-11.2395
도그렇고	-11.2395
▁엠마	-11.2395
▁유오성	-11.2395
▁빨리감기	-11.2395
▁페이크다큐	-11.2395
▁조인성	-11.2396
집에	-11.2396
▁꺼버림	-11.2396
▁쌍욕	-11.2396
▁my	-11.2396
▁배경은	-11.2397
▁식의	-11.2397
▁2008	-11.2397
감동이	-11.2397
▁미흡	-11.2397
▁육체	-11.2397
▁끝내준다	-11.2398
▁껏다	-11.2398
뭐가	-11.2399
▁투표	-11.2399
그려	-11.24
▁지겨운	-11.24
▁적응	-11.24
▁교차	-11.24
▁다시보고싶은	-11.24
▁돋보임	-11.2401
할때마다	-11.2401
빠진	-11.2401
▁않았습니다	-11.2401
▁완소	-11.2402
▁인디	-11.2402
▁신앙	-11.2402
▁괴작	-11.2402
▁넓	-11.2403
▁떠올리게	-11.2403
시킴	-11.2403
▁남았	-11.2403
▁어느새	-11.2403
▁성의	-11.2405
▁히트	-11.2405
▁않았는데	-11.2406
▁단체로	-11.2407
▁미치겠다	-11.2407
▁무식	-11.2408
▁구매	-11.2408
▁인기가	-11.2408
만들기	-11.2409
소년	-11.2409
▁능가하는	-11.2409
▁일어난	-11.2411
▁매회	-11.2411
▁사막	-11.2413
될수	-11.2414
▁제법	-11.2414
▁나에게는	-11.2415
▁훌륭했다	-11.2415
se	-11.2416
▁난무	-11.2416
▁어째서	-11.2416
▁즐기는	-11.2416
▁소피	-11.2418
▁써야	-11.2419
▁웨슬리	-11.242
▁최곱니다	-11.242
▁크리스토퍼	-11.242
▁듣보잡	-11.242
▁보았지만	-11.242
▁암울한	-11.2421
▁가는줄	-11.2423
▁쓰레기라고	-11.2425
▁생각해도	-11.2425
▁분명하다	-11.2425
▁흔적이	-11.2426
▁안가고	-11.2426
▁원빈	-11.2427
▁캐릭터에	-11.2427
▁불편하고	-11.2428
▁대가리	-11.2429
▁한예슬	-11.243
▁창작	-11.2431
▁함정	-11.2434
▁구하기	-11.2434
▁괜찮던데	-11.2434
▁빈약	-11.2434
떨어지	-11.2434
사람도	-11.2435
인줄알았는데	-11.2438
▁탁	-11.2438
낮다	-11.2441
▁꼭봐라	-11.2441
▁풀어내	-11.2441
▁자제	-11.2441
▁일대기	-11.2441
주의자	-11.2442
▁질문	-11.2444
ᅲᅲᅲᅲᅲ	-11.2444
▁어지간	-11.2446
뿐더러	-11.2448
▁납니다	-11.2449
▁황비홍	-11.2449
▁관점에서	-11.245
하루	-11.245
▁미군	-11.245
▁느껴짐	-11.2451
▁개봉하지	-11.2451
▁봐야함	-11.2453
▁낫지	-11.2453
▁그가	-11.2453
▁되는거	-11.2454
▁세계를	-11.2455
부분을	-11.2455
▁망상	-11.2456
▁암이	-11.2457
음에도	-11.2457
▁화해	-11.2458
▁먹먹함	-11.246
▁악플	-11.2462
▁화가난다	-11.2462
▁확신	-11.2464
을위한	-11.2465
▁잘생김	-11.2465
▁존재가	-11.2467
모자	-11.2471
ᄐ	-11.2471
▁흥행에	-11.2473
▁호러물	-11.2474
▁뼈	-11.2479
하하하	-11.2479
▁한달	-11.248
▁i	-11.2481
▁죄송	-11.2483
▁연관성	-11.2483
끝에	-11.2484
▁비추천	-11.2485
▁멋있음	-11.2487
닐	-11.2488
열받	-11.2488
동이	-11.2489
▁대단함	-11.249
폴	-11.2491
▁책이	-11.2492
^_^	-11.2494
▁생각하는데	-11.2494
▁지는	-11.2496
▁하나만	-11.2497
농	-11.2499
그거	-11.25
▁이딴영화	-11.2501
▁졸업	-11.2501
▁얘들	-11.2503
청춘	-11.2504
극장판	-11.2512
없을	-11.2514
왠지	-11.2515
▁괴물이	-11.2516
▁한표	-11.2518
을위해	-11.2521
▁이걸보고	-11.2522
▁없었다면	-11.2523
!!!!!!!!!!!!!!	-11.2524
▁파이팅	-11.2529
전설	-11.253
해짐	-11.253
▁흘러도	-11.2531
말을	-11.2532
▁24	-11.2532
▁수준이다	-11.2534
▁처음입니다	-11.2534
▁주말에	-11.2536
▁많았다	-11.2538
▁그외	-11.2538
▁짠한	-11.2542
이었어	-11.2542
우울	-11.2544
이여서	-11.2548
하구요	-11.2549
▁액션으로	-11.2549
▁연기파	-11.2549
꼬마	-11.255
▁곱	-11.2551
ic	-11.2553
슬프다	-11.2554
▁약간은	-11.2554
주었다	-11.2555
▁쪼	-11.2555
무시	-11.2555
▁이라는	-11.2557
아깝네	-11.2558
▁여자와	-11.2566
▁할거	-11.2566
25	-11.2566
▁못하지만	-11.2568
지구	-11.2568
▁축	-11.2569
오르	-11.2572
▁찡한	-11.2573
▁교수	-11.2573
세상에	-11.2575
▁보임	-11.2575
할뻔	-11.2577
보며	-11.258
▁밀어	-11.2581
▁고통을	-11.2581
끌고	-11.2583
▁귀에	-11.2584
▁차별	-11.2585
더이상	-11.2585
▁정성	-11.2586
▁내평점	-11.2586
될까	-11.2586
미소	-11.2589
ter	-11.259
▁몸에	-11.2592
▁쏠쏠	-11.2592
▁23	-11.2592
▁티나	-11.2592
심한	-11.2592
거같	-11.2593
드리고	-11.2594
▁현장	-11.2595
▁각본과	-11.2597
줬음	-11.2598
▁있는게	-11.2602
▁유쾌함	-11.2604
해놓은	-11.2604
▁리즈	-11.2604
▁싸우고	-11.2606
▁동호	-11.2607
▁그것은	-11.2609
▁울음	-11.261
▁짧	-11.2612
배우들도	-11.2612
▁석	-11.2612
굿굿	-11.2614
것같아서	-11.2614
가족이	-11.2616
▁된다고	-11.2616
적이지	-11.2617
▁이야기도	-11.2618
본영화중에	-11.262
▁비하	-11.2627
큼	-11.2627
▁늙었	-11.2629
시켰	-11.2629
갖	-11.2631
모르는	-11.2633
▁임권택	-11.2634
▁애니로	-11.2638
보는거	-11.2643
뿐만	-11.2647
▁싸이	-11.2648
▁각본이	-11.2651
▁끝나기	-11.2651
알바들	-11.2651
▁음악영화	-11.2655
is	-11.2655
▁재치있	-11.2656
▁딱딱	-11.2658
모르겟	-11.2663
안되고	-11.2663
▁찍었다	-11.2665
▁중간중간에	-11.2665
▁이런드라마	-11.2666
▁시나리오는	-11.2667
▁터져	-11.2668
▁참을	-11.2669
▁기억하는	-11.267
▁학	-11.2671
▁받지	-11.2672
▁연출한	-11.2673
사라	-11.2673
볼수있는	-11.2679
▁쓰레기가	-11.268
아파	-11.2681
하시네요	-11.2684
▁숨이	-11.2684
로드	-11.2685
▁안봤는데	-11.2685
▁예매	-11.2686
▁줘서	-11.2692
▁섬세하	-11.2693
들이다	-11.2694
▁생명	-11.2696
줄알았다	-11.2697
▁난해하	-11.2698
▁최고라는	-11.27
▁전편에	-11.2701
▁담아	-11.2701
▁배우들만	-11.2702
신기	-11.2702
▁날이	-11.2706
▁나쁘진	-11.2706
▁칭	-11.2708
ly	-11.2711
력을	-11.2715
▁캐스팅에	-11.2716
죽은	-11.2716
시대를	-11.2717
▁안보는	-11.2717
▁있겠	-11.2719
▁고고	-11.2719
됐지만	-11.2721
사람을	-11.2722
영씨	-11.2727
▁성공한	-11.2727
▁너무좋아요	-11.2729
▁내취향	-11.2733
▁말할수	-11.2734
▁아니라는	-11.2735
▁못하게	-11.2739
▁인연	-11.274
▁지나가	-11.2741
▁말할것도	-11.2742
전개가	-11.2742
쌓	-11.2742
▁자신들	-11.2743
▁강요	-11.2746
▁홀	-11.2746
것들은	-11.2749
▁여기저기	-11.2753
▁짱이	-11.2753
▁담겨	-11.2753
▁다행이	-11.2758
앞	-11.2758
셧	-11.2758
▁닥터	-11.2765
▁페이크	-11.2765
못했다	-11.2765
웟	-11.2765
놈들아	-11.2765
▁브래드	-11.2765
▁어벤져스	-11.2765
▁스타일리쉬	-11.2765
▁엑스트라	-11.2765
궈	-11.2765
뇨	-11.2765
욧	-11.2765
▁덴젤	-11.2765
▁노무현	-11.2765
▁애절한	-11.2765
▁피라냐	-11.2766
▁싱겁	-11.2766
▁차가운	-11.2766
▁큐브	-11.2766
▁지하철	-11.2766
▁나타난	-11.2766
▁과한	-11.2766
▁떠오른다	-11.2766
▁스티브	-11.2766
▁즐겁다	-11.2766
지맙시다	-11.2766
▁푸른	-11.2767
▁시청율	-11.2767
▁여진구	-11.2767
▁외로운	-11.2767
▁프레디	-11.2767
▁종합	-11.2767
▁갑갑	-11.2768
▁효민	-11.2768
▁회복	-11.2768
▁강제	-11.2768
▁중딩때	-11.2769
▁보면볼수록	-11.2769
▁리암	-11.2769
▁독백	-11.2769
▁출연료	-11.2769
▁타짜	-11.277
▁엔딩곡	-11.2771
.."""	-11.2771
▁키워	-11.2771
▁개독	-11.2772
▁평점좀	-11.2772
▁솔직하게	-11.2772
▁화끈하게	-11.2773
▁급전개	-11.2773
▁할말이없다	-11.2773
▁행복해지는	-11.2773
▁한지민	-11.2773
▁금방	-11.2773
인기	-11.2774
▁아니었으면	-11.2774
▁어정쩡	-11.2774
▁어깨	-11.2775
▁치밀하	-11.2777
▁최고라	-11.2777
▁너희	-11.2777
▁대단합니다	-11.2778
흐흐	-11.2779
▁슴가	-11.2779
▁자연스럽고	-11.2779
▁나왔습니다	-11.278
해졌다	-11.278
▁넘친다	-11.278
줘라	-11.2781
▁이뤄	-11.2782
▁완벽히	-11.2782
▁아니에요	-11.2783
▁어려서	-11.2783
▁로그인하게	-11.2785
▁멋지네요	-11.2785
▁노리	-11.2786
▁끝나네	-11.2789
▁조용	-11.279
▁몰라서	-11.279
하는건데	-11.2791
▁멜깁슨	-11.2791
▁맞은	-11.2791
▁다니	-11.2791
▁암살	-11.2793
▁인상적이다	-11.2793
▁경쟁	-11.2794
▁마크	-11.2794
▁극적인	-11.2795
▁최선을	-11.2795
▁전형	-11.2795
안봤으면	-11.2796
바리	-11.2796
▁좆	-11.2797
▁못봐주겠다	-11.2797
도없는	-11.28
▁예상치	-11.2801
14	-11.2801
▁까메오	-11.2801
▁유치뽕짝	-11.2801
▁로보캅	-11.2801
▁눈뜨고	-11.2801
시청	-11.2802
▁만들었네요	-11.2802
▁어려워	-11.2803
년들	-11.2804
▁영화관가서	-11.2804
▁안봤지만	-11.2807
▁눈만	-11.2807
▁설레임	-11.2808
▁전통	-11.2808
▁알바들이	-11.2811
▁한국형	-11.2811
▁넘는	-11.2812
▁평타	-11.2812
▁시장	-11.2815
▁사연	-11.2816
분보고	-11.2816
▁배우들로	-11.2816
▁허무하고	-11.2817
▁본후	-11.2818
▁변명	-11.2818
▁시시한	-11.2818
▁악역이	-11.2819
▁죽어서	-11.2819
라구	-11.282
el	-11.282
▁알면서도	-11.282
▁작품의	-11.282
글고	-11.282
▁초딩들	-11.2821
▁기대합니다	-11.2821
▁얼굴만	-11.2822
▁파라노말	-11.2822
▁샤론스톤	-11.2822
▁에너지	-11.2822
▁보장	-11.2822
▁가면갈수록	-11.2823
홍보	-11.2824
▁후반으로	-11.2824
되는영화	-11.2826
▁코미디로	-11.2827
▁따듯하	-11.2829
▁장쯔이	-11.2832
▁연출에	-11.2832
▁안나와서	-11.2833
▁보고난	-11.2833
▁흥해라	-11.2834
▁끼어	-11.2834
▁애를	-11.2838
죽는	-11.2838
▁땡	-11.2839
▁돌아가는	-11.2839
▁부끄러운	-11.284
▁웃음도	-11.284
▁납득이	-11.284
ᅮᅮᅮᅮ	-11.2841
졌어요	-11.2841
▁영구	-11.2842
▁금요일	-11.2842
▁도박	-11.2844
작가가	-11.2845
▁명곡	-11.2845
▁안되네요	-11.2849
치면	-11.285
▁영상물	-11.285
비교	-11.285
▁맞고	-11.2851
고해서	-11.2852
웠음	-11.2855
▁이해는	-11.2856
▁문학	-11.2857
▁보지않	-11.2858
▁무서운거	-11.2859
쿨	-11.2861
▁이러니	-11.2861
쩜	-11.2863
▁끓	-11.2863
▁그정도	-11.2863
▁죄를	-11.2863
▁보면서도	-11.2868
▁다루는	-11.2871
▁벗기	-11.2875
▁한국에	-11.2876
일은	-11.2876
뚱	-11.2878
뇌	-11.2879
훈훈	-11.2882
▁ᄇ	-11.2882
성도	-11.2882
냄새	-11.2882
졌던	-11.2882
▁탄탄하	-11.2883
▁터졌	-11.2883
▁통일	-11.2884
lt	-11.2884
▁진지함	-11.2884
쉐	-11.2884
셋	-11.2885
평생	-11.2885
아무튼	-11.2887
뮤지컬	-11.2887
슬픔	-11.2887
프랑스	-11.2888
▁내용전개가	-11.2889
몸매	-11.2889
▁장면에	-11.289
▁나쁜놈	-11.2893
방법	-11.2895
▁보시는	-11.2897
그닥	-11.2897
▁현실적이	-11.2899
▁졸린	-11.2899
▁이뻐요	-11.29
▁볼수가	-11.29
▁웃기긴	-11.2901
무엇보다	-11.2904
▁엄마와	-11.2904
▁통한	-11.2905
뻔한스토리	-11.2906
▁니네	-11.2907
여년전	-11.2907
사상	-11.2908
시켰다	-11.2911
등이	-11.2912
어렵	-11.2913
드릴	-11.2913
▁뭐죠	-11.2914
있어야	-11.2914
▁따라서	-11.2915
재미없네	-11.2915
▁보여주려	-11.2918
매우	-11.2919
리얼하게	-11.2922
달러	-11.2923
▁여성의	-11.2923
▁이런영화에	-11.2924
▁지구를	-11.2924
▁빠순이들	-11.2926
▁긴장을	-11.2926
미녀	-11.2927
▁나라를	-11.2927
▁거리가	-11.2927
▁쩌	-11.293
▁쓴다	-11.293
▁140	-11.293
재밌었다	-11.2933
▁밴드	-11.2935
했었다	-11.2936
▁구도	-11.2937
▁아이들을	-11.2937
▁주연으로	-11.2939
슬프고	-11.2942
▁아니란	-11.2942
예전에	-11.2944
▁하차	-11.2945
던영화	-11.2946
▁깨닫	-11.2946
▁강렬하	-11.2949
힘든	-11.295
편견을	-11.2951
▁취급	-11.2951
▁장르에	-11.2953
▁안된다는	-11.2953
소재로	-11.2953
되야	-11.2957
변화	-11.2957
졸라	-11.2959
▁색깔	-11.2962
▁맞을	-11.2962
▁될까	-11.2963
▁돌아보	-11.2965
▁무언가가	-11.2967
▁만드는지	-11.2968
▁있는것도	-11.2971
▁안봤다	-11.2971
께서	-11.2972
▁월드	-11.2973
하지않는	-11.2973
▁동급	-11.2973
지훈	-11.2975
무섭다	-11.2976
▁잡은	-11.2977
다니고	-11.2979
▁망한영화	-11.298
▁아들과	-11.2981
▁드라마였다	-11.2981
쯧쯧	-11.2984
▁느껴졌	-11.2986
▁왔어요	-11.2986
▁주려	-11.2988
▁마이너스는	-11.2989
▁동기	-11.299
거라곤	-11.2992
▁명작인데	-11.2992
재미있고	-11.2992
▁마르	-11.2996
드의	-11.2996
▁남자들의	-11.2999
▁강인	-11.3002
오글	-11.3002
▁한때	-11.3006
리오	-11.3007
라기엔	-11.3008
▁주면	-11.3012
▁인한	-11.3013
▁성우를	-11.3016
▁되길	-11.3017
▁드러	-11.3018
▁잊어	-11.3018
색이	-11.3019
쉽게	-11.3022
▁모양	-11.3024
▁이건머	-11.3025
민주	-11.3028
점줄	-11.3028
~!!!!	-11.3029
▁시키는	-11.303
▁기부	-11.303
비슷한	-11.303
그의	-11.3032
co	-11.3033
할수밖에	-11.3034
▁보여주기	-11.3036
▁이전에	-11.3036
주고싶다	-11.3038
▁알바생	-11.3038
▁개미	-11.3041
눈에	-11.3041
화를	-11.3041
▁초기	-11.3043
▁얼굴도	-11.3043
▁전작들	-11.3044
보는것	-11.3044
▁원작보다	-11.3044
ᄏᄏᄏᄏᄏᄏᄏᄏᄏᄏᄏᄏ	-11.3048
이드라마	-11.3056
중에서도	-11.3061
▁역사의	-11.3061
감동을	-11.3061
▁눈과	-11.3063
대결	-11.3065
▁노튼	-11.3065
▁97	-11.307
▁납득	-11.3073
▁ᅵ	-11.3075
▁영화일	-11.3078
▁심리묘사	-11.308
▁봤다고	-11.3081
편보단	-11.3082
▁때리고	-11.3084
외엔	-11.309
▁웅장	-11.3092
던데요	-11.3095
만큼의	-11.3095
▁보스	-11.3098
말이필요없	-11.3098
이었다면	-11.3099
씩이나	-11.3102
▁졸업작품	-11.3103
▁쩔었	-11.3104
▁발견한	-11.3104
▁이야기들	-11.3104
▁드라마임	-11.3104
?????	-11.3104
▁잘살	-11.3108
▁`	-11.3108
▁쯤	-11.3108
▁데이	-11.311
▁뮤직비디오	-11.3112
▁장난이	-11.3112
▁본인이	-11.3113
▁엽기	-11.3113
▁노래만	-11.3114
져야	-11.3114
▁정서에	-11.3117
하셔서	-11.3121
▁정상	-11.3122
▁잘된	-11.3124
▁아쉬워	-11.3127
▁모습도	-11.3127
?""""	-11.3127
게아니라	-11.3128
이런영화가	-11.3133
13	-11.3136
▁짙	-11.3141
▁못볼	-11.3142
놔	-11.3142
기다	-11.3143
만든다	-11.3145
갖고	-11.3146
▁믿겨지지	-11.3148
뢰	-11.3148
라기	-11.3149
▁bb	-11.315
룸	-11.315
·	-11.315
▁OCN	-11.315
▁아날로그	-11.315
▁어땠을까	-11.315
▁옴니버스	-11.315
▁잃어	-11.315
▁톰행크스	-11.315
▁핸드폰	-11.315
쨩	-11.315
▁보기드문	-11.315
▁엄태웅	-11.315
▁주옥같은	-11.315
#	-11.315
▁마피아	-11.315
▁좌파	-11.315
▁압박	-11.315
엉성	-11.315
▁괜춘	-11.315
▁토이스토리	-11.315
▁새롭	-11.3151
▁재해석	-11.3151
▁love	-11.3151
▁다녀온	-11.3151
▁알겠으나	-11.3151
▁멋집니다	-11.3151
▁탐욕	-11.3151
▁서서히	-11.3151
▁유치원생	-11.3152
▁아쉬웠다	-11.3152
생겻	-11.3152
▁만큼은	-11.3152
▁가만히	-11.3152
▁의심스럽다	-11.3152
▁케이트	-11.3153
▁낯선	-11.3153
▁빡쳐서	-11.3153
▁먹먹해지는	-11.3154
▁망했는지	-11.3154
▁반성해라	-11.3154
영화지만	-11.3155
▁몰래	-11.3155
▁거슬린다	-11.3155
▁반지의	-11.3155
▁영화인데도	-11.3156
것두	-11.3156
릴때	-11.3157
▁실종	-11.3158
▁극장판이	-11.3159
▁일방적	-11.3159
▁담담하게	-11.3161
지말아야	-11.3161
▁풀어가는	-11.3161
▁휴가	-11.3161
잇다	-11.3161
▁짐작	-11.3161
▁벌어지는	-11.3161
▁관대하다	-11.3162
▁질질끄는	-11.3162
▁도입부	-11.3162
해야겠다	-11.3163
▁연민	-11.3164
▁극단적인	-11.3165
as	-11.3166
▁때문이	-11.3166
▁볼거리도	-11.3166
▁하필	-11.3166
▁동참	-11.3167
▁더럽게없다	-11.3168
▁이룬	-11.317
▁동경	-11.317
▁재미없었던	-11.3171
▁실망스러운	-11.3172
▁이랬	-11.3172
▁유쾌하다	-11.3173
▁물론이고	-11.3173
▁장인	-11.3174
▁개봉했을때	-11.3174
▁98	-11.3175
▁두사람	-11.3177
▁우디	-11.3177
년이나	-11.3178
^^;;	-11.3178
▁있으	-11.3179
▁아역배우	-11.3179
▁괜찮았고	-11.3185
▁높냐	-11.3187
거의	-11.3187
니당	-11.3191
찾기	-11.3191
작은	-11.3192
▁잼써	-11.3192
▁고래	-11.3193
▁사실적인	-11.3193
▁지배	-11.3194
▁찍어라	-11.3195
마져	-11.3196
▁신들린	-11.3197
▁숀	-11.3197
▁있었을까	-11.3198
▁로렌스	-11.3198
▁토마스	-11.3198
▁줄리엣	-11.3198
▁시바	-11.3198
▁따른	-11.3199
▁피트	-11.3199
전체	-11.32
▁엔	-11.3201
▁최대한	-11.3201
▁철없는	-11.3201
▁밝은	-11.3202
▁만들었던	-11.3203
▁묘	-11.3203
▁깨달았다	-11.3203
▁기독교인	-11.3203
▁끔찍한	-11.3205
것같고	-11.3206
▁굴	-11.3206
놔서	-11.3207
▁빛나	-11.3207
▁감동감동	-11.3207
▁심했다	-11.3207
▁매력있	-11.3207
▁설렘	-11.3209
▁조선족	-11.3209
생각해보면	-11.321
▁호러영화	-11.3211
▁생각지도	-11.3211
▁누르	-11.3213
▁격투	-11.3213
▁사랑스럽	-11.3215
▁극장서	-11.3215
장면을	-11.3217
▁안되요	-11.3218
이었다는	-11.3222
▁암시	-11.3223
▁주지훈	-11.3223
아까	-11.3225
바이	-11.3227
듣는	-11.3229
▁기다리고	-11.3229
▁다가오는	-11.323
▁디자인	-11.323
에서나	-11.3231
▁알아서	-11.3231
보겠다	-11.3231
▁무섭지도않고	-11.3232
▁브래드피트	-11.3232
장님	-11.3234
▁심해	-11.3234
▁눈물도	-11.3236
▁이게뭐야	-11.3237
▁깍아	-11.3239
▁설레는	-11.3239
봣습니다	-11.324
선이	-11.3241
.""""	-11.3242
본질을	-11.3243
부대	-11.3245
▁안맞고	-11.3245
▁현빈	-11.3247
▁질투	-11.3248
▁하시는	-11.3249
▁복수가	-11.325
그렇지	-11.3251
보라고	-11.3252
▁악의	-11.3252
▁활약	-11.3252
▁때우기	-11.3253
▁리얼한	-11.3254
보게되	-11.3254
▁폼	-11.3255
▁이게왜	-11.3257
영화인줄	-11.3257
▁분석	-11.3257
▁드리	-11.3259
더럽게	-11.326
▁내눈	-11.326
분에	-11.326
▁인지	-11.3263
▁이상도	-11.3263
▁잭슨	-11.3264
▁짱이에요	-11.3265
▁한편으로	-11.327
▁모두에게	-11.3271
모양	-11.3271
▁오류	-11.3271
▁서부	-11.3272
▁울나라	-11.3272
▁퀸	-11.3273
▁최악입니다	-11.3276
채널	-11.3276
▁감독님이	-11.3277
▁했었는데	-11.3278
▁가네요	-11.3278
▁go	-11.3278
낙	-11.3279
▁낼	-11.328
퇴	-11.3281
U	-11.3281
랩	-11.3282
띠	-11.3282
나보네	-11.3284
기억이	-11.3284
▁짱입니다	-11.3285
명이서	-11.3285
끊	-11.3286
짠	-11.3287
매니아	-11.3287
[	-11.3287
꽝	-11.3287
▁안나오나	-11.3288
꽤	-11.3288
vs	-11.3289
쳐먹	-11.3289
스틴	-11.3291
▁동정	-11.3291
스티	-11.3291
▁대비	-11.3292
엉망	-11.3293
▁배운	-11.3294
▁괴수	-11.3294
▁참신함	-11.3294
▁당신을	-11.3297
▁큰일	-11.3298
감동적이고	-11.33
▁그러지	-11.33
제작진	-11.33
▁어처구니가	-11.3301
하든	-11.3303
는뎅	-11.3304
소리가	-11.3305
▁그나저나	-11.3305
▁중에서도	-11.3305
거에	-11.3306
왜이리	-11.3306
▁역활	-11.3306
▁조용한	-11.3306
▁잼있어	-11.3308
▁볼껄	-11.3309
는거냐	-11.331
보고있는데	-11.331
▁썩어	-11.3312
▁수위	-11.3313
▁반전까지	-11.3314
▁웃기기도	-11.3314
▁보이네요	-11.3315
▁그땐	-11.3316
먹으면서	-11.3317
티비로	-11.3318
▁이름으로	-11.3318
베리	-11.3318
졌습니다	-11.3319
il	-11.332
댐	-11.3321
메이	-11.3323
▁거부감	-11.3325
남자가	-11.3326
보느니	-11.3327
▁포장한	-11.333
▁네가	-11.3331
멋있	-11.3332
조금이라도	-11.3337
ie	-11.3339
▁천재다	-11.3341
편만	-11.3347
누님	-11.3349
▁찌질이	-11.335
나왓	-11.3352
▁감정의	-11.3352
모드	-11.3354
▁된게	-11.3354
▁피디	-11.3355
▁후에도	-11.3356
▁했다면	-11.3361
▁포기한	-11.3361
쁘	-11.3364
할수있다	-11.3366
안보	-11.3368
▁슬펐	-11.3368
▁볼만하	-11.3371
▁짤	-11.3373
재미잇	-11.3373
않아서	-11.3375
▁넣은	-11.3376
▁보네요	-11.338
▁이감독	-11.3383
▁투성이	-11.3384
▁좋아라	-11.3385
▁액션씬이	-11.3387
▁사라지	-11.3387
▁방식이	-11.3391
입장	-11.3393
▁지성	-11.3393
성인	-11.3393
맛이	-11.3394
▁억	-11.3397
▁욕할	-11.3398
▁하드	-11.3401
▁눈물나	-11.3402
▁훈훈하	-11.3403
으라고	-11.3404
▁바람피	-11.3405
▁건진	-11.3405
▁상상력을	-11.3408
▁예의	-11.3409
▁우리와	-11.341
▁관리	-11.3411
▁환상의	-11.3414
했기에	-11.3414
취향은	-11.3414
▁비극적	-11.3416
▁대만	-11.3423
했으니	-11.3425
▁한국인들	-11.3428
혀서	-11.3429
▁옴	-11.343
▁한국말	-11.3433
뻐	-11.3435
▁추잡	-11.3435
▁작품이라고	-11.3436
▁이만큼	-11.3437
인건지	-11.3438
수가없다	-11.344
▁없는것	-11.3441
▁정체	-11.3442
좋앗	-11.3444
▁기대보다	-11.3446
것임	-11.3447
▁말하기	-11.3448
나오는거	-11.3449
에효	-11.3449
점이면	-11.3454
▁스케일도	-11.3455
▁조심	-11.3455
▁나와라	-11.3458
▁터짐	-11.3459
..;	-11.346
들었다	-11.346
▁건물	-11.3461
▁한국은	-11.3462
생각하게	-11.3463
돼지	-11.3463
약함	-11.3469
보았다	-11.3471
▁못하나	-11.3473
▁떨어졌	-11.3473
스토리를	-11.3473
점이라도	-11.3474
▁그시대	-11.348
점이지	-11.3484
▁울림	-11.3484
▁소리를	-11.3485
▁N	-11.3488
▁ᄂ	-11.3488
해야하나	-11.3488
스러웠	-11.3489
▁모두다	-11.349
▁들여	-11.349
하겠네	-11.349
주시길	-11.3494
하다못해	-11.3495
▁피로	-11.3497
▁토끼	-11.3502
꿀	-11.3504
▁써라	-11.3504
되요	-11.3509
▁한국식	-11.3509
▁수정	-11.351
▁합시다	-11.3513
호가	-11.3513
▁없다면	-11.3514
▁재미난	-11.3518
싶은데	-11.3518
▁되냐	-11.3518
▁웃어	-11.3518
렬	-11.3519
▁강시	-11.3519
▁아픔이	-11.352
▁루즈하	-11.3522
▁놓	-11.3522
▁소소하	-11.3522
▁졸작이	-11.3523
사랑해	-11.3524
▁귀가	-11.3524
라는거	-11.3525
지난	-11.3525
비슷	-11.3525
덧	-11.3525
이런걸	-11.3528
▁그림이	-11.3528
▁흉내내	-11.3529
래야	-11.3532
가끔	-11.3532
▁보네	-11.3533
▁바보가	-11.3534
▁노출이	-11.3534
▁코믹연기	-11.3535
지못한	-11.3536
시원	-11.3541
▁그래픽도	-11.3541
흡	-11.3544
탄이	-11.3544
▁구역질	-11.3545
평이	-11.3546
▁특수	-11.3547
▁경찰이	-11.3547
▁뒤통수	-11.3548
퀄	-11.3549
보냐	-11.3549
뻑	-11.3549
▁정답	-11.355
▁붉은	-11.355
’	-11.355
▁쌍팔년도	-11.355
▁아팠다	-11.355
밭	-11.355
퍽	-11.355
ᅭ	-11.355
▁어중간한	-11.355
씽	-11.355
짖	-11.355
▁장만옥	-11.355
▁캐서린	-11.355
▁후유증	-11.355
▁기괴한	-11.355
▁정유미	-11.355
듀	-11.355
▁손꼽히는	-11.355
▁어디선가	-11.355
▁김수로	-11.355
▁테론	-11.355
▁맥라이언	-11.355
▁슈스케	-11.355
랍시고	-11.355
▁민주주의	-11.3551
▁쾌감	-11.3551
▁브루스윌리스	-11.3551
▁씹노잼	-11.3552
▁다르겠지만	-11.3552
▁감동으로	-11.3552
회장	-11.3552
▁피터팬	-11.3553
▁아이리스	-11.3553
▁하얀	-11.3553
▁감동적이었어요	-11.3553
▁느린	-11.3553
▁성괴	-11.3554
▁MC	-11.3554
하자마자	-11.3554
▁잔잔히	-11.3554
하게되는	-11.3554
▁따듯한	-11.3555
▁부담	-11.3557
▁린치	-11.3558
▁치명적	-11.3558
▁절제	-11.3558
▁연계	-11.3558
▁여자친구랑	-11.3559
▁일본애니	-11.3559
▁초등학생때	-11.3559
▁고마워요	-11.356
▁120	-11.356
▁어떨지	-11.3561
배우의	-11.3562
▁왜이런	-11.3562
▁황제	-11.3563
▁풋풋하고	-11.3563
내서	-11.3563
▁모르겠어요	-11.3563
▁싫음	-11.3563
▁오랜만이다	-11.3564
▁괜	-11.3566
보았	-11.3567
*^^*	-11.3568
▁대하여	-11.3568
▁팬이라서	-11.3569
▁//	-11.357
▁관계가	-11.357
▁신기하다	-11.3571
▁밋밋하고	-11.3571
▁해학	-11.3572
▁살지	-11.3573
하더만	-11.3573
기라도	-11.3575
▁2%	-11.3575
▁틀림없다	-11.3576
▁조아요	-11.3576
▁고맙다	-11.3577
▁스크린으로	-11.3577
시대의	-11.3577
▁대단하네요	-11.3578
▁어메이징	-11.3578
▁폴워커	-11.3578
▁정신건강에	-11.3578
▁대작이	-11.3578
▁기대치	-11.3579
▁만들었는데	-11.358
▁핵심	-11.358
▁촌스럽고	-11.358
▁비슷하게	-11.3581
▁검색해	-11.3581
▁걸레	-11.3581
으려나	-11.3582
▁돌아온	-11.3583
뭐하러	-11.3583
▁연결이	-11.3583
▁전형적	-11.3584
▁생각해볼	-11.3587
인건가	-11.3588
▁하루종일	-11.3589
▁니콜키드먼	-11.3589
▁사춘기	-11.3589
▁가깝다	-11.3589
▁완성도는	-11.359
넘치는	-11.359
▁생겨	-11.3592
▁그지없	-11.3594
▁좋아합니다	-11.3596
▁밝고	-11.3597
▁망함	-11.3597
쓰레기다	-11.3598
▁좋아하면	-11.3599
▁높네요	-11.3599
▁오토바이	-11.36
▁이종석	-11.36
▁보였다	-11.3601
▁숨막히는	-11.3601
▁1%	-11.3601
▁섬세하고	-11.3601
▁한순간도	-11.3601
▁이민정	-11.3601
▁몇안되는	-11.3602
▁지루하네요	-11.3602
▁와닿는다	-11.3602
▁다가온다	-11.3605
▁외에	-11.3606
▁고소영	-11.3606
▁가치관	-11.3609
▁프레데터	-11.3611
▁조재현	-11.3611
▁생각밖에	-11.3611
▁어려움	-11.3612
▁배우다	-11.3612
산업	-11.3612
▁감독아	-11.3612
▁최고였음	-11.3614
▁생생한	-11.3615
▁공개	-11.3615
▁표현해	-11.3616
▁행복했습니다	-11.3618
▁진구	-11.3618
▁적어	-11.362
던거	-11.362
▁한국영화중	-11.3622
▁시스템	-11.3622
아아아아	-11.3624
되네	-11.3625
▁상관없	-11.3625
▁강추입니다	-11.3625
▁가족끼리	-11.3626
▁멋있게	-11.3627
▁망쳐놨	-11.3628
▁없잖아	-11.3632
▁흥미진진하고	-11.3634
▁애국	-11.3634
▁싫어서	-11.3635
▁에바	-11.3637
are	-11.3638
개월	-11.3638
▁동심을	-11.3639
▁김선아	-11.3639
▁꼬라지	-11.3642
홍콩	-11.3643
▁아버지와	-11.3644
▁사건의	-11.3645
▁못생겼	-11.3646
가진	-11.3647
번씩	-11.3651
▁상큼	-11.3653
▁된다면	-11.3655
마른	-11.3657
▁???	-11.366
▁실화라고	-11.366
▁이슈	-11.3661
▁약하고	-11.3662
▁욕하면서	-11.3662
▁칼로	-11.3662
▁섹	-11.3662
예상	-11.3662
▁좋아함	-11.3662
▁연출로	-11.3663
▁좋아했는데	-11.3664
▁남김	-11.3664
▁돌리도	-11.3664
▁대가	-11.3665
▁지루해요	-11.3665
▁직장	-11.3667
보낸	-11.3667
▁형성	-11.3667
▁mbc	-11.3667
▁↓	-11.3667
▁왜이럼	-11.3667
all	-11.3669
만들면	-11.3669
분까지	-11.3669
▁것처럼	-11.367
▁재밌었어	-11.3672
에게도	-11.3674
하지않은	-11.3674
▁죽지	-11.3675
▁제정신	-11.3676
▁미치지	-11.3676
상상	-11.3677
껴	-11.3677
▁않으면서	-11.3678
때의	-11.3679
▁대박입니다	-11.3681
▁위로가	-11.3682
▁댓글알바	-11.3683
▁주변에	-11.3684
▁기계	-11.3686
롤	-11.3686
점인데	-11.3687
▁뭣도	-11.3687
▁있었어요	-11.3687
▁킹	-11.3689
주길	-11.369
▁냉	-11.3693
▁부실한	-11.3694
산이	-11.3694
▁바보로	-11.3694
▁아담	-11.3697
뽀	-11.3698
▁실망감	-11.3698
ᅢ	-11.37
샘	-11.3701
녹	-11.3701
퀄리티	-11.3703
톰	-11.3703
놈들이	-11.3704
짝퉁	-11.3704
▁이름만	-11.3705
1,2	-11.3707
▁평가가	-11.3707
▁지식	-11.3708
▁수작임	-11.3708
이였는데	-11.371
외국	-11.3716
중간중간	-11.3717
▁주는거	-11.3719
▁많을	-11.372
▁한다면	-11.372
맨날	-11.3721
▁다음편	-11.3721
아픈	-11.3722
▁구할	-11.3723
▁모델	-11.3724
안나옴	-11.3726
▁유우	-11.3727
왜케	-11.3728
예전	-11.3729
아무것도	-11.3729
고양이	-11.3729
ry	-11.3729
▁쓰레기로	-11.3729
자도	-11.373
▁강남	-11.373
▁살아남	-11.3731
어이없	-11.3734
▁걸작이	-11.3741
▁사랑하게	-11.3743
▁없구만	-11.3743
▁공짜	-11.3744
▁본사람	-11.3744
센스	-11.3749
가능한	-11.375
재미있어	-11.3752
키는	-11.3753
듣	-11.3755
만드네	-11.3756
마음을	-11.3756
▁흑흑	-11.3757
▁붙여	-11.3757
▁보호	-11.3758
▁글구	-11.3759
연출력	-11.3762
▁인종	-11.3762
▁화려하	-11.3766
▁저예산영화	-11.3767
아놔	-11.3769
▁쓴거	-11.3773
▁끝으로	-11.3777
▁존재감	-11.3778
일까요	-11.3778
▁오르	-11.3778
▁펜	-11.3779
▁델	-11.3779
▁드라마인데	-11.378
▁슬픔을	-11.378
▁막장의	-11.378
했던거	-11.3781
제목이	-11.3787
▁계속해서	-11.3787
▁드물	-11.3789
해야한다	-11.3789
▁넘치고	-11.3791
▁영화다운	-11.3794
거같고	-11.3796
폐지	-11.3797
있더라	-11.3798
▁말리	-11.3801
▁시시	-11.3801
▁무섭다고	-11.3805
기위한	-11.3808
스코	-11.3811
밖	-11.3811
▁등이	-11.3813
▁ᅢ	-11.3813
▁이미지가	-11.3821
▁vs	-11.3824
▁긴박감	-11.3827
감사	-11.3827
했었던	-11.3827
▁보기도	-11.3829
▁아버지를	-11.383
▁울어	-11.383
▁사랑할	-11.383
▁이루어	-11.3833
단다	-11.3837
▁놀랍	-11.3838
보지마	-11.384
중엔	-11.3841
▁아마도	-11.3847
▁외엔	-11.3848
이상한	-11.3848
대신	-11.3849
▁전국	-11.3849
잘하고	-11.385
▁고생한	-11.3854
상에	-11.3854
▁선생님이	-11.3854
▁베트남	-11.3855
▁소설이	-11.3856
▁저질영화	-11.3856
▁남자배우	-11.3863
역에	-11.3865
▁타락	-11.3865
점이라니	-11.3869
해줘	-11.3869
▁장난해	-11.387
말로	-11.3872
▁질질끌	-11.3872
▁최고작	-11.3872
▁늘리	-11.3874
▁심심할때	-11.3879
▁주인공도	-11.388
이라곤	-11.3881
팔이	-11.3886
▁소녀의	-11.3887
▁한국드라마	-11.3888
▁매기	-11.3889
▁코미디도	-11.3889
▁뿐만	-11.3889
▁셋	-11.389
▁용서가	-11.3893
버렸음	-11.3895
▁했다는	-11.3897
메시지를	-11.3898
▁감독판	-11.3899
시아	-11.39
▁흠잡을	-11.39
▁영향	-11.3902
았어	-11.3904
?'	-11.3905
할게	-11.3907
▁가게	-11.3908
▁스릴은	-11.3912
▁모두들	-11.3914
▁짜내	-11.3915
▁원제	-11.3915
▁모아놓	-11.3916
▁몰입감이	-11.3917
▁잔인하지도	-11.3918
은데	-11.3918
▁잔잔하다	-11.3918
▁때부터	-11.3919
사랑을	-11.3925
▁필요는	-11.3925
▁그럴듯한	-11.3927
영화에요	-11.3929
▁따뜻	-11.393
테니	-11.3931
어리	-11.3931
▁수십	-11.3931
시리즈의	-11.3932
▁기분이다	-11.3932
!"""	-11.3932
****	-11.3934
▁써도	-11.3935
▁영혼이	-11.3936
츄	-11.3937
▁저때	-11.3937
연출이	-11.3938
▁여지	-11.3939
잡는	-11.3939
▁주고싶	-11.394
▁익숙	-11.3941
벅	-11.3942
▁한건	-11.3942
여름	-11.3945
▁성숙	-11.3946
▁마주	-11.3949
▁바보들	-11.395
몇번	-11.3951
시키지	-11.3957
저리	-11.3957
▁올레	-11.3958
편보고	-11.3958
렛	-11.3958
밴	-11.3961
▁무적	-11.3962
롯	-11.3963
▁으리으리	-11.3965
▁이러지	-11.3965
▁서사	-11.3966
훗	-11.3966
위원회	-11.3967
▁로버츠	-11.3967
▁맥어보이	-11.3967
▁빈디젤	-11.3967
▁선입견	-11.3967
▁여실히	-11.3967
▁윌스미스	-11.3967
▁이렇다	-11.3967
▁중구난방	-11.3967
▁초콜릿	-11.3967
댔	-11.3967
햐	-11.3967
▁천녀유혼	-11.3967
▁훼손	-11.3967
▁압축	-11.3967
▁모니터	-11.3967
▁좌절	-11.3967
\	-11.3967
▁감사드립니다	-11.3967
▁인상깊었다	-11.3967
▁법칙	-11.3968
▁최진실	-11.3968
▁베낀	-11.3968
▁사소한	-11.3968
▁농락	-11.3968
▁뒤로갈수록	-11.3968
읍니다	-11.3968
▁모르겠으나	-11.3968
▁놀라움	-11.3968
▁발톱	-11.3968
▁오래오래	-11.3969
▁파멸	-11.3969
▁대략	-11.3969
▁상쾌	-11.3969
▁역부족	-11.3969
▁신은경	-11.397
▁보기는	-11.397
위로	-11.3971
▁놓치지	-11.3971
▁고기	-11.3971
▁그렇다치고	-11.3972
▁따뜻하다	-11.3972
▁필요할까	-11.3972
▁욕하고	-11.3972
전반	-11.3973
▁행운	-11.3973
나봐	-11.3973
▁괜찮았어요	-11.3973
든데	-11.3974
▁몰려	-11.3974
▁실체	-11.3974
▁명예	-11.3975
해낸	-11.3975
▁시간여행	-11.3975
▁배드신	-11.3975
▁담겨있는	-11.3975
▁버티	-11.3976
▁팬티	-11.3976
▁싶어지는	-11.3976
▁돋보였던	-11.3977
▁조커	-11.3978
▁바라며	-11.398
▁재미없던데	-11.398
에게서	-11.3981
스톤	-11.3981
▁연출력도	-11.3981
▁눈물난다	-11.3981
▁불쌍하	-11.3981
▁초등	-11.3982
▁불쌍함	-11.3982
▁능력이	-11.3982
▁둘러	-11.3983
▁안무섭다	-11.3983
▁왕따	-11.3984
▁카타르시스	-11.3984
▁쉽	-11.3984
▁곁에	-11.3985
▁몰랐던	-11.3985
▁있었을	-11.3985
▁화난다	-11.3986
▁그래두	-11.3986
▁산만함	-11.3987
으리	-11.3987
▁낚임	-11.3988
엠씨	-11.3989
▁볼만하던데	-11.399
▁신선했다	-11.399
▁지루합니다	-11.3991
▁훈련	-11.3991
점준거중	-11.3992
▁익숙한	-11.3992
내시간	-11.3993
▁극단적	-11.3994
했냐	-11.3994
▁누구냐	-11.3995
비하	-11.3995
▁인피니트	-11.3996
껀데	-11.3996
▁괜찮지만	-11.3996
▁그러면	-11.3997
▁부재	-11.3997
▁기술력	-11.3998
▁미키	-11.3998
▁감성적인	-11.3999
당함	-11.3999
▁시간가는	-11.4
▁미국에	-11.4001
▁be	-11.4001
▁재밌겠다	-11.4001
▁광해	-11.4003
▁시켜	-11.4004
▁목표	-11.4005
▁퀴어영화	-11.4005
▁최악이었다	-11.4006
▁돈아까운	-11.4007
▁유역비	-11.4007
외에는	-11.4007
▁나오니	-11.4008
▁무려	-11.4009
▁죽음의	-11.401
▁남는영화	-11.4012
보세여	-11.4017
▁토르	-11.4017
▁이용해	-11.4017
▁기대하면서	-11.4018
뭐라	-11.402
▁쌩	-11.402
▁절라	-11.4021
웃기다	-11.4022
▁없을듯	-11.4023
▁나쁘다	-11.4023
▁안티	-11.4026
찾	-11.4027
▁내용이나	-11.4027
▁색감이	-11.4029
1990	-11.4029
▁식상함	-11.4029
▁공효진	-11.403
▁인셉션	-11.403
▁지진희	-11.403
하여튼	-11.4031
▁연구	-11.4032
▁영화보는내내	-11.4035
▁위대	-11.4035
16	-11.4036
▁강하다	-11.4036
편이나	-11.4039
▁만들어내는	-11.4039
▁식상하고	-11.4039
기나	-11.404
▁독특함	-11.4041
▁디테일한	-11.4042
영화인듯	-11.4042
▁근육	-11.4043
▁책도	-11.4044
먹을	-11.4045
▁화장	-11.4046
해야만	-11.4046
한것도	-11.4047
▁농구	-11.4047
▁못했지만	-11.4049
▁당할	-11.4049
▁생략	-11.405
영혼을	-11.4051
▁곳이	-11.4051
우면	-11.4053
▁황당함	-11.4054
▁김구라	-11.4056
하나는	-11.4056
빠다	-11.4056
▁실력이	-11.4056
▁분들에게	-11.4058
▁1000	-11.406
먹기	-11.4061
▁본영화중	-11.4061
▁대작이다	-11.4062
▁남음	-11.4062
▁이때까지	-11.4063
싶어요	-11.4063
123	-11.4064
▁난생	-11.4067
▁멜로물	-11.4067
▁몇일	-11.4067
▁불가능한	-11.4067
▁관객수	-11.4068
부인	-11.407
▁엉뚱한	-11.407
▁야한장면	-11.4071
▁발랄	-11.4071
▁기억남	-11.4072
▁무난한	-11.4074
▁사람으로서	-11.4076
▁재밌게봄	-11.4076
착한	-11.4078
▁생각해요	-11.4079
이라지만	-11.4081
▁영화죠	-11.4087
▁마인드	-11.4089
했을텐데	-11.409
▁배우고	-11.409
▁말이죠	-11.4091
▁것으로	-11.4094
▁있죠	-11.4096
▁바뀌고	-11.4098
▁숨어	-11.4099
▁인내	-11.41
대충	-11.4102
▁형편없다	-11.4102
바가	-11.4103
▁알수있는	-11.4103
▁기억속에	-11.4105
▁별반	-11.4105
▁하늘을	-11.4105
▁앞뒤가	-11.4107
없냐	-11.4107
▁가졌	-11.4109
아이들	-11.4111
▁이쁘네	-11.4112
줄알고	-11.4114
는것은	-11.4116
탐	-11.4116
▁늘어지는	-11.4117
▁하나경	-11.4118
했더라면	-11.4118
▁아들의	-11.4119
▁운명을	-11.4121
▁망했다	-11.4122
▁뱀	-11.4124
아아아	-11.4126
화부터	-11.4127
▁볼땐	-11.4128
할게요	-11.4129
슬퍼	-11.4129
왜이래	-11.4131
▁였습니다	-11.4133
▁기대안	-11.4133
▁걸려	-11.4134
▁뿐이고	-11.4134
틈	-11.4138
느와르	-11.4138
▁역량이	-11.4138
메세지	-11.4139
▁최고의드라마	-11.4139
느낀	-11.414
▁볼거없	-11.414
▁투자한	-11.4141
▁한번보고	-11.4142
무협	-11.4143
빼면	-11.4144
할머니	-11.4144
히히	-11.4144
▁볼줄	-11.4146
재밌었는데	-11.4147
대본	-11.4147
살짝	-11.4148
▁사실에	-11.4149
▁잡을	-11.4149
나간	-11.4149
▁ᄀᄀ	-11.415
지원	-11.415
재미도없고	-11.415
였는지	-11.4151
▁어쩌고	-11.4151
▁좋아했	-11.4152
이미	-11.4153
이쁘다	-11.4154
▁했네	-11.4154
일지	-11.4155
▁공리	-11.4156
▁동물들	-11.4156
▁엉망인	-11.4157
▁허준	-11.4159
본건데	-11.416
▁지친	-11.416
▁넣었	-11.4162
▁악당들	-11.4163
▁어이없네	-11.4164
버렷	-11.4165
풍경	-11.4165
해가는	-11.417
시가	-11.4171
▁돋는다	-11.4172
▁라스	-11.4173
되어야	-11.4174
저예산	-11.4177
▁방향	-11.4179
날때	-11.4179
▁나오면서	-11.418
▁하니까	-11.4181
▁남매	-11.4181
▁개망	-11.4182
▁처음보는	-11.4184
▁안본사람	-11.4187
한지	-11.4188
아아	-11.4189
하나하나	-11.4189
▁더빙도	-11.419
자리에	-11.4193
▁만들었지	-11.4196
▁이야기로	-11.4196
부분에	-11.4198
▁그러고	-11.4198
▁아름답	-11.4199
사장	-11.4199
스카	-11.42
▁못봤다	-11.42
▁놀이	-11.4202
▁킬링타임도	-11.4202
재밋엇	-11.4203
넣어	-11.4203
▁노래와	-11.4203
받아야	-11.4205
급의	-11.4207
분간	-11.4207
프리	-11.4208
▁부드럽	-11.4209
▁영화니까	-11.4209
▁고려	-11.4209
▁보이는데	-11.421
▁재미없었	-11.4212
래요	-11.4213
▁했어	-11.4217
보니깐	-11.4217
을정도로	-11.4222
보여서	-11.4224
▁작품으로	-11.4232
▁엄마는	-11.4234
싫	-11.4235
▁스톤	-11.4237
▁씬이	-11.4237
석이	-11.4237
질질	-11.4239
▁변한	-11.424
▁보니깐	-11.4241
▁대한민국의	-11.4251
▁뻔함	-11.4251
▁결혼하고	-11.4253
▁먹은	-11.4253
▁여자들은	-11.4253
도아닌	-11.4254
개판	-11.4256
▁조조	-11.4259
▁주위	-11.4259
기억에	-11.4259
▁흥미가	-11.4263
gt	-11.4264
년생	-11.4265
▁어릴적에	-11.4266
병이	-11.4266
있다고	-11.4267
▁못되는	-11.4268
ra	-11.4269
▁광주	-11.4271
▁톱	-11.4272
▁인간에	-11.4272
▁가슴으로	-11.4273
▁우려	-11.4277
▁작위적	-11.4279
▁평점높	-11.428
▁나오던	-11.428
대중	-11.4281
▁망작이	-11.4281
▁No	-11.4283
▁,,,	-11.4284
둬	-11.4285
일지도	-11.4286
그렇다고	-11.4287
▁아까운데	-11.4287
적이지도	-11.4288
멋잇	-11.429
▁분노의	-11.429
▁봐요	-11.429
이군요	-11.429
▁해줄	-11.4291
▁강조	-11.4293
▁속편은	-11.4296
앜	-11.4297
▁사건이	-11.4297
편안하게	-11.4298
-10	-11.4302
▁극을	-11.4304
생각해	-11.4304
▁일점도	-11.4305
??????	-11.4307
▁이들이	-11.4308
▁내용이지만	-11.4313
하던지	-11.4316
▁맞음	-11.4318
▁할일	-11.4319
형이	-11.4321
▁되려	-11.4321
▁데려다	-11.4322
▁공감대	-11.4322
▁다가오	-11.4322
▁그녀가	-11.4322
▁나왔다는	-11.4323
발이	-11.4323
▁이러면	-11.4324
▁뚝	-11.4324
▁쓸쓸	-11.4324
겟지	-11.4326
▁적극	-11.4327
조잡하고	-11.4329
▁로드	-11.4329
중심	-11.433
셔야	-11.4331
▁버스	-11.4331
▁다시보면	-11.4332
들어서	-11.4332
de	-11.4333
▁표현을	-11.4335
읽어	-11.4338
싶었다	-11.4338
▁들어가는	-11.4339
▁말이야	-11.4339
▁ᅮᅲ	-11.434
▁자격	-11.4342
▁네이버에	-11.4343
물체	-11.4344
없게	-11.4344
▁보여줬	-11.4345
▁연출의	-11.4346
잇엇	-11.4349
아프	-11.435
야되는데	-11.435
즐겁	-11.4351
▁수백	-11.4353
▁연기들	-11.4356
질러	-11.4357
현실적	-11.4359
▁뽕	-11.436
놓는	-11.4361
연기자들	-11.4363
▁비디오용	-11.4363
주인공의	-11.4366
▁지루함과	-11.4368
산다	-11.437
었구나	-11.437
원작을	-11.4373
▁색다르	-11.4375
▁어설프	-11.4375
▁끝나면	-11.4375
질때	-11.4376
것일까	-11.4378
▁내려가	-11.4379
▁친절	-11.4379
▁나쁘지않	-11.4382
▁중독성	-11.4382
▁말지	-11.4383
▁시리즈로	-11.4383
▁돌아가고	-11.4384
된다는	-11.4386
▁포드	-11.4387
하던가	-11.4387
▁전하고자	-11.4387
▁법한	-11.4388
버리네	-11.439
동네	-11.439
눌	-11.4391
▁악당이	-11.4391
밨	-11.4395
▁볼걸	-11.4396
▁묻혀	-11.4398
▁과대평가	-11.4398
밌	-11.4398
갠	-11.4399
▁바랬	-11.44
q	-11.4401
였으나	-11.4401
멈	-11.4401
▁봤는대	-11.4401
▁스칼렛	-11.4401
▁스토리텔링	-11.4401
▁움직임	-11.4401
▁히틀러	-11.4401
뤘	-11.4401
쉰	-11.4401
쵸	-11.4401
▁뒷통수	-11.4401
▁서세원	-11.4401
▁자존심	-11.4401
▁불멸의	-11.4402
붓	-11.4402
▁배슬기	-11.4402
▁버금가	-11.4402
▁고릴라	-11.4402
▁지독한	-11.4402
▁미션임파서블	-11.4402
▁뽀로로	-11.4402
▁균형	-11.4402
▁이자벨	-11.4402
▁하야오	-11.4402
▁브라이언	-11.4402
▁다케시	-11.4402
▁타이밍	-11.4402
▁이렇지	-11.4402
▁짜여진	-11.4402
▁흥미롭다	-11.4402
▁아키라	-11.4402
▁너희들	-11.4402
▁놀랄	-11.4403
▁보지만	-11.4403
▁6.5	-11.4403
▁어울릴	-11.4403
▁초반은	-11.4403
▁빠져든다	-11.4403
▁새로울	-11.4404
▁헛소리	-11.4404
▁속도감	-11.4404
▁감동적이예요	-11.4405
▁주제곡	-11.4405
▁한결같	-11.4405
▁애절하	-11.4405
▁우울증	-11.4406
▁친일파	-11.4406
▁쓰나미	-11.4406
▁평범하지	-11.4406
▁한몫	-11.4406
애인	-11.4407
▁없으며	-11.4408
▁고딩때	-11.4408
▁걷는	-11.4408
▁잼있었음	-11.4409
▁살아갈	-11.4409
노력	-11.4409
▁추격씬	-11.4409
▁왜이러냐	-11.441
▁희극	-11.441
▁열받아서	-11.441
▁2002	-11.441
▁형태	-11.4411
▁아쉽습니다	-11.4411
▁무색	-11.4412
풀어	-11.4413
▁정사씬	-11.4414
▁작살	-11.4414
▁우월	-11.4414
▁알았습니다	-11.4414
▁묘사한	-11.4415
▁쿠바	-11.4415
점줍니다	-11.4416
▁약빨고	-11.4417
▁출연진들	-11.4418
▁영구와	-11.442
소재는	-11.4421
▁정글	-11.4421
▁왜이러지	-11.4422
우리가	-11.4423
▁이유없이	-11.4423
▁두가지	-11.4426
르르	-11.4426
▁유익한	-11.4427
▁먹먹하고	-11.4427
▁보는듯한	-11.4427
?)	-11.4427
▁충격적이다	-11.4427
▁유행어	-11.4429
▁아담샌들러	-11.4432
점점	-11.4432
▁소중함	-11.4433
▁떨어지지만	-11.4433
추천합니다	-11.4433
▁안듬	-11.4434
▁미치	-11.4434
▁안됩니다	-11.4435
▁취미	-11.4435
▁먹칠을	-11.4435
▁역겹고	-11.4435
▁어려웠	-11.4437
▁궁금증	-11.4437
▁책임감	-11.4437
▁시끄럽	-11.4439
▁급하게	-11.4439
▁몇년전에	-11.4439
▁낮추	-11.444
영화네	-11.444
탄은	-11.4441
▁구리고	-11.4442
▁빠르고	-11.4442
▁잼있는데	-11.4443
▁무작정	-11.4444
▁히치콕	-11.4444
▁어정쩡한	-11.4445
▁개인적	-11.4446
▁판타지를	-11.4446
▁일일	-11.4446
되는데	-11.4446
▁말하려고	-11.4446
▁어이없게	-11.4447
▁압권이다	-11.4447
▁성질	-11.4447
▁김성	-11.4447
풀이	-11.4448
▁사라지고	-11.4448
막장드라마	-11.445
▁먹먹해	-11.445
▁홀로	-11.4451
▁짧고	-11.4451
▁달달하고	-11.4452
▁알았지만	-11.4452
▁있기에	-11.4452
▁하셨	-11.4453
▁기대이상으로	-11.4453
▁소름돋는다	-11.4453
▁케이	-11.4456
▁채민서	-11.4456
▁수고하셨습니다	-11.4456
▁알았네요	-11.4457
캐릭터가	-11.4458
▁있었지	-11.4458
▁아기자기한	-11.4458
낮게	-11.4458
했구나	-11.4459
장을	-11.4459
▁해피엔딩으로	-11.4463
▁개성이	-11.4463
▁이작품	-11.4464
▁얻은	-11.4466
관을	-11.4466
나라의	-11.4466
▁그러니	-11.4467
▁애들용	-11.4467
▁야하다	-11.4469
▁만들었다면	-11.447
▁최저	-11.4471
▁아휴	-11.4471
▁극의	-11.4472
할수없는	-11.4474
▁고쳐	-11.4475
▁멋졌다	-11.4477
▁무슨생각으로	-11.4477
▁소비	-11.4478
워크	-11.4478
최강	-11.4479
▁진하게	-11.4479
▁윤계상	-11.448
▁변호사	-11.448
리플	-11.4483
▁지루하다고	-11.4488
▁조금더	-11.4489
▁엔딩까지	-11.449
▁생각남	-11.4492
▁샀	-11.4492
▁멈추	-11.4493
▁모르면	-11.4494
십니다	-11.4495
▁이루어진	-11.4496
주말	-11.4497
▁바비	-11.4497
년후	-11.4497
▁예전의	-11.45
나오더라	-11.4501
▁작업	-11.4503
▁빗	-11.4504
▁가운데	-11.4504
신듯	-11.4505
할텐데	-11.4508
▁2009	-11.4508
▁부를	-11.4508
▁후회없	-11.4509
▁질주	-11.451
▁즐거웠다	-11.451
▁높여	-11.4511
▁프로그램이	-11.4511
▁별하나도	-11.4514
▁제공	-11.4516
▁곽	-11.4517
▁영화한편	-11.4518
ᄃᄃᄃᄃ	-11.4523
주는것도	-11.4525
▁봐왔	-11.4525
▁벌레	-11.4525
주던	-11.4526
굿굿굿	-11.4526
▁빡치	-11.4527
▁귀요미	-11.4529
▁헬기	-11.4529
▁준수	-11.453
▁해야할	-11.453
▁그러니까	-11.453
▁좋은거	-11.4532
▁쓰면	-11.4532
▁강렬	-11.4535
▁추천함	-11.4535
려니	-11.4536
▁지금보니	-11.4538
▁비슷하다	-11.4539
▁챙겨보는	-11.4541
▁무명	-11.4542
▁과제	-11.4542
생각보다	-11.4543
일텐데	-11.4543
▁보고싶지	-11.4545
▁질질끌고	-11.4546
그런가	-11.4547
▁맞지만	-11.4548
과거	-11.455
▁못된	-11.455
▁팬이라	-11.455
▁개봉작	-11.455
▁한순간	-11.4553
▁의미하는	-11.4553
▁안보는데	-11.4554
▁일기	-11.4554
남을	-11.4555
▁찾아볼수	-11.4556
▁재밌지만	-11.4556
▁나오길	-11.4557
▁퉤	-11.4559
▁면도	-11.4561
▁난무하는	-11.4561
▁제작진이	-11.4562
완벽	-11.4564
▁후회할	-11.4565
이라는거	-11.4568
▁괜찮다고	-11.4568
마루	-11.4569
▁다수	-11.4569
▁만들어주	-11.4571
▁재밋엇	-11.4572
▁저에게	-11.4572
▁피가	-11.4573
▁써먹	-11.4574
▁높고	-11.4574
무서움	-11.4577
▁있어야지	-11.4578
재밌는영화	-11.4578
▁못봐주겠	-11.458
켄	-11.4582
▁정화	-11.4582
▁웃겼	-11.4584
▁볼만하고	-11.4585
마디	-11.4586
으므로	-11.4586
▁영화일뿐	-11.4587
씁쓸	-11.4587
▁노래들	-11.4587
줫	-11.4587
아름답	-11.4589
짤	-11.4589
▁재미업	-11.459
-_	-11.4592
▁PD	-11.4593
넌	-11.4593
쓰래기	-11.4594
열심히	-11.4594
통쾌	-11.4594
힐링	-11.4594
SF	-11.4595
▁예상되는	-11.4596
꼭보세요	-11.4596
▁나오지만	-11.4596
재밌었어요	-11.4597
▁그림자	-11.4597
▁죽어도	-11.4597
▁친구와	-11.4597
좋겠어요	-11.4598
개뿔	-11.4598
겟네	-11.4599
▁중요한건	-11.46
▁잘만든영화	-11.46
그럴	-11.4601
▁보고도	-11.4602
ig	-11.4602
차별	-11.4603
듯합니다	-11.4603
대단하다	-11.4603
연습	-11.4604
조절	-11.4604
잘봤어요	-11.4606
▁리스트	-11.4608
▁꼭보시길	-11.461
환경	-11.461
알았	-11.4611
중인데	-11.4612
▁자매	-11.4613
▁팬인데	-11.4614
검사	-11.4615
주변	-11.4615
단지	-11.4615
▁의아	-11.4615
예쁘고	-11.4615
▁보기전에	-11.4616
다시보고싶	-11.4616
하네여	-11.4616
▁제한	-11.4617
엇던	-11.4617
스포	-11.4618
▁귀한	-11.4619
데리고	-11.462
▁직원	-11.4621
▁개실망	-11.4622
▁★	-11.4624
사랑해요	-11.4624
장에	-11.4625
▁나간	-11.4625
▁목사님	-11.4628
순수	-11.463
친구가	-11.4632
▁우수	-11.4632
▁현상	-11.4634
한거지	-11.4634
///	-11.4636
실수	-11.4637
▁주인공과	-11.4638
났습니다	-11.4639
좋았던	-11.4641
▁애기들	-11.4642
▁아니여	-11.4642
▁패기	-11.4646
본인	-11.4648
작가의	-11.4648
군대	-11.4648
▁대구	-11.4648
▁활동	-11.4648
웠던	-11.4649
박스	-11.4649
▁연기력을	-11.4649
중반	-11.465
전문가	-11.4653
투성이	-11.4654
▁너네	-11.4656
!!!!!!!!!!!	-11.4657
▁여주는	-11.4658
▁레드	-11.4659
▁줄거리는	-11.4659
뿌리	-11.4661
ch	-11.4664
▁나같은	-11.4664
▁벗어나지	-11.4666
리그	-11.4668
잤다	-11.4668
▁그걸로	-11.467
여기서	-11.467
▁비평	-11.4672
주의를	-11.4674
▁지워	-11.4674
▁뭐든	-11.4675
하자면	-11.4676
▁티비에	-11.4678
토리	-11.4678
▁찍어도	-11.4683
진실	-11.4683
▁살아있	-11.4684
▁대형	-11.4685
줄께	-11.4686
▁국민들	-11.4686
▁킬링타임으로	-11.4687
드라마로	-11.4687
분명	-11.4688
▁장군	-11.4694
▁나지	-11.4695
▁랩	-11.4701
포기	-11.4702
▁이런데	-11.4703
에로영화	-11.4703
▁주인공인	-11.4707
▁do	-11.471
▁저버리지	-11.4711
▁뜻이	-11.4712
시로	-11.4712
▁무도	-11.4713
▁가식	-11.4714
로서는	-11.4716
▁죽임	-11.4719
할말	-11.472
▁괜찮은영화	-11.4721
▁중국인	-11.4722
많아	-11.4722
달아	-11.4723
▁한국인이	-11.4726
▁각인	-11.4727
자유	-11.4729
▁알앗	-11.4731
▁속지	-11.4733
▁공감은	-11.4736
버그	-11.4736
▁우롱	-11.4739
배우님	-11.4739
잡을	-11.474
▁잡지	-11.4741
게되는	-11.4743
▁-_-;	-11.4743
결말도	-11.4743
▁집중하게	-11.4747
위가	-11.4751
▁감성에	-11.4752
에서부터	-11.4754
잼잇	-11.4755
▁따뜻함	-11.4758
▁차리	-11.4762
▁돋는	-11.4762
이라고는	-11.4764
▁해리	-11.4765
▁잊혀지지가	-11.4766
남자의	-11.4766
▁될지	-11.4766
고싶어	-11.4767
▁루즈	-11.4768
▁빡	-11.477
ᅲᅲᅲᅲᅲᅲᅲᅲᅲᅲᅲᅲᅲᅲᅲᅲ	-11.4774
▁나왔었	-11.4774
▁평가할	-11.4774
▁안나와	-11.4776
▁생각과	-11.4781
▁미래의	-11.4782
하더라도	-11.4783
▁파일	-11.4786
▁이것을	-11.4789
▁지나면	-11.4794
아닌가요	-11.4795
차가	-11.4796
돌리	-11.4797
▁편지	-11.4799
▁해주었	-11.48
바래	-11.4805
▁감동까지	-11.4807
▁대상	-11.4807
니까요	-11.4808
이라는걸	-11.4808
▁지네	-11.4809
▁연출이나	-11.4812
▁본적	-11.4813
▁영화제	-11.4817
▁웃길	-11.4817
▁싱	-11.4818
▁2006	-11.4819
▁기억하고	-11.4819
겄	-11.482
▁좋으면	-11.482
▁망하는	-11.4823
주인공들	-11.4826
해야하는	-11.4827
나옵니다	-11.4827
▁나비	-11.4828
밑	-11.483
▁피어	-11.4831
억울	-11.4835
▁제목부터	-11.4836
캠	-11.4837
준비	-11.4838
▁뛰쳐	-11.4838
▁궁금해	-11.4838
▁제목도	-11.484
▁청춘들	-11.4841
▁따뜻해	-11.4841
▁녹화	-11.4842
▁벗는	-11.4843
▁지능	-11.4844
▁해보고	-11.4845
▁미스터	-11.4845
▁과거에	-11.4846
자극	-11.4848
된다고	-11.4848
▁상당	-11.4849
▁만화로	-11.4851
▁해줘서	-11.4851
스럽지	-11.4852
▁현실적	-11.4852
륜	-11.4852
▁불꽃	-11.4853
된거	-11.4855
빤	-11.4855
옵	-11.4855
▁놓칠	-11.4855
랙	-11.4855
깡	-11.4855
핏	-11.4856
뭇	-11.4856
넬	-11.4856
짬	-11.4856
힝	-11.4856
▁Bad	-11.4856
▁드릅게	-11.4856
▁몸부림	-11.4856
▁볼까말까	-11.4856
▁봤으나	-11.4856
▁샤를리즈	-11.4856
▁샤말란	-11.4856
▁애틋한	-11.4856
▁여고괴담	-11.4856
▁인상깊다	-11.4856
▁쿠엔틴	-11.4856
뜰	-11.4856
붐	-11.4856
쪄	-11.4856
▁손오공	-11.4856
▁쥬라기공원	-11.4856
윙	-11.4856
▁맛깔나	-11.4856
▁삼국지	-11.4856
▁정확한	-11.4856
▁멸망	-11.4856
▁부조리	-11.4856
▁당췌	-11.4856
▁깨끗하	-11.4856
▁두려워	-11.4856
▁이정현	-11.4856
▁테러리스트	-11.4856
▁퍼펙트	-11.4856
▁쪽바리	-11.4856
▁며칠	-11.4856
▁국뽕	-11.4857
▁왔다갔다	-11.4857
▁ᄌᄅ	-11.4857
▁베리굿	-11.4857
▁여고생	-11.4858
▁음모론	-11.4858
▁이겨내	-11.4858
▁힘듬	-11.4858
▁무뇌	-11.4858
▁종결	-11.4859
▁있었으나	-11.4859
▁극장개봉	-11.4859
▁브금	-11.4859
▁하여간	-11.4859
▁있었을텐데	-11.486
▁위안부	-11.486
본다면	-11.486
개드림	-11.486
▁최강희	-11.486
▁줄거리에	-11.486
시기를	-11.4861
부분에서	-11.4861
▁반항	-11.4861
▁창문	-11.4861
▁주셔서	-11.4862
살짜리	-11.4862
▁괜찮았	-11.4862
▁연락	-11.4863
▁공격	-11.4863
▁바뀌었	-11.4863
▁모르겠습니다	-11.4863
▁식상하	-11.4864
▁에혀	-11.4864
▁생생하다	-11.4864
▁지인	-11.4864
▁모든면에서	-11.4864
▁바라보	-11.4864
▁감정에	-11.4864
▁안타깝지만	-11.4864
해선	-11.4864
▁2007	-11.4865
▁계단	-11.4866
▁타입	-11.4866
▁고집	-11.4867
▁독재	-11.4868
▁어필	-11.4869
센트	-11.4869
▁양반	-11.487
▁궁금하네요	-11.487
서로	-11.4871
▁오유에서	-11.4872
▁않았어요	-11.4872
▁친구들이랑	-11.4872
슬픈	-11.4873
있는지	-11.4873
▁파워	-11.4874
▁키스신	-11.4874
▁콜린퍼스	-11.4875
▁평점테러	-11.4876
질질끄	-11.4876
▁이러냐	-11.4877
▁좋은영화다	-11.4877
이야기가	-11.4878
▁드라마에서	-11.4879
▁등장인물들이	-11.488
▁빠르게	-11.488
▁보석같은	-11.4881
▁웃기려고	-11.4881
▁높음	-11.4881
▁몰입도는	-11.4882
▁어이없어	-11.4882
▁반복되는	-11.4882
▁초점을	-11.4883
▁쓸쓸한	-11.4883
▁앞서간	-11.4883
▁약을	-11.4885
▁들었음	-11.4885
▁호강	-11.4885
왔어요	-11.4886
▁배제	-11.4887
▁바가	-11.4888
▁안타깝	-11.4889
▁ᄏᄏᄏᄏᄏᄏᄏᄏᄏᄏᄏᄏ	-11.489
▁점은	-11.4891
▁무방	-11.4891
▁과하게	-11.4891
▁귀엽네요	-11.4892
▁위안	-11.4892
▁다큐영화	-11.4893
▁철학이	-11.4894
▁생각된다	-11.4894
▁보여줬는데	-11.4895
▁되겠다	-11.4895
▁심하네	-11.4897
▁보실	-11.4897
▁갑이다	-11.4897
▁루시	-11.4897
▁-1	-11.4897
▁이쁘네요	-11.4898
▁음악의	-11.4898
▁수호	-11.4898
▁우울하고	-11.49
▁봉태규	-11.49
▁최지우	-11.4901
▁감상하	-11.4901
등을	-11.4902
▁어렵게	-11.4904
▁접한	-11.4904
▁안되지	-11.4907
▁남습니다	-11.4907
▁무시하고	-11.4908
위해	-11.4909
▁홍수	-11.4909
▁허비	-11.4909
▁웃어야	-11.491
▁무장	-11.491
▁불쾌함	-11.4911
▁짜증났	-11.4912
▁오늘날	-11.4913
▁유승준	-11.4913
▁김래원	-11.4913
▁크리스틴	-11.4913
▁치밀하고	-11.4914
▁안죽	-11.4916
▁남자친구	-11.4917
▁말대로	-11.4917
▁느껴야	-11.4917
..,,	-11.492
▁극적	-11.492
▁전반적	-11.4922
▁고급	-11.4922
▁끌려	-11.4923
▁허술함	-11.4923
▁이선균	-11.4926
포스	-11.4926
▁안타까워	-11.4926
▁처음봄	-11.4926
▁AV	-11.4926
▁내취향은	-11.4927
▁모처럼	-11.4927
▁7~8	-11.4929
포스터보고	-11.493
볼라고	-11.4934
▁잉	-11.4934
▁버리는	-11.4935
▁넘어가는	-11.4938
▁꽃보다	-11.4941
▁쫓아	-11.4943
▁지날	-11.4944
▁여운이남는	-11.4944
▁거시기	-11.4946
되기	-11.4949
회까지	-11.4949
▁한방에	-11.4951
▁김남길	-11.4951
▁오유	-11.4951
▁단순하고	-11.4952
▁변하는	-11.4952
▁놀람	-11.4952
▁봤어도	-11.4953
▁이상형	-11.4954
▁아픔과	-11.4954
키우	-11.4954
▁유머와	-11.4957
▁싶었음	-11.4958
▁명작중의	-11.496
여자들	-11.496
▁않겠다	-11.496
귀엽	-11.4961
▁용기를	-11.4961
영화중에	-11.4962
▁자신감	-11.4964
▁샹	-11.4964
▁동료	-11.4964
▁추억에	-11.4967
▁늘어놓	-11.4968
라기보단	-11.497
▁않았을	-11.497
▁따라하기	-11.497
순수하게	-11.4973
▁잔인하다	-11.4973
네ᅳᅳ	-11.4974
▁만족스럽	-11.4974
▁나가고	-11.4975
유루	-11.4977
▁못지	-11.4978
▁못참	-11.4978
스와	-11.4979
▁처리	-11.4982
▁몰고	-11.4982
▁빨아	-11.4984
리즈	-11.4986
▁표현된	-11.4986
재희	-11.4987
상황이	-11.4989
둘다	-11.499
▁스릴러의	-11.4991
▁노잼이다	-11.4991
▁오래전	-11.4995
▁현실성도	-11.4997
무엇	-11.4997
▁보느라	-11.4998
▁주는건	-11.4999
▁하지말고	-11.4999
분장	-11.5003
▁up	-11.5003
▁느려	-11.5004
▁심장을	-11.5005
▁싶을정도로	-11.5005
▁역겨워	-11.5005
▁느끼는게	-11.5006
제작비	-11.5006
me	-11.5007
▁죠	-11.5007
이야기를	-11.5008
▁오우	-11.501
▁성장기	-11.501
▁신기할	-11.5011
▁감독들	-11.5011
함께	-11.5012
▁상업적	-11.5013
▁뜬	-11.5014
▁국내에서	-11.5014
보였다	-11.5015
▁꺄	-11.5015
▁이중	-11.5018
상실	-11.5019
뭐임	-11.5019
로선	-11.502
영화라니	-11.5021
장면에선	-11.5022
▁ever	-11.5026
박사	-11.503
▁ᄊ	-11.503
났는데	-11.5034
재밋어	-11.5038
▁잼있고	-11.5038
우정	-11.5039
▁아이디어가	-11.5042
▁보수	-11.5043
▁탈을	-11.5043
액션도	-11.5045
▁나오나	-11.5045
▁줄은	-11.5045
▁끝장	-11.5045
▁일어났	-11.5046
▁음악까지	-11.5046
▁.........	-11.5047
▁인간미	-11.5048
듯한데	-11.5049
▁동원	-11.5051
▁중세	-11.5051
▁끌지	-11.5052
윈	-11.5055
▁야동을	-11.5056
▁조성	-11.5058
▁감동이네요	-11.5061
▁즐겨보	-11.5061
싼	-11.5061
델	-11.5061
떄문에	-11.5061
▁딴짓	-11.5062
▁얼굴을	-11.5063
▁보냐	-11.5063
V	-11.5063
▁기다리는	-11.5063
얻	-11.5064
사랑하는	-11.5065
펜	-11.5065
정의	-11.5067
▁속아	-11.5067
곰	-11.5067
쭉	-11.5068
W	-11.5069
캬	-11.5069
핵노잼	-11.507
아쉬움	-11.507
도저히	-11.5071
새로운	-11.5072
한마디	-11.5073
독립영화	-11.5073
하심	-11.5074
▁시간의	-11.5074
재밌었음	-11.5075
▁가사	-11.5076
▁가는데	-11.5077
▁영화였네요	-11.5078
ent	-11.5079
역사상	-11.5079
종교	-11.508
▁설치	-11.508
선물	-11.5081
▁닭	-11.5082
리뷰	-11.5082
생각하고	-11.5087
▁만났다	-11.5087
거기다	-11.5087
▁치곤	-11.5087
▁열자	-11.5088
년은	-11.5089
▁혀	-11.509
▁봤을때는	-11.5091
응원	-11.5092
레알	-11.5092
낸다	-11.5093
극으로	-11.5095
인것같다	-11.5097
▁없는거	-11.5098
▁무서운영화	-11.5099
잼있어요	-11.5102
했어야	-11.5102
▁추적	-11.5102
▁중딩	-11.5103
스케일	-11.5103
▁잠만	-11.5103
라는건지	-11.5106
▁쩔고	-11.5106
▁벗고	-11.5107
▁빠르	-11.5107
▁시절이	-11.5107
▁낫네	-11.5107
원도	-11.5108
좋았는데	-11.5109
란걸	-11.5109
기회를	-11.511
▁암울	-11.511
▁끌리는	-11.511
리라	-11.511
실화라서	-11.5111
하지말자	-11.5112
십대	-11.5112
▁우정이	-11.5112
▁귀여웠	-11.5113
▁애쓴	-11.5113
▁않기	-11.5116
아침	-11.5118
상처	-11.5118
▁목적이	-11.5119
▁윈	-11.5119
께요	-11.512
내인생	-11.5122
▁메이	-11.5123
같습니다	-11.5126
거리고	-11.5127
을까요	-11.5127
버린다	-11.5128
▁최강의	-11.5129
▁고어물	-11.513
▁줄거리도	-11.5132
▁다음주	-11.5133
▁그러다	-11.5134
▁노력은	-11.5136
세력	-11.5136
▁낚였어	-11.5136
▁경지	-11.514
one	-11.5141
▁악인	-11.5142
▁볼수있다	-11.5143
▁가지게	-11.5143
겁나	-11.5144
기다리	-11.5146
▁혐오	-11.5146
싶어	-11.5148
또다시	-11.5149
뻔하고	-11.515
거리며	-11.515
▁쉐	-11.515
▁곳곳에	-11.515
▁그것뿐	-11.5153
▁살자	-11.5155
▁재미없다는	-11.5155
▁질러	-11.5156
▁나갈	-11.5156
식을	-11.5157
▁발전이	-11.5158
▁껴	-11.5158
▁전혀없는	-11.5159
▁갖는	-11.516
▁계시	-11.5162
이아닌	-11.5163
란이	-11.5164
라기보다	-11.5167
▁지루하지도	-11.5168
▁자는	-11.5168
▁띠	-11.517
연기너무잘	-11.5171
▁전쟁에	-11.5171
히고	-11.5174
겨서	-11.5176
▁글로	-11.5178
▁시망	-11.5178
▁데뷔	-11.5178
▁실망시키지	-11.5179
여진	-11.5181
▁쩜	-11.5184
없구	-11.5185
▁그곳	-11.5186
▁재밋네	-11.5186
▁주연이	-11.5187
▁모든것	-11.5187
▁끊어	-11.519
▁미칠	-11.519
아저씨가	-11.5193
28	-11.5194
▁스펙타클	-11.5196
▁진실이	-11.5198
op	-11.52
먹지	-11.5206
개연성없는	-11.5208
▁특집	-11.5209
웃고	-11.521
▁라면	-11.5212
▁여성들	-11.5213
많네	-11.5222
▁밥먹	-11.5222
▁높았	-11.5222
▁연예인이	-11.5226
코가	-11.5228
▁보기전	-11.5229
는건데	-11.5231
업고	-11.5232
▁뿌	-11.5233
;;;;;;	-11.5234
▁뛰어났	-11.5234
▁액	-11.5235
▁들을	-11.5237
▁어이가없	-11.5238
▁땀	-11.5241
▁내인생최고의	-11.5241
왔습니다	-11.5241
확실하게	-11.5246
기본적으로	-11.5247
말은	-11.5248
▁흡사	-11.5248
본적	-11.5249
잼씀	-11.5249
대화	-11.5252
사람의	-11.5256
▁영상미에	-11.5259
말라	-11.5259
▁끝부분	-11.5262
▁망쳤	-11.5266
우드	-11.5266
재밋고	-11.5268
있었음	-11.5269
▁고현정	-11.5269
성격	-11.5269
▁이란	-11.5269
파리	-11.5274
어버린	-11.5276
▁잼없어	-11.5279
▁궁금하게	-11.5281
들과는	-11.5281
주려고	-11.5282
▁지쳐	-11.5284
▁볼만은	-11.5286
▁재능이	-11.5287
감도	-11.5287
▁본시리즈	-11.5288
드림	-11.5288
감명깊	-11.5289
핳	-11.529
들어가	-11.5291
렵	-11.5291
▁영화사에	-11.5292
▁사장	-11.5294
엄마한테	-11.5295
▁욕심이	-11.5297
결말은	-11.53
▁믿기	-11.53
화나	-11.5302
▁파이	-11.5305
▁낫다고	-11.5307
▁돋보인	-11.5309
▁남한	-11.5311
률	-11.5312
할수록	-11.5313
▁너무하다	-11.5313
▁추천해주고	-11.5314
▁가르쳐	-11.5316
켓	-11.5317
..10	-11.5318
▁견자단이	-11.5319
▁신뢰	-11.5319
▁동의	-11.5321
▁재미까지	-11.5321
▁초호화	-11.5324
▁도로	-11.5324
▁네이버는	-11.5324
잣	-11.5325
유발하는	-11.5326
▁그사람	-11.5327
아이들이	-11.5327
전부	-11.5327
▁시대상	-11.5327
▁휴먼	-11.5327
▁일어	-11.5327
얀	-11.5329
▁아시아	-11.5329
꼈	-11.5329
펑	-11.5329
▁매튜	-11.533
띵	-11.5331
낌	-11.5331
앨	-11.5331
끗	-11.5332
낄	-11.5332
쉴	-11.5332
팩	-11.5332
킥	-11.5332
겸	-11.5332
엣	-11.5332
▁늦은	-11.5332
쌔	-11.5332
캅	-11.5332
▁겪는	-11.5332
▁봤건만	-11.5332
▁사이코패스	-11.5332
▁어쨋든	-11.5332
▁이스라엘	-11.5332
▁이슬람	-11.5332
▁죄책감	-11.5332
▁쫄깃	-11.5332
갸	-11.5332
쑤	-11.5332
^0^	-11.5332
▁썰렁	-11.5332
▁장동민	-11.5332
ᅧ	-11.5332
▁꼽히는	-11.5332
▁유준상	-11.5332
▁별론데	-11.5332
▁부성애	-11.5332
▁애잔한	-11.5332
|	-11.5332
▁기가막히	-11.5332
▁배두나	-11.5332
▁이수근	-11.5332
▁그이하도	-11.5332
▁해운대	-11.5332
▁좌좀	-11.5333
▁추구하는	-11.5333
심장	-11.5333
라운드	-11.5333
▁블루레이	-11.5333
릅니다	-11.5333
▁테스트	-11.5333
▁관찰	-11.5333
▁오줌	-11.5333
▁유승호	-11.5333
▁챙기	-11.5333
▁크로우	-11.5333
▁말이필요없음	-11.5333
▁박정희	-11.5334
▁이리저리	-11.5334
▁김민준	-11.5334
▁은은한	-11.5334
▁올만에	-11.5334
▁나올법한	-11.5334
▁솔로	-11.5334
▁ᄉᄀ	-11.5334
▁대기업	-11.5334
▁ᄉᄉ	-11.5334
▁꼽으라	-11.5335
▁무개념	-11.5335
▁찍었을까	-11.5335
▁감정표현	-11.5335
▁물고기	-11.5336
▁순간순간	-11.5336
▁명량	-11.5337
▁맘에든다	-11.5337
▁주제의식	-11.5337
▁잉여	-11.5338
▁녹아있는	-11.5338
▁미화시킨	-11.5338
▁종종	-11.5338
▁위대하다	-11.5338
▁제외하면	-11.5339
▁폭파	-11.5339
▁‘	-11.534
▁건축	-11.534
▁무관심	-11.534
▁개성있는	-11.5341
▁모를까	-11.5341
▁사례	-11.5342
▁안무섭고	-11.5342
▁찾아가는	-11.5343
▁마련	-11.5343
▁근본	-11.5343
▁지닌	-11.5343
▁세번째	-11.5344
▁되버린	-11.5344
▁케이스	-11.5344
라며	-11.5344
▁기발하고	-11.5345
▁느껴지네요	-11.5345
▁담겨져	-11.5345
▁욕설	-11.5345
▁미개한	-11.5347
▁절묘한	-11.5348
▁안무서움	-11.5348
▁끼워넣	-11.5348
▁못알아	-11.5349
▁누구에게나	-11.5349
▁일일드라마	-11.535
▁별로지만	-11.535
▁윌리엄스	-11.5351
▁알려지지	-11.5351
▁봤던건데	-11.5351
▁선배	-11.5352
▁기절	-11.5352
▁풍부한	-11.5352
▁비슷해서	-11.5352
▁짝사랑	-11.5352
▁양키	-11.5353
▁프레	-11.5353
울때	-11.5354
▁고루	-11.5354
무기	-11.5356
▁구지성	-11.5356
▁평작	-11.5358
▁보지말고	-11.5358
▁전개를	-11.5358
▁여전사	-11.5358
▁위선	-11.5359
▁나른	-11.5359
인줄알고	-11.5359
▁건달	-11.5359
보는줄	-11.536
▁없죠	-11.5361
>_	-11.5362
▁전달하고자	-11.5362
▁어쩌라는	-11.5362
▁연기나	-11.5362
▁니미	-11.5364
▁승화	-11.5364
▁중심으로	-11.5364
▁빠르기	-11.5364
▁거친	-11.5364
▁좋았네요	-11.5365
▁잼남	-11.5365
▁지루했던	-11.5365
▁맙소사	-11.5366
▁트와일라잇	-11.5366
▁천재적인	-11.5366
♡♡♡	-11.5366
▁데드	-11.5367
▁말까	-11.5368
▁재밋던데	-11.5371
▁하시길	-11.5371
▁무식한	-11.5371
▁198	-11.5372
▁선정	-11.5372
▁진지하고	-11.5372
▁놀라게	-11.5375
▁이모양	-11.5377
박자	-11.5377
▁자신에게	-11.5377
▁그런대로	-11.5378
▁구석이	-11.5378
▁이건아니다	-11.5379
일만에	-11.5379
▁개나소나	-11.5379
▁차인표	-11.5379
▁행복하다	-11.5381
▁감동이에요	-11.5381
▁숨어있는	-11.5381
더구만	-11.5384
쩌네	-11.5384
넣은	-11.5385
되는게	-11.5385
됐으면	-11.5387
슬슬	-11.5389
▁예정	-11.5389
▁최악이네	-11.539
▁짙은	-11.539
해졌	-11.539
▁촌스럽다	-11.539
▁팔아	-11.5391
▁나았을	-11.5391
▁대학교	-11.5391
▁여운과	-11.5391
▁애들한테	-11.5391
▁되는지	-11.5392
▁엠비씨	-11.5392
▁그려진	-11.5392
▁한니발	-11.5393
▁막장영화	-11.5393
▁순정	-11.5394
▁땀을	-11.5394
▁새롭다	-11.5395
▁있다는걸	-11.5397
▁방황하는	-11.5397
▁비트	-11.5397
▁오늘은	-11.5398
미야	-11.5398
▁딸을	-11.5398
▁후려	-11.5399
같으면	-11.54
500	-11.5401
▁자식들	-11.5402
▁동화책	-11.5403
노래도	-11.5404
감동적인	-11.5404
▁이루는	-11.5405
우와	-11.5405
▁아일랜드	-11.5405
▁내리는	-11.5406
▁짜릿함	-11.5406
▁되돌아보게	-11.5406
만든거	-11.5408
되는거	-11.5411
▁도덕	-11.5412
▁안달	-11.5412
▁영화이지만	-11.5413
▁요즘엔	-11.5414
▁시청자가	-11.5415
▁열번	-11.5415
되지만	-11.5416
▁당대	-11.5416
▁덮어	-11.5416
▁좋은영화입니다	-11.5417
▁자막으로	-11.5418
▁고마워	-11.5418
▁서인국	-11.5419
▁프로젝트	-11.5419
따위는	-11.5419
▁장미	-11.5419
▁자막이	-11.5419
▁어린이들	-11.5419
싶음	-11.542
지금은	-11.5422
▁갈릴	-11.5422
▁못한게	-11.5424
▁사람인데	-11.5425
영환가	-11.5426
마지막장면	-11.5427
▁놀라고	-11.5427
▁넣고	-11.5428
좋겠	-11.5429
뿌려	-11.5431
릴수	-11.5433
▁심오하	-11.5434
▁말도안돼	-11.5435
▁세기	-11.5437
▁그려내	-11.5437
▁기념	-11.5437
▁욕나옴	-11.5438
▁저예산으로	-11.5438
선을	-11.544
▁화가나	-11.544
▁실망입니다	-11.544
▁짧지	-11.5441
▁웬지	-11.5442
인디	-11.5443
▁이해하	-11.5443
▁일베충	-11.5444
인데요	-11.5444
장군	-11.5445
▁이딴영화가	-11.5447
▁그녀를	-11.5448
▁눈빛연기	-11.5448
재밋는	-11.5449
▁웃다	-11.545
니아	-11.5452
▁가위	-11.5455
▁비행	-11.5458
▁호텔	-11.546
부모	-11.546
▁멋잇	-11.5461
였던거	-11.5462
▁말길	-11.5463
서방	-11.5465
▁붙잡	-11.5466
▁돈아까움	-11.5466
▁극과	-11.5468
러운	-11.5472
▁꾹	-11.5472
▁시사회로	-11.5473
▁근래에	-11.5473
▁시사	-11.5473
아이는	-11.5474
▁윌	-11.5476
▁재미없는데	-11.5477
▁여름에	-11.5483
▁부족했다	-11.5484
▁대여	-11.5485
▁살아가	-11.5486
하는사람	-11.5486
▁여동생	-11.5488
▁조은	-11.5491
▁올려주	-11.5493
▁그릇	-11.5494
녀석	-11.5496
▁사실은	-11.5496
▁유치할	-11.5497
▁산만	-11.5501
▁보아야	-11.5502
으니깐	-11.5503
준이	-11.5504
물고	-11.5506
교사	-11.5506
▁보시고	-11.5506
▁진리다	-11.5507
▁낯	-11.5507
▁중간까지	-11.5508
▁할듯	-11.5509
▁고등학교때	-11.5511
ᄏᄏᄏᄏᄏᄏᄏᄏᄏᄏᄏᄏᄏᄏ	-11.5513
▁요소들	-11.5513
▁시리즈물	-11.5514
▁포스가	-11.5516
▁장치	-11.5516
머니	-11.5517
피어스	-11.5521
▁사전	-11.5522
▁장사	-11.5523
▁지나가는	-11.5523
낮아서	-11.5523
나올때마다	-11.5525
▁있을까요	-11.5526
어주는	-11.5527
▁화면에	-11.5528
▁정상인	-11.5528
▁머라	-11.5529
▁애매한	-11.5529
쌍	-11.5531
▁미워	-11.5531
서라도	-11.5534
▁되다니	-11.5535
안됐	-11.5536
적임	-11.5537
▁아는데	-11.5538
▁강요하는	-11.5539
▁된장	-11.5539
잔인하	-11.554
▁울뻔	-11.5549
어울림	-11.5549
▁드리고	-11.5552
▁내용도없고	-11.5555
추억이	-11.5555
소재를	-11.5556
▁만드는데	-11.556
등록	-11.5561
인양	-11.5562
▁있을때	-11.5563
썻	-11.5563
▁헤어	-11.5565
울고	-11.5567
▁붙어	-11.5568
벤	-11.5568
및	-11.5568
본방사수	-11.5569
뭉	-11.5569
대한민국	-11.557
아닐까	-11.557
▁에스	-11.5571
해지네요	-11.5571
▁작렬	-11.5572
▁맺	-11.5574
▁곳에	-11.5577
양의	-11.5577
탈출	-11.5578
표절	-11.5578
였을까	-11.5579
생기고	-11.558
▁시작해	-11.558
▁사형	-11.5581
▁신부	-11.5581
설레	-11.5584
동영상	-11.5585
▁대변	-11.5585
▁재밌으면	-11.5585
할아버지	-11.5586
▁간직	-11.5586
명도	-11.5587
▁살릴	-11.5588
나머지	-11.5588
연결	-11.5589
▁그후	-11.5589
▁만들려	-11.559
남친	-11.5591
▁원한	-11.5592
▁지루하진	-11.5593
▁진실은	-11.5593
▁낮을	-11.5595
감동적이다	-11.5595
위에서	-11.5595
▁보신분들	-11.5596
▁채널을	-11.5607
▁이브	-11.5609
▁성격이	-11.5609
▁저건	-11.561
▁주네	-11.5611
▁세트	-11.5612
▁남아도	-11.5614
귀엽고	-11.5614
▁아까울정도	-11.5614
▁보여줘야	-11.5615
▁아역들	-11.5615
집중	-11.5616
▁긴장되	-11.5616
▁산만하	-11.5616
버리면	-11.5617
출연진	-11.5619
▁볼꺼	-11.562
점임	-11.562
▁평점도	-11.5622
로써는	-11.5625
..-_-	-11.5625
돈아까워	-11.5627
▁하루하루	-11.5627
▁켄	-11.5628
작전	-11.5628
감정이	-11.563
영환줄	-11.5631
밤에	-11.5635
귀엽다	-11.5638
여친	-11.564
▁그래요	-11.5642
▁쯧	-11.5642
▁집중력	-11.5647
▁후속	-11.5651
인형	-11.5652
평점에	-11.5653
소설을	-11.5653
▁신은	-11.5654
낚였	-11.5654
▁이것만	-11.5655
▁명작이지	-11.5655
▁생각하니	-11.5656
팬으로써	-11.566
라스	-11.566
라면서	-11.5661
지식	-11.5661
뻔함	-11.5662
▁일깨워준	-11.5663
잼있다	-11.5665
신경	-11.5666
마지막회	-11.5667
장진영	-11.5667
▁찍으면	-11.5668
궁금하	-11.5674
왔으면	-11.5674
▁너도	-11.5676
▁일본어	-11.5676
▁종류	-11.5676
▁로맨스영화	-11.5677
▁세명	-11.5678
▁실화라	-11.5681
▁심오	-11.5681
▁더한	-11.5682
아니지만	-11.5682
▁한쪽	-11.5683
33	-11.5684
생각함	-11.5684
▁죽음이	-11.5687
▁부분에	-11.5688
▁본거지	-11.5691
공간	-11.5697
꺼임	-11.5698
맞은	-11.57
대에	-11.57
보다더	-11.57
었더라면	-11.5701
▁주저	-11.5703
먹는다	-11.5705
▁묘사가	-11.5706
▁빛났	-11.5707
▁알기	-11.5708
시청자	-11.5709
하게만드는	-11.571
!!!!!!!!!!!!	-11.5711
▁나오는건	-11.5711
▁싶게	-11.5714
▁값	-11.5714
▁것입니다	-11.5714
▁길어	-11.5716
▁머릿속에	-11.5717
▁즐기기	-11.5717
그걸	-11.5718
꿈을	-11.5718
▁미친영화	-11.5718
▁그리스	-11.5718
▁어색해	-11.5722
▁유치하지	-11.5722
아들이	-11.5723
인다	-11.5723
▁원작인	-11.5726
▁나오는게	-11.5726
▁나온건	-11.5728
▁장기	-11.5729
▁스텝	-11.5733
하려다	-11.5733
삶을	-11.5734
▁이런식	-11.5741
역이	-11.5743
초반에	-11.5752
▁사서	-11.5753
▁있을듯	-11.5753
▁뗄수	-11.5754
죽이는	-11.5755
성장	-11.5757
▁내용없는	-11.5757
부의	-11.5758
▁그로테스크	-11.576
▁존재하지	-11.5761
장난치	-11.5762
▁제리	-11.5766
▁자체다	-11.5766
..-_-;;	-11.5767
가능	-11.5777
▁끄고	-11.578
즐거워	-11.578
▁나온영화	-11.5784
역시나	-11.5785
났네	-11.5788
▁비오는	-11.5789
et	-11.5793
솜	-11.5794
▁잼이	-11.5795
렴	-11.5797
▁별로네	-11.5803
▁그립	-11.5806
▁소녀들	-11.5806
▁매력도	-11.5807
▁분위기만	-11.5807
▁개명작	-11.581
략	-11.581
비판	-11.5811
▁요즘에	-11.5811
법을	-11.5812
▁작작	-11.5815
▁기대해	-11.5816
▁기대하는	-11.5818
어색한	-11.5819
떤	-11.582
▁필요하	-11.5822
▁읽었	-11.5823
정말로	-11.5824
볼걸	-11.5824
▁소방관	-11.5826
긍	-11.5827
인권	-11.5827
▁내인생에	-11.5828
댈	-11.583
님과	-11.583
꿨	-11.5831
자마자	-11.5832
찜	-11.5832
왈	-11.5832
껍	-11.5832
훼	-11.5832
▁ᄊᄅᄀ	-11.5832
▁깊다	-11.5832
▁낄낄	-11.5832
▁롱테이크	-11.5832
▁막무가내	-11.5832
▁박유천	-11.5832
▁스포일러	-11.5832
▁에니메이션	-11.5832
▁에반게리온	-11.5832
▁역겨움	-11.5832
乃	-11.5832
ᄋᄉᄋ	-11.5832
▁this	-11.5832
▁마모루	-11.5832
▁밍밍	-11.5832
▁파치노	-11.5832
ᅣ	-11.5832
▁미묘한	-11.5832
▁합리화	-11.5832
ight	-11.5832
▁김규리	-11.5832
▁장선우	-11.5832
▁노다메	-11.5832
▁월드컵	-11.5832
▁곽지민	-11.5832
▁비참한	-11.5832
▁숀펜	-11.5832
▁초월한	-11.5832
▁엑소	-11.5832
▁킬빌	-11.5832
▁케로로	-11.5832
▁밉상	-11.5832
▁쌈마이	-11.5832
>_<	-11.5832
▁침략	-11.5832
▁하이라이트	-11.5833
▁sbs	-11.5833
▁저지른	-11.5833
▁이문식	-11.5833
▁키드먼	-11.5833
▁스무살	-11.5833
▁똥폼	-11.5833
▁수식어	-11.5833
▁명확하	-11.5833
▁촌스러움	-11.5833
▁극대화	-11.5833
▁뜬금포	-11.5833
▁스크림	-11.5833
▁낯설	-11.5833
▁도가니	-11.5833
▁풋풋함	-11.5833
▁흠뻑	-11.5834
▁웃음코드	-11.5834
▁손꼽	-11.5834
▁내생의	-11.5834
▁쇼킹	-11.5834
▁토할뻔	-11.5834
▁특성	-11.5834
라이브	-11.5835
▁나도모르게	-11.5835
▁기괴하	-11.5835
▁실존	-11.5835
크리	-11.5836
▁9~10	-11.5836
▁핑계	-11.5837
▁이질감	-11.5837
▁그딴	-11.5837
▁It	-11.5837
▁아메리칸	-11.5837
입니당	-11.5838
가다가	-11.5838
▁의학드라마	-11.5838
▁똥칠	-11.5838
▁재벌	-11.5839
▁무튼	-11.584
▁흠잡을데	-11.584
▁넘쳐나는	-11.584
▁이제그만	-11.584
▁명절	-11.5841
▁그립네요	-11.5841
▁부족해	-11.5841
▁머리속	-11.5841
▁그룹	-11.5841
본드라마	-11.5842
▁나오길래	-11.5842
▁서른	-11.5842
▁나왔는지	-11.5842
▁로즈	-11.5843
,,,,,	-11.5843
▁어쩔수없이	-11.5844
▁아니더라도	-11.5844
▁무서웠음	-11.5844
▁느껴져서	-11.5844
▁마술	-11.5845
▁개망작	-11.5845
▁줄줄	-11.5845
▁대립	-11.5845
▁이거보면	-11.5846
정부	-11.5846
lo	-11.5846
▁기대안하고봤는데	-11.5846
▁사랑스러움	-11.5846
나왓으면	-11.5848
▁그려냈다	-11.5849
▁어찌보면	-11.585
▁집중할	-11.585
일수	-11.5851
▁환영	-11.5851
▁정신병원	-11.5852
톱스타	-11.5852
▁담백하게	-11.5853
인칭	-11.5854
▁살아간다	-11.5854
▁부담없이	-11.5854
▁금발	-11.5855
▁구림	-11.5855
▁연기실력	-11.5856
▁기본적인	-11.5856
▁잼따	-11.5856
▁한마리	-11.5856
거같아서	-11.5856
▁멀쩡한	-11.5857
▁영화였	-11.5857
▁걸릴	-11.5857
들이여	-11.5857
▁동생이랑	-11.5857
!!^^	-11.5857
▁봤던영화	-11.5859
▁호화	-11.586
▁고난	-11.586
▁흐른다	-11.586
▁흥미있	-11.586
▁떨어져서	-11.5861
참나	-11.5862
▁건너	-11.5862
▁하나씩	-11.5863
hh	-11.5863
갑시다	-11.5863
▁진주	-11.5863
▁편히	-11.5864
▁김정은	-11.5864
▁맛있는	-11.5865
▁남자인	-11.5865
▁놓치	-11.5865
었다면	-11.5866
여인	-11.5866
▁가난한	-11.5866
▁자극적이고	-11.5867
▁바치는	-11.5867
▁타이타닉	-11.5867
▁들었는데	-11.5868
영화보고	-11.5868
▁돈아깝고	-11.5868
▁바꿔라	-11.5868
▁섬세함	-11.5869
▁있었네요	-11.5869
▁(10	-11.5869
▁드러나	-11.5871
▁영감	-11.5872
▁괴롭히	-11.5872
▁비교도	-11.5874
재미가없	-11.5874
▁흥미진진하게	-11.5876
여년	-11.5876
▁정신세계	-11.5878
▁전반부	-11.5879
▁알차	-11.5881
▁박신혜	-11.5881
▁마동석	-11.5881
▁김승우	-11.5881
▁놀랍고	-11.5882
▁골라	-11.5883
▁파격적인	-11.5884
되며	-11.5885
▁짱짱짱	-11.5885
▁어색해서	-11.5886
▁친구에게	-11.5887
▁공간에서	-11.5887
좀더	-11.5888
▁기대하며	-11.5888
못보겠	-11.5889
▁궁금함	-11.5891
▁이야기라	-11.5891
▁섹시하고	-11.5891
▁짠하고	-11.5891
▁환상적이	-11.5892
▁너무좋다	-11.5892
▁찍어서	-11.5894
▁전투신	-11.5894
금지	-11.5894
▁그레이	-11.5894
▁데미무어	-11.5895
▁훅	-11.5895
▁브로디	-11.5895
▁유선	-11.5896
쩌는	-11.5896
▁자전거	-11.5896
▁유치하게	-11.5898
▁전문가평점	-11.5901
▁개봉관	-11.5902
▁쓰레기같은영화	-11.5902
▁셀	-11.5902
시나	-11.5902
▁그런걸	-11.5903
몰라	-11.5903
▁재밌냐	-11.5907
▁선사하는	-11.5907
▁신기하고	-11.591
▁한것	-11.5911
▁사랑과전쟁	-11.5912
▁연예인들	-11.5912
--;	-11.5912
할말이	-11.5913
▁지겹고	-11.5914
▁문명	-11.5914
▁손을	-11.5914
79	-11.5915
운동	-11.5917
하시면	-11.5917
▁재미나	-11.5919
▁신발	-11.5921
살려	-11.5921
▁오디션	-11.5923
필드	-11.5923
▁짱인듯	-11.5923
▁심리묘사가	-11.5926
▁어렵고	-11.5926
하신분들	-11.5927
▁잘봤음	-11.5927
▁지연	-11.5927
▁좋아하던	-11.5928
▁입고	-11.5933
▁타이틀	-11.5933
▁모자	-11.5934
▁라스트씬	-11.5934
▁광대	-11.5934
▁생각한다면	-11.5935
▁상관없이	-11.5935
▁청춘영화	-11.5936
▁흰	-11.5936
하지못한	-11.5937
▁허니잼	-11.5937
내기	-11.5938
망한	-11.5938
나오는데	-11.594
▁담으려	-11.5941
하도록	-11.5941
▁슬픔과	-11.5942
▁떄	-11.5943
▁수술	-11.5943
발로	-11.5944
▁수습	-11.5945
북한	-11.5946
▁대표적	-11.5946
▁가족드라마	-11.5949
▁박힌	-11.5949
시리즈는	-11.595
mo	-11.5951
본듯	-11.5951
▁안되냐	-11.5951
▁탔	-11.5952
89	-11.5953
▁진자	-11.5954
▁흡입력이	-11.5956
▁질이	-11.5958
해야할지	-11.5959
받을만한	-11.596
▁자극적	-11.596
짓을	-11.5961
중하나	-11.5961
잔잔	-11.5964
▁엄지	-11.5964
▁의리로	-11.5964
겠고	-11.5968
아역	-11.5969
▁일본영화가	-11.597
나갈	-11.5972
▁매력적이고	-11.5972
▁와이프	-11.5972
싸우	-11.5973
▁안보이	-11.5977
▁이유도	-11.5977
됐네	-11.5981
버려라	-11.5981
▁자료	-11.5981
▁알고싶다	-11.5981
▁할것	-11.5984
bbbb	-11.5985
▁데이트	-11.5985
▁해주길래	-11.5987
▁후회한다	-11.5988
▁청소년들	-11.5988
▁당신들	-11.5991
▁최후의	-11.5993
▁꽁	-11.5993
셨다	-11.5993
▁ᄂᄂ	-11.5994
풍기는	-11.5994
▁싶다는	-11.5994
▁만들까	-11.5995
▁달인	-11.5996
▁대사에	-11.5997
▁여자애가	-11.5998
!!!!!!!!!!	-11.5998
▁뒷부분	-11.6
▁죽어야	-11.6004
▁사랑입니다	-11.6005
▁볼수없	-11.6005
▁갔다가	-11.6005
▁드래곤	-11.6007
▁이루어지	-11.6008
▁뒤집어	-11.6008
▁지나치	-11.601
▁비교할	-11.601
다녀	-11.6012
▁두근	-11.6013
▁합쳐	-11.6013
▁극치를	-11.6018
보이지	-11.6018
▁난감	-11.6018
래서	-11.6019
▁개짜증	-11.6021
▁다르지	-11.6021
얘	-11.6022
▁재밌게봤습니다	-11.6022
▁씨리즈	-11.6023
▁알았어	-11.6024
▁기대했다	-11.6025
▁보여지는	-11.6026
▁의지가	-11.6026
랬는데	-11.6026
▁이용한	-11.6027
말하는	-11.6027
평론가들은	-11.6029
ᅲᅲᅲᅲᅲᅲ	-11.603
쓰는거	-11.6031
해보이는	-11.6032
▁두배우	-11.6032
일뿐이다	-11.6033
▁싶고	-11.6037
▁최고지	-11.6037
정도가	-11.6042
물어	-11.6042
▁있는건	-11.6043
겠구나	-11.6044
▁것들은	-11.6047
▁전투기	-11.6047
▁겁나게	-11.6054
그레	-11.6054
▁저의	-11.6056
▁하더라	-11.6059
갔음	-11.6059
▁지루하기도	-11.606
▁볼만했	-11.606
▁코믹요소	-11.6062
▁모르겠는	-11.6062
▁언니가	-11.6063
▁소원	-11.6065
▁가다	-11.6065
▁사정	-11.6068
헤헤	-11.6069
▁눈물나는	-11.607
▁한국이	-11.6072
▁로맨스도	-11.6072
▁야한영화	-11.6073
잡아	-11.6074
▁낮은듯	-11.6074
▁바람에	-11.6076
엑스	-11.6076
펑펑	-11.6077
▁제목으로	-11.6077
▁반면	-11.6077
말도안되	-11.6077
햇으면	-11.6078
닿	-11.6082
생각나서	-11.6084
J	-11.6084
dd	-11.6085
▁무리가	-11.6085
▁풍경이	-11.6086
쿵	-11.6087
최고입니다	-11.6088
거는	-11.6088
달려	-11.6089
싶으면	-11.6091
웬	-11.6091
닭	-11.6091
흑흑	-11.6092
▁이기는	-11.6093
▁명작중	-11.6093
내놔	-11.6093
잭	-11.6095
해피엔딩	-11.6095
흥미진진	-11.6096
뭥미	-11.6096
▁전달하는	-11.6096
충분히	-11.6097
무조건	-11.6097
슈퍼	-11.6097
이정도면	-11.6097
▁제인	-11.6097
▁싸워	-11.6098
눈빛	-11.6098
어제	-11.6099
▁대박임	-11.6099
▁보라는	-11.61
젠장	-11.6102
발견	-11.6103
▁갈리는	-11.6104
▁담았	-11.6105
중딩	-11.6105
재밌게봤어요	-11.6106
▁드라마중에	-11.6107
▁그러면서	-11.6109
반복	-11.6109
어릴때	-11.611
흥미	-11.611
▁어울림	-11.6111
갈기	-11.6111
많아서	-11.6111
▁기대하게	-11.6112
ᄒᄃᄃ	-11.6113
왕국	-11.6114
하트	-11.6116
댄스	-11.6116
▁배역이	-11.6116
거아닌가	-11.6116
말지	-11.6117
남긴다	-11.6118
재밌습니다	-11.6121
생긴	-11.6124
▁상관없는	-11.6125
안보고	-11.6125
▁사랑이라는	-11.6125
라더니	-11.6126
영화치고	-11.6126
▁가만	-11.6127
이거나	-11.6127
대전	-11.6128
▁나와는	-11.6128
라길래	-11.6129
안본다	-11.6129
▁좋던데	-11.6131
월드	-11.6132
▁능가	-11.6132
장면만	-11.6132
많은데	-11.6135
들처럼	-11.6135
재미없어요	-11.6136
했을듯	-11.6137
▁생각되는	-11.6137
하는구나	-11.6139
▁들인	-11.6139
▁^-^	-11.614
▁없는건가	-11.6141
bs	-11.6142
▁될거	-11.6143
▁형이	-11.6143
사랑이	-11.6144
▁그런게	-11.6145
▁완전한	-11.6148
이었네요	-11.6151
나와라	-11.6152
▁197	-11.6154
최악이다	-11.6156
24	-11.6157
▁여자배우	-11.6157
▁봤었지	-11.6157
화는	-11.6158
▁웃긴영화	-11.6158
안나오는	-11.6159
▁미친놈	-11.6161
▁전작을	-11.6161
▁닥	-11.6163
▁각성	-11.6163
▁최악인	-11.6164
경험	-11.6166
▁계신	-11.6167
어찌	-11.6167
▁주인공으로	-11.6168
▁와진짜	-11.6168
남자주인공	-11.6169
이뻐	-11.6171
▁춤을	-11.6173
억지로	-11.6173
답답하고	-11.6174
▁나오지도	-11.6175
지루해서	-11.6175
본적이	-11.6176
▁매력과	-11.6176
▁딸의	-11.6178
을거다	-11.618
▁펑펑울	-11.618
▁사이에	-11.6181
해주면	-11.6182
▁별반개	-11.6188
▁짝	-11.6188
▁친구들이	-11.6189
멋있다	-11.6189
대요	-11.6192
▁파도	-11.6198
▁애들영화	-11.6199
기네	-11.62
이미지	-11.62
▁수치	-11.6204
▁좋은작품	-11.6204
▁일깨워	-11.6205
부는	-11.6209
받았다	-11.6209
▁그당시에	-11.6211
▁연기력으로	-11.6212
▁이런류	-11.6217
▁되네	-11.6217
스턴	-11.6217
요소가	-11.6218
▁만든거지	-11.6218
▁본다는	-11.622
님께서	-11.6224
▁후반부는	-11.6224
봣지만	-11.6224
틀어	-11.6226
유리	-11.6228
ve	-11.6229
관리	-11.6232
해본다	-11.6233
▁별점은	-11.6233
되는지	-11.6235
▁돋보	-11.6236
▁드러내	-11.6236
▁햇	-11.6236
떠나	-11.6238
정치	-11.6239
▁선교	-11.624
▁밖에는	-11.6241
줄려고	-11.6242
진부	-11.6245
게끔	-11.6245
환상	-11.6246
▁튀어	-11.6246
터지고	-11.6247
▁선정적	-11.6247
짱나	-11.6248
▁온몸	-11.6248
▁22	-11.625
마법사	-11.6251
▁앗	-11.6254
좋아하	-11.6254
잼있게	-11.6254
▁연기들이	-11.6254
듯해요	-11.6255
닼ᄏᄏᄏ	-11.6255
▁있기	-11.6257
▁와나	-11.6259
원에	-11.6259
▁비정상	-11.626
혔다	-11.626
▁종이	-11.6261
그랬어요	-11.6262
놓았다	-11.6264
▁시걸의	-11.6264
안치고	-11.6269
▁공감하기	-11.6269
▁했다고	-11.6269
▁역겹	-11.627
부른	-11.6272
▁웃을수	-11.6273
▁출연했	-11.6275
▁ᅩ	-11.6278
걸린	-11.6279
▁백번	-11.6279
라는건	-11.6281
▁댓글들	-11.6281
없을정도로	-11.6283
어수선	-11.6284
▁보는건	-11.6284
▁찾게	-11.6287
물의	-11.6288
▁한국영화에	-11.6289
회사	-11.6289
▁행복은	-11.6292
다시한번	-11.6295
▁다른분들	-11.6296
▁독도	-11.6297
배역	-11.6297
▁글자	-11.6298
하구나	-11.63
▁혈	-11.6302
▁입은	-11.6305
▁출연자들	-11.6309
▁오랫만	-11.631
▁어려	-11.631
▁간만	-11.6312
▁졸다	-11.6313
▁춤추는	-11.6313
▁관객은	-11.6315
▁충실하	-11.6317
음을	-11.6318
▁잼있네	-11.6324
▁드러난	-11.6325
▁상상도	-11.6326
▁어디에서	-11.6327
▁하는구나	-11.6327
▁궁금한	-11.6328
졸려	-11.6331
▁빠지지	-11.6331
모니	-11.6332
▁씨지	-11.6332
▁몸매가	-11.6332
시간만	-11.6332
아냐	-11.6333
▁멀쩡	-11.6333
▁진가	-11.6334
거같네	-11.6336
▁너무너무너무	-11.6336
와함께	-11.6336
▁진작	-11.6337
자본	-11.6339
▁고마	-11.6339
▁작전	-11.6343
▁순수함이	-11.6345
▁나눠	-11.6347
세가	-11.6348
하하하하	-11.6348
▁마지막부분	-11.6348
▁기억남는	-11.6348
잼있음	-11.635
스럽네	-11.6355
선정	-11.6356
퀴	-11.6356
딜	-11.6356
뜩	-11.6357
덥	-11.6358
톡	-11.6358
솟	-11.6358
욜	-11.6358
▁1,2,3	-11.6358
ᅦ	-11.6358
똘	-11.6358
돠	-11.6359
윗	-11.6359
헷	-11.6359
Q	-11.6359
▁GOOD	-11.6359
▁bgm	-11.6359
▁김창완	-11.6359
▁데스노트	-11.6359
▁드라큐라	-11.6359
▁떨어뜨리	-11.6359
▁마스터피스	-11.6359
▁시퀀스	-11.6359
▁싱크로율	-11.6359
▁쒸레기	-11.6359
▁안드로메다	-11.6359
▁업그레이드	-11.6359
▁유튜브	-11.6359
▁지니어스	-11.6359
륵	-11.6359
빽	-11.6359
▁담백한	-11.6359
▁블레이드	-11.6359
▁알렉스	-11.6359
▁저렴한	-11.6359
햄	-11.6359
▁기승전결	-11.6359
▁모자이크	-11.6359
▁비둘기	-11.6359
댜	-11.6359
▁디아즈	-11.6359
▁지못미	-11.6359
뿐만아니라	-11.6359
▁리부트	-11.6359
▁제레미	-11.6359
▁따스한	-11.6359
▁ᄆᄎ	-11.6359
▁김보성	-11.6359
▁무한도전	-11.6359
▁인디아나	-11.6359
▁구지	-11.6359
▁케서방	-11.6359
▁발차기	-11.6359
~~!!!	-11.6359
불끄고	-11.6359
▁밀려온다	-11.6359
log	-11.6359
▁김민희	-11.6359
▁무성영화	-11.636
▁비춰	-11.636
▁호랑이	-11.636
▁we	-11.636
춘향	-11.636
▁된장녀	-11.636
▁쿡티비	-11.636
▁완존	-11.636
▁침몰	-11.636
▁필립	-11.636
▁우주전쟁	-11.636
▁흘릴	-11.636
▁기대했건만	-11.636
▁완결	-11.636
▁종북	-11.636
▁자유롭	-11.636
퍼센트	-11.6361
▁원초적	-11.6361
위주로	-11.6361
▁기다린	-11.6361
▁복귀	-11.6361
▁되요	-11.6361
▁판치는	-11.6362
▁괜찬은	-11.6362
▁감안해도	-11.6362
▁아쉬울뿐	-11.6362
▁초한지	-11.6362
▁1~2	-11.6362
▁뻔하디	-11.6362
▁잊혀지질	-11.6362
▁범작	-11.6363
▁죄악	-11.6363
▁메이저	-11.6363
▁쌩뚱맞	-11.6363
▁뜯어	-11.6364
▁장난아니다	-11.6364
▁할말없다	-11.6364
▁직쏘	-11.6364
▁명언	-11.6365
▁인상적이었다	-11.6365
▁수준낮은	-11.6365
펙트	-11.6365
▁시시하다	-11.6365
▁슬펐던	-11.6366
▁물결	-11.6366
▁밀려오는	-11.6366
▁빠른전개	-11.6367
▁있도록	-11.6367
▁간단하	-11.6367
혈압	-11.6367
▁어쩐지	-11.6367
▁비교된다	-11.6367
▁아까웠음	-11.6368
▁오드리	-11.6368
뻔했네	-11.6368
▁말해준다	-11.6368
▁오래도록	-11.6368
▁아이디	-11.6369
▁국제	-11.6369
▁끔찍하다	-11.637
▁모범	-11.637
▁안주는데	-11.637
▁토토	-11.637
▁재미없었어요	-11.637
▁흑형	-11.6371
▁소외	-11.6371
▁양산	-11.6371
▁미숙	-11.6372
▁흐뭇	-11.6372
▁미련	-11.6372
▁뻔하지	-11.6372
여지껏	-11.6373
▁기대되네요	-11.6373
▁애환	-11.6373
▁들었어요	-11.6373
▁가난	-11.6373
▁5~6	-11.6373
▁이기심	-11.6373
▁개쩐다	-11.6374
딴식으로	-11.6375
▁마이크	-11.6375
▁산타	-11.6375
▁흥행을	-11.6376
▁해주네요	-11.6376
▁비참하	-11.6376
▁충동	-11.6376
▁억지웃음	-11.6376
▁발악	-11.6377
▁거품이	-11.6377
▁잠재	-11.6377
▁들었습니다	-11.6377
▁분은	-11.6378
▁저격	-11.6378
▁재밌구만	-11.6378
▁진국	-11.6378
햇어요	-11.6379
▁안가네요	-11.638
▁자연의	-11.638
▁좋아해	-11.638
▁개졸작	-11.6381
▁“	-11.6381
▁생길	-11.6381
▁안가네	-11.6381
▁압도적인	-11.6382
▁괜찮아요	-11.6382
▁느낄수있는	-11.6383
▁매력적임	-11.6383
▁아름다워요	-11.6383
▁만들어놓고	-11.6385
▁교훈적인	-11.6385
▁뻔뻔한	-11.6386
▁해설	-11.6387
▁나이먹고	-11.6387
▁특별하	-11.6387
▁나중에는	-11.6387
세기에	-11.6387
▁지루한건	-11.6388
▁올라갈때	-11.6389
▁기대하고봤는데	-11.6389
▁쓰래기영화	-11.639
▁주는데	-11.639
인생을	-11.6391
하나도없	-11.6393
▁유아	-11.6393
▁베끼	-11.6393
▁감독이나	-11.6394
▁보내는	-11.6394
▁다있냐	-11.6394
▁기대됨	-11.6394
▁건질게	-11.6395
▁류승룡	-11.6396
▁얼굴에	-11.6396
▁클라이막스	-11.6396
▁헷갈리	-11.6396
▁않길	-11.6396
▁찾아봤는데	-11.6397
▁없군요	-11.6397
▁아련하고	-11.6397
▁시점에서	-11.6398
▁최신	-11.6398
▁씁쓸하다	-11.6398
▁유산	-11.6398
▁친구한테	-11.6398
▁넣어서	-11.6399
해야할듯	-11.64
▁유치원	-11.64
정을	-11.64
▁잘하시고	-11.64
▁찾았	-11.6401
▁최고예요	-11.6401
▁생각났다	-11.6402
▁지르고	-11.6403
됬으면	-11.6403
▁관우	-11.6404
▁산만하다	-11.6405
▁주문	-11.6406
▁사라졌	-11.6407
▁나온게	-11.6407
▁입가에	-11.6408
▁어느하나	-11.6408
▁역사는	-11.6408
45	-11.6408
om	-11.641
▁고르	-11.641
▁로멘스	-11.641
▁미성년자	-11.641
▁민간인	-11.641
▁두번이나	-11.6411
▁무한한	-11.6411
▁힘들듯	-11.6411
▁마지막장면에서	-11.6411
▁노아	-11.6411
▁미남	-11.6412
▁들어오	-11.6413
▁시작된다	-11.6414
▁안나오네	-11.6414
▁만들어버린	-11.6417
▁현실적이지	-11.6418
▁처음이었다	-11.6418
▁웃기기	-11.6421
▁뜨고	-11.6421
▁종교적인	-11.6422
▁결혼식	-11.6424
▁너무하네요	-11.6425
▁반지의제왕	-11.6425
▁소장가치	-11.6425
▁예고편에	-11.6425
▁인연이	-11.6425
▁흥미진진하다	-11.6426
▁있을수	-11.6426
▁따분한	-11.6428
떡칠	-11.6429
▁설리	-11.6431
봐야하나	-11.6432
대단한	-11.6432
▁됬다	-11.6432
▁매력있고	-11.6433
지마요	-11.6434
▁경이로	-11.6435
▁힐링이	-11.6435
▁발연기가	-11.6436
▁근대	-11.6436
▁판타스틱	-11.644
▁어이상실	-11.644
▁황당하	-11.644
▁4000	-11.6441
▁훌륭하	-11.6443
▁발랄한	-11.6444
▁치밀어	-11.6444
▁전투장면	-11.6445
학대	-11.6445
잇음	-11.6446
본것중	-11.6448
▁어디다	-11.6449
▁대단해	-11.645
정도다	-11.645
▁디지	-11.6451
손가락안에	-11.6451
이따구	-11.6452
▁영화로만	-11.6452
▁이어가	-11.6453
▁어렷을때	-11.6454
▁보기싫	-11.6454
▁꽂	-11.6454
잘만들었	-11.6454
▁자격이	-11.6455
▁해소	-11.6455
▁별로던데	-11.6455
무리	-11.6457
▁압도적	-11.6458
▁매력있다	-11.6459
▁불쌍하고	-11.6459
▁않았다면	-11.646
▁끝났으면	-11.6461
봤다면	-11.6461
▁수작이라고	-11.6461
▁2011	-11.6463
▁느낌이었다	-11.6464
▁어처구니없는	-11.6465
댄다	-11.6465
▁av	-11.6471
▁전달하려는	-11.6472
▁우울해	-11.6472
▁진상	-11.6474
풀리	-11.6474
▁하나만으로도	-11.6474
▁93	-11.6474
과함께	-11.6479
▁사람으로써	-11.648
보는편인데	-11.6483
▁뮤직	-11.6483
▁지루할수	-11.6485
자체도	-11.6486
▁but	-11.6486
▁만점짜리	-11.6486
▁신경을	-11.6488
것과	-11.649
▁연기잘하	-11.6491
▁역사와	-11.6492
▁홍보영화	-11.6492
▁머피	-11.6493
급이다	-11.6497
누가봐도	-11.6498
▁촉	-11.6498
▁댓	-11.6498
안나온다	-11.65
▁그치만	-11.6502
▁조건	-11.6504
▁보시기	-11.6508
▁개봉할	-11.6509
디스	-11.651
이래서	-11.651
▁살해	-11.6511
▁웃기면서	-11.6511
▁스릴러도	-11.6511
찾다가	-11.6513
▁본인은	-11.6513
▁들어요	-11.6513
▁나오니까	-11.6514
▁안남기는데	-11.6514
▁하기에	-11.6515
▁버림	-11.6515
보이려고	-11.6516
로부터	-11.6517
▁본다고	-11.6519
▁허무맹랑	-11.6519
▁일상의	-11.6522
시시하고	-11.6522
있는척	-11.6523
울었다	-11.6524
프다	-11.6524
▁터질	-11.6527
▁별로였던	-11.6527
▁예술이다	-11.6532
▁할수있는	-11.6533
▁아니였다	-11.6536
;;;;;	-11.6536
▁바라본	-11.6536
이던데	-11.6538
되었는지	-11.6538
▁짓게	-11.6538
▁느낌과	-11.6538
▁싶을때	-11.6538
▁움	-11.6539
▁권하고	-11.6539
영화였습니다	-11.6539
▁후로	-11.6541
▁침대	-11.6542
▁연기들도	-11.6542
만들어서	-11.6543
@@	-11.6543
▁뻔뻔	-11.6544
거라면	-11.6544
▁스탈	-11.6545
▁컴	-11.6546
▁수학	-11.6547
▁하고싶	-11.6555
▁사람한테	-11.6557
러스	-11.6559
보여줘서	-11.656
▁미화한	-11.6561
▁가요	-11.6564
힌다	-11.6567
▁수십번	-11.6569
▁목소리는	-11.657
▁전개로	-11.657
▁충격과	-11.6572
▁빠짐	-11.6572
▁빠진다	-11.6573
모토	-11.6573
도와주	-11.6574
▁조연들의	-11.6575
▁가르	-11.6575
영화였음	-11.6576
▁장수	-11.6576
▁고전영화	-11.6578
타카	-11.6578
개막장	-11.6579
하시는분들	-11.658
▁누구를	-11.658
때문이	-11.6581
▁유작	-11.6581
▁강예원	-11.6583
▁팝	-11.6584
▁시각으로	-11.6584
▁맞는듯	-11.6586
할려	-11.6586
▁욕나오	-11.6587
주자	-11.6588
세포	-11.6588
▁애쓰는	-11.6591
아래	-11.6597
▁흥미도	-11.6598
▁팬이지만	-11.6599
거늘	-11.6602
않는다	-11.6602
▁못하면	-11.6602
▁말처럼	-11.6603
▁녀석들	-11.6603
▁이거밖에	-11.6603
▁앵글	-11.6605
▁근거	-11.6607
▁ᅡ	-11.6609
원작이	-11.6614
▁봐야될	-11.6614
▁나오냐	-11.6615
▁홈	-11.6618
▁닫	-11.662
▁이웃	-11.662
▁촌스럽	-11.6622
▁잇엇	-11.6624
▁똥망	-11.6624
▁결과가	-11.6625
하기위해	-11.6625
▁알면	-11.6626
▁하겠다	-11.6626
할것이다	-11.6627
▁창피	-11.6628
▁판타지영화	-11.6628
▁열정을	-11.6629
▁소중하	-11.663
▁곤	-11.6632
▁일관성	-11.6632
팀이	-11.6633
싫은	-11.6633
▁무난	-11.6634
▁몰입하기	-11.6634
▁된거	-11.6637
▁짓거리	-11.6639
ia	-11.664
▁안믿	-11.664
▁여명	-11.6641
점수를	-11.6641
▁배우진	-11.6642
▁눈은	-11.6642
▁주었다	-11.6642
▁주고싶은	-11.6642
▁뭉클한	-11.6643
씁니다	-11.6643
닫	-11.6643
▁무너지	-11.6645
홈	-11.6645
▁카드	-11.6646
사람만	-11.6646
편이랑	-11.6646
전문	-11.6647
쪼	-11.6647
▁약자	-11.6649
빅	-11.6649
▁썻	-11.665
작렬	-11.665
굉장히	-11.6652
▁소설로	-11.6653
쵝오	-11.6653
귀여운	-11.6653
멋짐	-11.6653
스트레스	-11.6653
재미있었어요	-11.6653
▁줬어	-11.6654
후반부	-11.6655
us	-11.6656
민족	-11.6658
▁돌아간	-11.6658
아픔	-11.6659
▁시계	-11.6662
▁싼	-11.6662
▁흘렸	-11.6662
▁기준이	-11.6664
▁싸울	-11.6665
▁놔	-11.6666
젊은	-11.6666
▁영화들을	-11.6668
아쉽지만	-11.6669
조합	-11.6669
낚시	-11.6669
▁심어	-11.6674
분량	-11.6674
▁생기는	-11.6675
현실성	-11.6676
시사회	-11.6676
▁아웃	-11.6679
▁줫	-11.668
▁잠자	-11.6682
▁갑작스	-11.6683
▁결말만	-11.6683
▁힘들고	-11.6685
▁아름다운영화	-11.6686
▁만든다는	-11.6689
▁살아있다	-11.6689
▁없기	-11.6689
같았음	-11.669
처음부터	-11.6691
▁있는영화	-11.6692
쳤던	-11.6693
▁다녀	-11.6694
▁찍으	-11.6695
~~~~~~~~	-11.6697
지루했다	-11.67
▁느낌으로	-11.6703
▁비극이	-11.6704
▁한번에	-11.6704
잘만든	-11.6705
스틱	-11.6706
▁전문가들	-11.6708
▁그녀들	-11.6709
어휴	-11.6709
▁보내고	-11.6709
▁잘만	-11.671
모르게	-11.6712
지않을까	-11.6712
▁절절	-11.6713
그루	-11.6714
▁나두	-11.6714
▁되니	-11.6717
▁호흡이	-11.6719
▁실망스럽	-11.6721
▁원작만화	-11.6721
위해서	-11.6722
▁그에	-11.6723
행위	-11.6723
▁답답하게	-11.6731
▁희생을	-11.6734
▁치면	-11.6736
▁볼만한영화	-11.674
양심	-11.6741
▁열어	-11.6742
▁그저그렇	-11.6743
▁이들에게	-11.6744
도둑	-11.6745
▁화나는	-11.6754
▁섬뜩	-11.6758
조선	-11.6763
▁눈도	-11.6764
▁연기며	-11.6764
차이를	-11.6764
▁대부분의	-11.6766
▁시간아까운	-11.6766
▁읽어보	-11.6767
▁저딴	-11.6768
▁남자랑	-11.6772
되니	-11.6774
▁행동들	-11.6774
문화를	-11.6775
▁책은	-11.6775
다음에	-11.6777
줄아나	-11.6779
▁의미로	-11.678
▁잘생겼다	-11.6783
▁놀라는	-11.6786
진심으로	-11.6788
▁같다는	-11.6789
▁카이	-11.6792
▁헌신	-11.6792
시키려	-11.6792
▁모습들	-11.6793
넼ᄏᄏ	-11.6794
편인데	-11.6794
▁없는지	-11.6794
▁첨보네	-11.6794
▁봤는데요	-11.68
었으나	-11.68
▁노골적	-11.6805
안경	-11.6806
▁됐지	-11.6806
▁말하고자하는	-11.6812
절정	-11.6813
▁작품성을	-11.6814
▁중국이	-11.6821
되어있는	-11.6821
조작	-11.6826
▁사자	-11.6832
▁가질	-11.6833
▁좋겠네	-11.6834
내용에	-11.6835
!!♥	-11.6837
▁안타까울	-11.6839
▁엄마를	-11.6843
▁숨막히	-11.6844
답답한	-11.6845
▁영화보단	-11.6846
부모님	-11.6847
▁배우에	-11.6847
▁느낀점	-11.6849
~~~~~~~~~~~~~~~~	-11.6852
빠지고	-11.6854
들여서	-11.686
ck	-11.686
책을	-11.6863
▁잘어울리는	-11.6865
▁똑같아	-11.6865
▁공존	-11.6867
번이상	-11.6868
▁갖추	-11.6874
횽	-11.6877
▁시절에	-11.6877
▁군인들	-11.688
▁어린애	-11.6884
▁재치	-11.6886
▁존나게	-11.6887
▁무책임	-11.6888
▁걸작을	-11.6888
▁되도	-11.6892
▁담백하	-11.6893
▁윌리엄	-11.6893
려요	-11.6895
▁자극적이지	-11.6895
목숨	-11.6896
실망이다	-11.6899
기대를	-11.69
애들도	-11.69
정희	-11.6904
펙	-11.6906
왕자	-11.6907
▁괴롭	-11.6909
▁on	-11.691
유치한	-11.691
할꺼면	-11.6911
륙	-11.6911
븐	-11.6912
렘	-11.6913
뎌	-11.6913
생기면	-11.6913
▁짜증날	-11.6913
▁삽입	-11.6914
뉘	-11.6914
쭈	-11.6914
삽	-11.6914
뻘	-11.6914
→	-11.6914
떴	-11.6914
”	-11.6914
▁김옥빈	-11.6914
▁러브레터	-11.6914
▁말코비치	-11.6914
▁맷데이먼	-11.6914
▁머리카락	-11.6914
▁샌들러	-11.6914
▁서커스	-11.6914
▁스나입스	-11.6914
▁시덥잖은	-11.6914
▁어마어마한	-11.6914
▁왤캐	-11.6914
▁조지클루니	-11.6914
▁존쿠삭	-11.6914
▁토요명화	-11.6914
쁠	-11.6914
읎	-11.6914
▁강우석	-11.6914
▁남녀노소	-11.6914
▁유부녀	-11.6914
▁총격전	-11.6914
샬	-11.6914
▁김소연	-11.6914
▁어우러져	-11.6914
+_+	-11.6914
셜	-11.6914
▁서태지	-11.6914
▁팬심으로	-11.6914
▁박한별	-11.6914
▁야쿠자	-11.6914
▁과언이	-11.6914
▁호프만	-11.6914
▁모호한	-11.6914
▁송중기	-11.6914
▁나뿐인가	-11.6914
.,.,.,.,.	-11.6914
▁순진한	-11.6914
▁저능아	-11.6914
▁웨스턴	-11.6914
▁콧물	-11.6914
▁평점조절위원회	-11.6914
▁프리퀄	-11.6914
:-)	-11.6914
▁나비효과	-11.6914
▁아쉬웠던	-11.6914
▁억압	-11.6915
▁자비에	-11.6915
▁구로사와	-11.6915
▁쌍둥이	-11.6915
▁길들여	-11.6915
▁부끄럽다	-11.6915
▁조여정	-11.6915
▁마디로	-11.6915
▁지금에서야	-11.6915
▁파트너	-11.6915
▁시간가는줄모르고	-11.6915
▁골때리는	-11.6915
▁인디언	-11.6915
▁바둑	-11.6915
▁앤딩	-11.6915
▁특정	-11.6915
▁설득	-11.6915
▁감명깊은	-11.6915
▁흔하디	-11.6915
▁또하나의	-11.6916
▁위협	-11.6916
▁Best	-11.6916
▁탱고	-11.6916
▁시어머니	-11.6916
▁무고한	-11.6916
▁매혹적인	-11.6916
▁표출	-11.6917
▁이정진	-11.6917
▁별점테러	-11.6917
여자는	-11.6917
▁코난이	-11.6918
▁폐지해라	-11.6918
▁으휴	-11.6918
▁변함없	-11.6918
▁하모니	-11.6918
▁했어도	-11.6918
▁기타노	-11.6919
▁추격전	-11.6919
특별히	-11.6919
▁타잔	-11.6919
▁변하지	-11.692
▁중학생때	-11.692
▁않다는	-11.692
▁봐야겠어요	-11.692
▁빠져들었다	-11.692
▁재밌긴한데	-11.692
▁허각	-11.6922
▁빌린	-11.6922
▁감상평	-11.6922
▁길거리	-11.6922
▁루크	-11.6922
▁작정	-11.6922
▁몸짓	-11.6922
▁때로는	-11.6923
▁불과하다	-11.6923
▁발암	-11.6923
▁코믹도	-11.6923
▁조잡하다	-11.6924
▁반짝	-11.6924
▁나치	-11.6925
▁여느	-11.6925
▁부패	-11.6925
▁울버린	-11.6925
▁네이	-11.6925
▁생각됩니다	-11.6925
▁아침부터	-11.6926
▁소련	-11.6926
드럽게	-11.6926
▁생각이든다	-11.6926
▁웨스	-11.6926
▁온통	-11.6926
▁우리를	-11.6926
레드	-11.6926
▁이제껏	-11.6926
▁동성애자	-11.6927
▁공감되지	-11.6927
▁그리움	-11.6927
▁처절하게	-11.6928
▁인내력	-11.6928
▁맞먹는	-11.6928
▁조쉬	-11.6929
▁잃게	-11.6929
▁불교	-11.6929
▁보았어요	-11.6929
▁볼수있어서	-11.6929
man	-11.693
▁대사로	-11.6931
▁격투씬	-11.6932
▁노골적으로	-11.6932
▁한두번	-11.6932
▁만들었어	-11.6932
▁말장난	-11.6932
▁좋았을걸	-11.6932
▁아니자나	-11.6933
▁있을지	-11.6934
▁결투	-11.6935
▁영화보면	-11.6935
▁질린다	-11.6936
▁섹시하다	-11.6937
▁꾀	-11.6938
▁첩보물	-11.6939
▁다섯개	-11.6939
▁참신하다	-11.6939
▁티비판	-11.6939
▁무엇일까	-11.6939
▁진실된	-11.6939
▁안좋아하는데	-11.694
▁또보고싶다	-11.6941
▁진행되	-11.6941
▁감안하고	-11.6942
▁깎아	-11.6942
▁별로였어요	-11.6944
),	-11.6944
▁안나왔으면	-11.6945
▁이민호	-11.6945
▁좋은듯	-11.6945
▁중국판	-11.6946
▁놀랬다	-11.6947
▁다좋은데	-11.6947
▁공군	-11.6947
▁늘어지고	-11.6948
분쯤	-11.6948
▁해석이	-11.6949
▁어린애들	-11.6949
▁예쁘네요	-11.6949
▁흘러간다	-11.6949
[...]
