[PAD]
[UNK]
[CLS]
[SEP]
[MASK]
!
"
#
$
%
&
'
(
)
*
+
,
-
.
/
0
1
2
3
4
5
6
7
8
9
:
;
=
?
@
[
]
^
_
`
a
b
c
d
e
f
g
h
i
j
k
l
m
n
o
p
q
r
s
t
u
v
w
x
y
z
{
|
}
~
©
°
±
²
·
×
÷
ł
ʹ
ʺ
α
δ
ᄀ
ᄁ
ᄂ
ᄃ
ᄄ
ᄅ
ᄆ
ᄇ
ᄈ
ᄉ
ᄊ
ᄋ
ᄌ
ᄍ
ᄎ
ᄏ
ᄐ
ᄑ
ᄒ
ᅡ
ᅢ
ᅣ
ᅤ
ᅥ
ᅦ
ᅧ
ᅨ
ᅩ
ᅪ
ᅫ
ᅬ
ᅭ
ᅮ
ᅯ
ᅰ
ᅱ
ᅲ
ᅳ
ᅴ
ᅵ
ᆨ
ᆩ
ᆪ
ᆫ
ᆬ
ᆭ
ᆮ
ᆯ
ᆰ
ᆱ
ᆲ
ᆴ
ᆵ
ᆶ
ᆷ
ᆸ
ᆹ
ᆺ
ᆻ
ᆼ
ᆽ
ᆾ
ᆿ
ᇀ
ᇁ
ᇂ
–
—
―
‘
’
“
”
•
․
‥
…
‧
″
※
⁺
℃
ℓ
™
⅓
⅔
ⅱ
↑
→
↓
↔
∙
∥
∼
≪
≫
⋅
①
②
③
④
⑤
⑥
⑦
ⓒ
━
│
▒
■
□
▲
△
▶
▷
▼
▽
◀
◆
◇
◈
○
◎
●
◐
◑
◯
★
☎
☏
☞
♡
♥
♪
〃
〈
〉
《
》
「
」
『
』
【
】
・
ㄱ
ㄴ
ㄷ
ㅇ
ㅈ
ㅋ
ㅎ
ㅠ
ㅡ
ㅣ
ㆍ
㈔
㈜
㎍
㎏
㎓
㎖
㎘
㎚
㎜
㎝
㎞
㎡
㎥
㏊
一
三
上
下
不
世
中
丹
之
九
事
亞
京
人
仁
介
代
令
企
休
低
佑
作
便
保
信
倍
候
假
偉
傳
充
兆
先
克
児
兒
全
兩
八
公
六
共
兵
再
出
分
制
前
創
劉
加
勝
募
化
北
區
千
半
協
南
博
反
口
台
司
合
吉
同
告
和
唄
善
嘴
四
国
國
土
地
圳
基
埼
報
場
壇
士
多
大
太
失
奈
奧
女
委
娥
子
孫
學
宇
安
宋
宗
宜
室
家
容
富
寧
對
導
小
尖
尹
尾
屋
展
岡
岩
島
川
州
巨
差
市
常
平
年
府
庫
廢
廣
延
建
式
弗
弧
强
待
後
微
心
志
思
性
恤
情
愛
感
態
慮
成
戰
戴
房
所
手
承
抄
擾
政
故
敏
敵
文
斌
新
方
施
族
日
昌
星
春
時
晋
普
月
有
木
李
村
杭
東
板
林
株
梧
業
極
榮
樂
標
橫
檢
毅
母
毒
比
民
氣
求
江
池
汪
決
沖
沫
河
治
泉
泊
法
泡
波
泰
洋
浜
海
深
清
港
溫
漁
濟
濠
濯
灣
火
烏
無
熟
熱
牛
物
獨
玉
王
璞
生
田
疆
痘
發
百
益
相
省
県
矜
知
硏
示
社
神
禁
福
秀
私
秋
科
空
站
章
籍
組
維
網
線
縣
繩
置
美
義
羽
習
耀
考
耕
聖
脫
自
與
興
船
花
英
茂
茅
菅
菜
葉
藉
藤
蟲
衆
行
街
裏
補
親
覲
觀
訊
設
註
詩
語
證
譚
議
護
財
貴
超
越
足
路
身
車
軍
近
通
速
連
道
遼
郎
郞
郡
都
鄭
酒
里
野
金
釣
銀
鋒
錄
鐵
長
開
閣
阪
陸
集
難
靈
靑
靜
非
面
韓
類
風
館
駐
騰
騷
高
魚
魯
鶴
鹿
麗
黃
黑
齊
龍
％
＆
＋
＜
＞
ｍ
ｔ
｜
｢
｣
･
￼
👀
##ᄆ
##ᅡ
##ᆫ
##2
##4
##5
##ᅧ
##ᆼ
##ᅥ
##ᆷ
##ᄌ
##ᅬ
##ᄉ
##ᅵ
##ᄀ
##ᅩ
##ᅮ
##ᄒ
##ᄅ
##ᄋ
##ᆯ
##ᅢ
##ᄃ
##ᅳ
##ᄇ
##ᆨ
##ᄂ
##ᅪ
##ᄈ
##a
##ᆮ
##ᆻ
##ᅨ
##ᅯ
##ᄐ
##ᄑ
##ᅦ
##ᄁ
##ᆭ
##ᅭ
##ᅣ
##ᅲ
##ᅴ
##ᆸ
##t
##i
##ᆽ
##ᄎ
##ᅱ
##ᄏ
##㈜
##ᇂ
##o
##1
##ᅫ
##ᄄ
##ᆺ
##0
##3
##8
##h
##e
##d
##6
##9
##7
##n
##c
##k
##l
##ᆹ
##ᆾ
##v
##u
##s
##r
##ᆬ
##b
##ᇀ
##∼
##㎡
##ᄍ
##m
##j
##p
##↑
##y
##g
##ᄊ
##ᆱ
##w
##↓
##ᆶ
##ᇁ
##㎞
##ㆍ
##ᆰ
##ᅰ
##z
##→
##ᆪ
##f
##ᆲ
##ᆩ
##q
##ᅤ
##㎖
##x
##㎏
##㎝
##♥
##ㅣ
##ｍ
##°
##｜
##ⓒ
##ᆿ
##ㅠ
##△
##ᆵ
##㎜
##㏊
##ʹ
##²
##∙
##①
##👀
##④
##ʺ
##ㅋ
##⅔
##㎘
##㎚
##㎍
##℃
##⁺
##○
##▶
##ㅇ
##⑤
##ㅎ
##×
##™
##⅓
##￼
##ᆴ
##ℓ
##◇
##↔
##ｔ
##◯
##│
##ł
##⋅
##÷
##≫
##≪
##＋
##㎓
##▽
##▲
##＞
##ᅡᆫ
##이
##으
##다
이
##ᅳᆫ
##ᅡᆼ
##로
##ᅥᆫ
##는
##ᅳᆯ
##에
##해
##을
##ᅩᆼ
##지
##ᅧᆫ
##ᅧᆼ
##하
##ᆻ다
##서
##가
##시
##어
##고
##ᅮᆫ
##의
##저
##은
##자
##워
##스
##한
##기
##ᅮᆨ
##나
지
##를
##리
##ᅳᆼ
시
##도
##ᅡᆯ
기
가
##ᅮᆯ
##과
##원
##인
##ᅧᆨ
##으로
##라
대
##화
##사
##장
전
저
##일
주
거
코
##ᅩᆨ
##요
##했다
##국
##부
수
##에서
##정
사
##ᅳᆷ
##대
##로나
코로나
##ᅩᆫ
화
##상
##업
##ᅢᆨ
##니
아
##아
##주
##ᅢᆼ
##회
##제
##들
미
하
바
##면
##명
##여
##되
##러
##만
##게
##적
##19
등
##야
서
마
과
코로나19
##ᅧᆯ
고
##진
있
##수
##성
오
어
##보
것
한
##전
##유
##산
##와
있다
중
##용
##치
##비
##터
##미
위
경
##트
그
##계
나
자
##단
보
인
다
제
정
##재
확
##월
##소
##구
상
##하고
##역
##니다
##드
##년
##동
신
##행
##하는
해
##ᆸ니다
국
##할
##그
부
##ᅥᆷ
모
유
공
관
##이다
감
##문
##ᅯᆫ
##난
##간
##공
선
조
##바
##ᅣᆼ
##려
##데
방
##세
##00
##체
##신
재
##처
##포
##ᅮᆷ
연
최
##며
##내
##개
차
의
비
무
##된
##위
##조
소
co
일
##경
##영
개
##금
영
예
##종
통
##선
##까
##래
기자
내
##안
##관
지난
금
##생
##ᅦ이
여
##차
##분
##무
도
현
##혀
발
##료
##습니다
및
##우
##민
20
노
##당
우
진
트
세
##ᅥᆯ
29
추
##염
##르
##돼
##히
있는
말
##한다
##력
##식
##출
##억
##운
구
강
##증
올
##했
##록
##학
##까지
실
##마
##련
##울
##연
##격
동
##배
따
##발
안
##약
##급
##ᆷ을
##실
##중
##후
매
##타
감염
##방
##반
29일
더
않
에
김
##부터
처
생
위해
##오
분
되
만
##달
##교
##천
밝
##모
##품
확진
계
##속
입
##티
##면서
##표
##권
##준
##버
##거
스
##들이
##청
##ᅵᆯ
##망
##호
##통
##지만
##크
##양
##프
받
kr
밝혀
##입
##합
##ᅲ스
##태
없
##작
##던
##규
서울
##라고
것으로
##번
무단
##하게
금지
회
장
임
통해
지역
##건
성
##설
증
원
교
반
##배포
##ᅳᆯ어
##항
##러스
밝혔다
##본
##매
##험
##적으로
##두
외
재배포
##른
때
한국
##하기
특
문
##근
미국
##능
##석
##외
##책
판
##피
결
##테
##육
##이러스
##황
또
##파
대한
로
##감
##자는
##억원
적
많
며
##음
10
##날
##져
달
##ᅣᆨ
치
라
##루
##린
포
##노
##각
##심
##류
지원
##장은
##복
진행
투
##형
##남
출
말했다
com
집
##ᆻ습니다
##적인
##에게
정부
##승
불
이번
##에는
같
##질
배
참
##었다
##됐다
##직
백
##물
활
##현
와
올해
온
##자가
이어
설
당
##향
##디
##ᅳ로
##께
##보다
##획
검
##점
열
경기
후
직
앞
기업
##된다
##별
신종
혀
요
##량
##바이러스
##환
함
##택
단
파
사업
코로나바이러스
호
##레
관련
행
확산
상황
역
##시아
##들의
했다
##활
업
학
##았다
총
위한
방역
##법
국내
체
감염증
##박
박
증가
이후
##든
202
뉴
운
##명이
##라인
##술
예정
##병
##도록
백신
##츠
함께
를
##람
높
##령
##익
건
##키
우리
평
##하다
약
협
##객
초
두
##뉴스
##코
##광
##런
중국
28
양
는
##들은
할
##론
##임
필
세계
##에도
남
환
##편
대해
##션
##더
민
최근
각
한다
##북
##정을
##럼
이라고
가능
이상
##강
버
##결
줄
##군
##융
경제
##응
취
등을
##ᆻ던
것이
##사를
대비
12
##하며
관계
전재
대상
온라인
##축
##경제
새
19
##ew
##르면
을
##립
##토
작
##분기
이날
경우
개발
##에서는
현재
##되는
때문
채
##판
아니
##온
규
타
##ng
##기를
은
피
감소
##ews
##000
늘어
알
##송
물
청
따르면
기록
사회
어려
##투
음
시장
##시간
11
28일
같은
##담
계획
##율
##즈
모두
발생
am
러
손
##ᆫ터
##협
점
못
##기업
교육
##ᅵᆷ
##름
국가
간
따라
##례
근
##반기
30
##라는
본
이용
베
산
##액
##스트
##움
##전재
무단전재
추가
201
홍
##는데
##독
##ᅢᆫ
##네
뉴스
프로
코로나19로
##스크
광
선수
2020
##락
데
##란
##목
##위원
##ᆻ고
##등
면
amp
##비스
##언
종
해외
##카
##씨
넘
운영
##으며
준
맞
##ᅳᆯ로
##쳐
부산
접
항
그러
영화
##했습니다
##하지
누
전망
##습
매출
##사업
##ᆯ리
참여
##존
기준
##들을
##될
8월
##브
명
##ᆫ다
워
##ᅳᆨ
디
##졌다
속
##입니다
돌
제공
들어
##시스
대표
좋
외국
필요
강화
설명
캐
##장을
##극
영업
변
러시아
##였다
투자
있어
리
목
사진
북
사람
##성이
특히
##운데
시작
##검
안전
완
##족
격
##총
결과
가운데
심
입국
지난해
창
##ᅮᆫ련
돼
##쟁
##랜
##페
##지를
##겠다
확진자
카
##앙
마스크
급
드
최대
##률
독
크
가장
다른
식
##er
##벌
##하면서
##통령
신규
##하면
삼
##했다고
언
##너
기대
법
##최
이라
발표
##악
가격
상승
애
##집
사태
##본부
외국인
기간
##상을
##견
농
많은
금융
판매
14
극
새로
순
##접
##하겠다
문제
##ᆻ지만
메
news
##베
영향
##받
##원은
효
##추
##리는
뒤
휴
커
담
##말
##달러
##ho
확대
다양
일본
##초
게
있도록
인천
##예
##해야
##층
하는
국제
##시설
예정이다
추진
##an
##들에게
확인
##백
대응
##되고
##함
브
겨
##일부터
##력을
##럽
15
전문
##기에
##리를
##커
##회의
##센터
대통령
##인트
##균
##평
나타
잘
치료
소비
토
##이나
큰
##만원
##겨
마련
관계자는
##명을
지속
시간
##성을
##철
생각
다양한
승
확진자가
##bs
서비스
##개월
없다
##가격
현지
5월
##머
##널
분석
##지원
규모
##침
##희
##지는
##대로
논
##길
충
라고
##범
##na
##장이
선원
한편
##째
##회를
정책
개최
##찰
뉴시스
##레이
수준
오는
선박
판정을
사망
훈련
##명으로
머
##그래
##이익
생산
이에
될
##핑
전국
우려
##주시
아이
때문에
여행
##es
연구
상반기
따른
##산업
##사는
##채
사용
합
군
절
하고
공급
전년
허
수요
2분기
##서는
16
것이다
다시
전체
##일까지
##랑
##에서도
준비
27
축
연합
##교육
질
##확
##부는
##녀
##이고
힘
예상
##케
받아
조치
최고
월
것은
있다고
측
너
유지
찾
첫
##창
설명했다
##지고
지금
오후
임상
권
##막
##즌
##애
##순
##털
하지만
연합뉴스
살
##퍼
기존
##럼프
##리고
의료
어ᄄ
성장
##화를
다음
##플
복
##ᅳᆯ로벌
실적
트럼프
##득
##권자
응
저작
9월
##변
인해
국민
방문
된다
활용
##략
##ᆻ는데
윤
편
주요
있습니다
모든
향
13
##시장
만들
##하기로
격리
새로운
이라며
##욱
##했고
처음
100
활동
홈
긴
막
그는
하락
강조
##훈
계획이다
글로벌
이런
대상으로
##큼
사회적
##ᅥᆯ어
책
##으면
중앙
에서
많이
##위원회
저작권자
민주
팬
##왔다
sk
##림
7월
##났다
기사
적극
##지털
##가는
대구
거리
##는다
6월
관리
##자를
24
##사회
현장
##절
등의
##수는
##원이
산업
##텔
##페인
##엔
실시
##안을
##ᇂ게
전했다
##or
시행
앞서
25
디지털
오전
##그램
스타
있다는
17
##열
빠
철
##기로
개선
##은행
착
##한다고
##봉
##자의
폭
##팅
##룹
##ᆨ스
있을
##리아
50
##곳
제품
느
하루
관광
으로
##il
갖
레
세종
끄
검사
보내
진단
##포츠
앞으로
근로
##eo
걸
뉴스1
##일리
업무
들
##들과
##기관
기술
생활
##ᆸ게
효과
##ts
보고
##탈
달러
예비
학생
##랜드
없는
##보를
시설
장기
캠
플
31
내용
18
표
조사
싶
광주
동안
ai
여름
##움을
등이
열린
직원
번
평가
여러
200
시민
그런
부문
포함
감독
보건
높은
신청
경쟁
21
바이러스
미래
##했던
마이
##ig
계약
##이오
받았다
23
회복
##탄
결정
##al
##지역
영상
테
##폭
##oo
##un
현대
북한
##이어
yna
##팀
줄어
##업체
방식
중심
보도
##ᆺ데
것을
##대면
위기
낮
다만
##으나
아시아
자가격
시즌
인한
공개
계속
시대
##대책
##명의
##is
이를
적용
나오
비대면
여파
됐다
롯데
송
##제로
업체
##사가
수도
키
##in
##인다
극복
26
병
##늘
##8년
##롯
사실
고용
음성
야
모습
데이
##뤄
행정
##원을
정도
희
##불
##의를
콘
공연
1만
##거나
##메
이유
##기술
##갈
일부
구성
영업이익
지급
각각
겪
선정
아니라
##기자
##리그
해당
##흥
직접
##이라고
부분
내년
##항공
##치를
##켜
위원
대회
##마트
##금을
태
##생활
특별
후보
삼성
4월
페
##낸
피해
알려
##si
##리가
고려
##동산
##세를
더욱
누적
방송
개인
##원의
사이
##칙
##색
##처럼
만에
문화
##기도
##영상
즐
##금융
또한
이미
중인
재개
면서
늘
##신문
고객
##igh
##턴
##해서
등에
##규모
##페이
##촌
대학
유럽
비롯
프로그램
자신
##촉
등으로
##벤
##셜
환경
기록했다
프
##제공
하나
공공
형
##사의
자가격리
폐
임대
22
##기가
##업을
##트남
넘어
현지시간
##답
제한
친
올라
골
받은
인터
구축
만큼
강조했다
확진자는
또는
예비군
60
나온
학교
##손
베트남
게이
전략
항공
##ᆺ을
사례
헤
##셔
정부는
##찬
##딜
임시
##휴
##릴
##연구
##라도
##데이
크게
안정
##냐
제주
끝
씨
수출
##시에
전날
주민
소비자
##시는
##닝
악
국회
귀
떨어
분야
3월
쉬
않고
news1
전환
부동산
##값
##넷
착용
눈
##링
건강
##가를
##친
##tn
이는
하반기
##렸다
역시
대책
집계
##의료
##제를
##국은
데이터
이동
##붙
이러
##학생
클
##ᅧᆨ신
##시험
##tv
##다는
여파로
지적
나서
##디어
거리두
##이는
노력
반영
##먼
##기는
보여
이뤄
##스는
##안전
상태
##템
에이
중요
아직
확보
논의
패
파이
##bc
오늘
공동
##콩
##식을
##선을
집중
봉
기반
##ᆯ라
나타났다
네
##점을
##정보
40
갈
날
##곡
의무
협력
팀
##효
##베이
이하
##상이
회사
푸
##데일리
이야
중단
않아
뜨
인구
##ta
목표
탈
밀
##약품
##측
##욕
##문화
그러나
성공
취소
답
##그룹
전달
정부가
##혜
행사
긴급
##블
##도가
너무
자체
##별로
##일보
##드는
보다
##감염
판단
##취
##관리
혼
핵
##느
##개발
##니까
##py
거래
##계를
제약
받고
##학교
27일
##자로
##도를
##치는
관객
##억원을
별
##자리
##인을
황
##동차
예방
연장
시스
주택
상품
동기
없이
찾아
##ga
화이
연기
홍콩
중소
창업
느ᄁ
##da
##동안
보인다
의미
##전을
##텐
##십
##통신
본격
##righ
##다고
##되면서
copy
입장
copyrigh
##이었다
##스타
경찰
##패
중이다
gt
ytn
곳
##스터
볼
없어
##환경
1명
참가
장기화
나ᄂ
당시
않은
##관은
참석
물론
##병원
치료제
꼬
혈
##쇄
##같
용
32
##on
##이며
임상시험
철저
##하여
높아
환자
쓰
보면
제조
의견
##경기
돌아
방침
향후
희망
##ᅥᆫ드
##님
##수가
모더
##맹
홈페이
##가가
그래
지난달
##나는
수는
뉴딜
이전
스포츠
##ᆻ을
잠
연속
##필
과정
평균
1년
##픈
포인트
##주의
추가로
좋은
전자
도입
덧
##흐
있고
2월
혁신
##웨
##news
##세가
영국
덧붙
선보
양성
2018년
70
블
##ᆻ어
##et
##혈
잡
##위를
축소
##없
코로나19가
통합
어려운
##전히
##활동
천
##음을
##감을
가족
점검
최소
활성
##춰
##이라는
있으며
##밀
정보
일반
만들어
##낸셜
##포인트
외교
##대책본부
##ᆻ으며
접촉
기사제공
##ul
주장
##업계
조금
##참
2차
##도로
전시
##착
##복지
##ang
이데일리
##주는
##했지만
##량을
어려움을
도시
정상
검토
##굴
##명은
관심
회의
##념
##튜
##en
지방
않았다
파이낸셜
##클
체험
티
##ung
자리
##bi
조성
##합니다
수익
##들도
##럴
있지만
인도
풀
##골
##대를
지역사회
침
라는
##료를
정부의
캠페인
##자와
##델
##조사
##분의
헌
##되지
경남
##이드
우선
때문이다
민주당
##수를
펼
의원
##랫
##약을
마음
제작
방안을
울
분양
##ᆩ에
##회가
공식
일정
##놓
아닌
어떠
##하도록
##가지
트위
기다
##텐츠
뛰
##트를
원격
##억원으로
역할
##to
##라이
##재단
반면
전문가
##틀
##pga
얻
비용
##쳤다
독일
이달
위험
나와
##숙
##재난
국립
스마트
중심으로
##탁
필요한
2만
10월
같다
최종
반도
라며
a씨
##20
관련해
백신을
범
##장에서
경영
##렌
##50
##원에
선택
감염병
가치
제외
육
조정
비교
배우
경기도
증가했다
영향을
선발
서울경제
할인
##00만
연결
##에선
##시키
임시생활
주목
##씩
퍼
##sun
##써
##7년
대출
##장과
##소득
덧붙였다
떠
##ᆻ는
차지
상황에서
민간
가능성이
어떤
라이
##움이
##지에
컨
##투자
##ww
된
누구
근로자
##회는
경험
www
웨
##쇼
##싱
국방
측은
##징
홍보
##글
##인데
그리고
구매
34
까
##택트
파악
가까
얼
상당
노동
업계
브라
통계
2020년
많아
##30
##서를
##증권
변화
메이
존
##과의
##세계
##셀
종합
##긴
##르게
설치
##ᆷ의
##볼
포스트
출연
검역
집단
kbs
터
기획
##인이
##hosun
수가
##보고
비해
##지막
##사이
감사
통한
나왔다
##한다는
##ᆻ으나
##서비스
##부가
검사를
책임
이탈
##되며
발전
상황이
늘었다
##닥
##상공
##진다
엄
##노총
필요하다
거리두기
44
꾸
##죠
##ae
서울시
마지막
##량이
파이낸셜뉴스
##랫포
##2년
##잡
##푸
##폰
과학
우승
##두고
1인
수리
사전
##위기
중소기업
히
##tt
영향으로
##원에서
전기
##냈다
채널
부산항
1조
##단계
동영상
입항
##성은
유학생
우수
수업
관람
1천
go
이같
유튜
핵심
mk
##뷰
국무
##했으며
han
##거래
먼
##ar
지정
##부를
##정책
##트로
인공
인력
부담
tv
##돌
대전
##충
비롯해
에이티
싸
##춤
##캐
맡
방안
##사에서
##상품
##보건
개봉
단계
가능하다
##란다
마스크를
##럴드
전북
##소년
##금지
##중앙
증가한
이와
대규모
매일
서비스를
her
##스코
##리스
부족
요구
11월
휴가
헤럴드
쏘
##ᆷ피
어떻게
##컴
바이오
통과
않는다
케
않는
기업의
1차
오른
질문
##슨
대부
발생한
합의
##불어
바란다
##성과
##운드
##ᆻ으면
있는데
더불어
요청
급증
##ald
3만
##ᆺ이
상황을
규모의
사망자
##헌
자연
비중
불가
그동안
2019
출시
herald
스페인
##지가
자동차
돈
석
마케
##척
늘어난
귀국
벌
소개
않을
미국의
##봐
##ns
##니스
유입
여전히
만나
copyrights
##biz
48
퇴
##제는
웃
콘텐츠
메이저
##짜
##지면서
##보험
진출
발표했다
응답
앵
##이노
##인은
해결
재정
최초
구단
성과
ces
sp
보호
오프
관중
견
##나라
공간
영상을
##관광
30일
##eoul
시청
소상공
처음으로
##단체
공유
실제
chosun
슈
##차를
당부
12월
작품
시스템
모더나
##컬
##bo
주식
어린
제보
##바이오
지원을
유튜브
먼저
뿐
것도
좌
팔
##협회
앵커
